#version: 0.2
Ġ d
e s
e n
Ġd e
Ġ a
Ġ l
e r
Ġ p
t a
Ġ c
q u
a r
c i
e l
Ġ i
o n
Ġ s
a n
r e
o r
Ġl a
a l
Ġ m
u n
Ġ qu
Ġ el
t i
Ã ³
Ġqu e
en t
a t
Ġ t
Ġ f
Ġ v
i n
Ġp er
o m
Ã ©
o s
Ġ en
i s
o l
ci Ã³
Ġde l
Ã ł
r a
Ġ un
Ġ n
r i
Ġ es
Ġ h
r es
ta t
m b
i c
Ã© s
r o
a d
Ġa l
Ã ¨
e m
on s
i t
Ã Ń
Ġ C
Ġl es
Ġs e
Ġ E
Ġc om
g u
Ġ re
m ent
i x
i a
e c
a ciÃ³
Ġa mb
qu es
Ġel s
a s
Ġ P
Ã ²
Ġi n
Ġ A
Ġ L
u s
t s
Ġc on
Ġn o
Ġ g
l e
i r
Ġh a
l a
Ġ b
Ġ o
Ġp ro
Ġ S
Ġ e
l i
v a
u r
Ġun a
Ġ M
an t
Ġv a
d a
ta l
Ġd i
o t
c a
s i
t u
d i
Ġd es
u l
t es
Ġ 1
ad a
Ġ Ã©s
t e
ta r
o c
Ġ Ċ
Ġ D
Ġp ar
Ġc a
ĠE l
Ġdel s
ci a
Ġ j
o b
t er
i tat
Ġ T
Ġ 2
al s
Ġ (
Ġ B
Ã §
i l
Ġm Ã©s
ta n
ci ons
er a
Ġa n
e ix
Ã¨ n
Ġ "
on a
Ã º
u p
m p
Ġa ques
ic a
Ġ G
Ġa c
Ġs er
e t
r an
or m
o d
a c
v er
Ġ R
i d
el l
it z
Ġ F
Ġe x
is t
em p
an y
i g
Ġcom p
e g
b l
s e
t or
ti n
ri a
ĠL a
Ġ res
. .
i m
0 0
e u
Â ·
Ã¨n cia
u m
al l
at s
os t
Ġc ons
Ġ V
i ci
Ġ I
a b
Ġ J
Ġre c
Ġl l
d u
Ġ r
ent s
Ġp res
ti c
u t
Ġ N
ent re
f er
v i
Ġes p
Ġp re
in s
t r
Ġf a
or s
v es
Ġ ta
as s
ad es
Ġm ol
ĠC a
Ġ U
Ġt ot
ci on
Ã³ n
or d
ĠE n
Ġs i
ri m
t ra
Ġf er
Ġp r
v en
Ġca p
Ġse u
Ġse va
an s
p ar
Ġp od
en s
o ci
Ġp el
Ġa r
an a
e d
ar i
Ġaques t
h a
ar c
ÃŃ s
mb Ã©
p os
Ġo b
Ġt ra
tan t
Ġal s
Ġm at
Ġper s
ta ment
e x
Ġt o
tat s
ob re
a ment
Ġh i
g e
i li
u b
or t
r Ãł
ti u
m e
d e
y s
Ġs en
Ġp os
re b
Ġt en
Ġd is
un y
ĠP er
Ġpar ti
o p
i u
ĠE s
Ġ2 0
al itat
Ġt er
n a
v e
Ġc as
Ġp a
en er
Ġv an
m a
es s
or a
t res
en d
j ec
Ġc ar
f ic
ta ciÃ³
re c
il l
Ġs obre
Ġa s
ĠCa tal
Ġse g
si Ã³
p r
Ġper Ã²
Ġi mp
f orm
in a
Ã ¯
ri b
g ra
ti ca
Ġf orm
l ar
er s
p l
Ġta mbÃ©
ti va
on es
Ġp rim
Ġm a
un a
c ar
Ġh an
al itz
reb all
Ġ H
Ġj a
Ġmol t
Ġa ix
Ġ entre
t Ãł
Ġv ol
e b
l es
m in
a ques
i Ã³
Ġ 3
Ã§ a
t en
Ġt reball
g a
Ġm an
p er
Ġn om
ci es
e p
Ġaques ta
Ġin ter
is ta
Ġv i
a v
Ġp l
Ġ20 1
uny a
v ol
Ġen s
du c
Ġan ys
u c
Ġp ass
Ġc ol
ti v
Ġ1 9
a u
Ġs up
p i
d es
ĠCatal unya
ro b
g i
b le
.. .
Ġs Ã³n
Ġes c
ĠEl s
e gu
m en
ĠU n
Ã¨ s
Ġp u
ti tu
bl ic
or n
ar Ãł
al ment
Ġc an
Ã ¼
Ġc os
p a
Ġf ins
Ġc re
Ġ on
gu i
Ġa d
Ġc or
ĠC om
Ġp ol
Ġf in
f ici
qu Ã¨
Ġs ol
arc el
Ġs oci
Ġm es
pr Ã©s
t re
ÃŃ n
ur s
Ġin s
qu i
ti r
o g
" .
o u
E s
ad or
Ġn ost
b re
Ġm ar
Ġmat eix
Ġ O
Ġcon c
u ra
Ġg ran
Ġt emp
Ġqu an
r at
Ġp ot
ĠA l
arcel ona
Ġpar t
" ,
) ,
Ġper quÃ¨
Ġt rob
ti l
Ġl li
Ġde m
ci p
Ġre p
es si
ĠA ques
Ġd on
tu ra
h i
) .
gu t
Ġca tal
Ġp or
â Ģ
Ġa p
ur ant
g un
v ia
j un
r er
Ãł n
ver n
ti t
f ec
Ġes ta
Ãº s
v is
ĠB arcelona
Ġto ts
er i
Ġm e
Ġc iu
Ġ or
Ġg ener
Ġr el
Ġa b
d ic
Ġcon tra
cion al
g an
a m
mb re
Ãł ria
Ġd ia
r up
r en
Ġf et
it u
it j
tiv itat
in t
g es
Ġes tat
ver s
Ġ -
ĠM ar
Ġm un
Ġas s
i ta
Ġ 4
Ġj u
Ġn i
Ġse gu
o vern
Ġin c
it s
an ts
Ġm en
es c
em a
Ã² ria
Ġpers ones
Ġsen se
Ġ Ã
Ġqu al
Ġp Ãº
es ti
Ġse us
Ġs ub
Ġm ill
a i
Ġes tÃł
Ġdi fer
ĠI n
Ġc al
emp res
Ġcom en
ol a
Ġl le
ter i
Ġd os
ic s
Ġ gu
Ġal tres
Ġt Ã©
Ġcon tin
Ġpres en
is me
Ġres p
ad ors
Ġ tin
re t
Q u
Ġaix Ã²
at ge
Ġl i
Ġll oc
ĠL es
a cions
i ciÃ³
Ġpro jec
l l
Ġm o
Ġpol ÃŃ
Ġp o
Ġh o
Ġdes prÃ©s
r ar
ri c
ti us
Ġ x
Ġ tan
Ġ 5
Ġpro c
Ġ em
Ġ2 00
Ġin form
Ġpro f
Ġdi rec
m et
ĠN o
ment s
Ġqu Ã¨
Ġv eu
Ġ ent
en ci
Ġd urant
Ġser ve
Ġ Qu
Ġ tal
on al
u re
Ġf e
Ġn ec
Ġf un
Ġp un
Ġqu als
en y
Ã² n
Ġv e
ĠC on
em ent
ti m
a ix
Ġt ran
any a
Ġprim er
Ġc o
Ġm itj
ti s
u ro
u d
Ġv is
Ġc l
er t
Ã¨n cies
Ġa v
Ġar rib
er ra
or es
Ġre g
Ġv al
bl es
Ãł s
Ġse c
l s
in c
Ġ '
ri es
ti ques
en a
Ġ X
pl ic
ili tat
Ġcom un
e ci
ar an
Ġs itu
e di
Ġman era
Ã¨ c
on i
in g
car a
Ġde f
Ġ âĢ
Ġc ada
Ġs al
ĠD e
ist ra
ci d
gan itz
ul ar
jun tament
Ġac tu
ĠS ant
Ġp ob
Ġ tant
f i
an Ã§
Ġs or
b or
Ġtemp s
a p
d re
h an
u ciÃ³
or i
ĠJ o
an c
Ġd u
os a
ĠD es
Ã² m
a g
Ġa qu
Ġnom Ã©s
is tes
ta c
s a
l o
Ġa f
el la
ĠA n
ta d
Ġc ent
ar is
Ġa ra
Ġdes c
Ġp e
ĠC ons
u i
Ġg rup
Ġp la
ver si
ĠG ener
ī s
Ġc r
tr uc
n s
qui p
Ġm al
Ġ 6
an da
ca b
i f
Ġ era
Ġj o
Ġal gun
Ġtran s
Ġ ra
Ġmun ici
j a
Ġaix ÃŃ
Ġfa m
ell s
Ġde ix
Ġm Ãł
Ġpu blic
Ġ Â
Ġpro duc
at re
Ġv eg
qu e
min istra
x im
Ġt res
es ta
i en
id ent
Ġf or
Ġc ul
m es
Ġd oc
ĠÃ īs
al tres
p or
Ġen cara
ar d
end re
l ia
ĠL le
Ġse ves
Ġb en
tic s
aques t
Ġse t
eix en
Ġre alitz
an es
Ġtra c
re u
Ġmill or
Ġm om
Ġpr in
ĠD i
Ġo c
Ġd ir
aques ta
Ġten ir
Ġdifer ents
gu in
Ġform a
re m
Ġs o
Ġ w
ec on
x a
g ar
t ÃŃ
Ãł r
Ġno u
g at
Ġpro gra
Ġca mp
Ġesp eci
Ġp as
Ġa u
er c
Ġb Ã©
on t
en ti
Ġs in
gu a
Ġciu tat
n es
ĠP ar
ur al
s os
00 0
Ġrep res
Ġpro pos
an d
Ġh ist
an ta
Ġprim era
tor s
en vol
Ġb as
Ġpod er
ĠS i
Ġha via
emp re
ti ves
h o
Ġ us
Ġv er
Ġpos si
Ġ 8
ons egu
av ant
tan ts
Ġesp any
i b
ri p
Ġg overn
u la
j or
envol up
m ar
ĠR e
tu di
Ãł c
Ġt orn
ol l
Ġt e
Ġveu re
Ġdi es
Ġpass at
ĠC ar
Ġc el
ĠpÃº blic
Ġ 7
Ġm in
Ġap ro
om p
Ġi m
Ġac tivitat
es p
Ġvi da
Ġo p
Ġel ec
Ġ Ãº
Ġcontin u
Ġdi vers
Ġde c
Ġh em
teri or
ĠLle i
i versi
Ġprojec te
ar s
Ġqu i
Ġm od
Ã ¡
tor i
um en
2 0
Ġ empres
Ġ 9
Ġin f
Ġdu es
Ġ1 0
es a
n e
Ġs empre
Ġpel s
fic aciÃ³
Ġtot es
p end
Ġm Ã³n
Ġun s
ci tat
ĠL l
Ġpod en
Ġsoci al
Ġ1 8
f ica
em es
ĠC as
1 9
v oc
ta da
c ep
Ġl oc
Ġa cab
Ġprin cip
ix er
Ġcan vi
Ġ ti
Ġac onsegu
c al
Ġdes envolup
ĠAques t
in es
Ġdis pos
Ġmom ent
e vol
e ta
Â »
Ġd avant
ĠT a
q Ã¼
l aciÃ³
Ġcons id
e tat
til itz
Ġparti cip
Ġ z
ĠÂ «
j ar
ol s
Ġan y
ĠA ix
l ec
j u
u res
Ġdon ar
Ġs ab
om en
Ġb ar
se gu
i v
Ġe t
Ġrepres en
Ġ tar
Ġcatal Ãł
Ġset m
Ġmunici p
Ġor ganitz
Ġcomen Ã§
Ġ K
Ġc urs
Ġre fer
d ia
Ġseg ons
bl ica
Ã¨c n
ur os
A juntament
r u
er v
Ġma jor
Ġes t
Ġn eg
c s
Ġre f
Ġc op
Ġimp or
Ġ econ
ĠGener alitat
u tilitz
er ci
Ġs ist
ĠP ro
ÃŃ c
h e
Ġres ul
i es
Ġdis s
un d
Ġ ri
ol og
Ã³ s
Ġcel eb
ĠA r
Ġten en
Ġre b
te ix
Ġ1 5
Ġg ra
ĠA mb
r on
le g
es t
p e
v id
ac tu
Ġ W
Ġa m
i gu
u Ã¯
ar ra
Ġm ili
is siÃ³
tu d
b er
ĠS al
Ġto ta
t ell
p res
Ġaques ts
Ġha b
Ġe di
Ġgener al
Ã² g
Ġm et
ta ri
ig n
Ġo fer
ra da
ul l
Ġa g
Ġab ans
de pend
Ġpro p
Ġserve is
Ġres ta
n o
Ġsi gui
Ġc er
Ġcon f
Ġes tan
l us
Ġparti r
Ġn orm
Ġp ens
d at
Ġper met
Ġser Ãł
Ġno va
ĠAques ta
v ir
Ġg ent
Ġ Ãł
Ġprof essi
Ġnost ra
tic le
Ġpres ident
Ġcas a
Ġcos a
Ġd ar
as c
Ġll ar
itat s
er es
v Ã©s
Ġquals evol
esti Ã³
ri tori
Ġecon Ã²m
ab le
Ġd ins
ac ord
Ġnost re
er ia
ĠPer Ã²
at ges
ran c
Ġb anda
ec ciÃ³
ĠU na
Ġa t
ĠJ os
p u
g n
olog ia
res p
Ġm ant
m i
o ca
ĠTa mbÃ©
li ci
Ġinform aciÃ³
ri ca
Ãł ries
o ts
ĠG overn
ĠEs p
Ġfam ÃŃ
g l
Ġm ost
Ġcon tr
Ġf ot
ĠG u
Ġw eb
Ġfin al
Ġseg Ã¼
un ci
Ġpa ÃŃs
ĠV al
Ġnec ess
Ġcap a
in i
Ġtra vÃ©s
Ġnec essi
Ġh ores
l os
ĠE uro
Ã² s
Ġp oc
Ġcon t
Ġactivitat s
Ġresp ec
Ġll en
ord in
Ġl eg
Ġa ut
Ġc ri
i ent
ĠM a
Ġob jec
Ġb aix
Ġmol ts
ĠâĢ ĵ
Ġt Ã¨cn
la ment
Ġa par
ul es
l ic
r al
er aciÃ³
Ġpr om
Ġpun t
er at
Ġin t
v ell
Ġc entre
p us
d ar
Ġter me
us t
Ġse mb
Ġin d
Ġserve i
Ġrec up
tar Ãł
re ts
ĠmÃł xim
Ġparti t
i mp
Ġdes p
Ġpers onal
b ilitat
ĠC ol
is s
Ġ1 2
Ġno ve
Ġ ur
Ġ utilitz
Ġd ades
Ġcomp le
u al
Ġd ist
tal s
Ġpe ti
la bor
Ġsup ort
Ġe quip
Ġfa ci
Ġrec on
a cional
i cia
r om
Ġciu tad
Ġpro bl
i ra
v ar
resp on
ĠP la
ves ti
si ons
Ġp at
Ġva ig
Ġv en
er o
Ã¨ ixer
tar is
ri l
Ġrel a
Ġveg ada
g in
a va
ĠpolÃŃ tica
el s
g ir
iversi tat
Ġcon di
Ġp ri
A l
Ġpre v
c at
ĠT ot
Ġe fec
Ġpr Ã²
Ġnost res
Ġresp ons
er en
Ġto tal
Ġdem an
Ġc lar
Ġarrib ar
Ġdef ens
ĠS er
E S
Ġ Ì
par tament
ell es
ĠCons ell
Ġcon eix
ti a
m at
Ġpor ta
j o
Ġcomun ic
Ġdi f
Ġtrob ar
Ġ ro
ĠJo an
Ġad ministra
Ġcor respon
Ġesc ol
Ġex emp
Ġex plic
ĠÌ ģ
Ġdis c
Ġas segu
Ġti pus
Ãłn cia
Ġal tre
Ãł g
Ġsist ema
Ġb l
itz aciÃ³
pl ica
Ġpers on
is i
Ġan ar
Ġaques tes
ĠJ a
ven i
Ġ1 7
Ġsitu aciÃ³
Ġf ut
ĠS eg
Ġdi u
er ar
Ġpro pi
ĠC or
Ġh um
Ġsetm ana
Ġ emp
Ġc Ãłr
Ġs ign
ĠV i
er n
Ġdes e
duc aciÃ³
qu en
Ġa fec
Ġm arc
Ġesc ri
ÃŃ t
u ts
in ter
Ġr en
ol Ã²g
Es tat
Ġespany ol
u ir
re tat
ac te
Ġsin Ã³
ĠC al
i ons
Ġn at
Ġproc Ã©s
od e
es siÃ³
Ġe uros
Ġin depend
Ġex c
Ġs an
d or
Ġal l
Ġal tra
Ġes tudi
Ġm or
s s
Ġesp ec
l tim
Ġcomp ar
E l
Ġprogra ma
is c
Ġ1 3
a f
Ġval or
Ġgu any
Ġc at
p ec
Ġgran s
empres a
r os
i ques
Ġmen ys
b li
Ġqu atre
Ġmes os
Ġin ici
ar t
Ġmant en
Ġform aciÃ³
ĠP a
Ġ1 1
ĠV a
Ġ1 4
ĠM on
Ġt el
Ġex per
tan y
ra ciÃ³
Ġha ver
Ġpers ona
ur Ãł
tu bre
em Ãł
Ġsub s
Ġ3 0
Ġi de
Ġpos ar
Ġob li
om a
pos iciÃ³
Ġinter ess
Ġal g
Ġd ret
v at
Ġhist Ã²ria
Ġrec urs
on ar
Ġh om
cion als
g on
Ġmateix a
h om
Ġd in
Ġv iu
Ġalgun s
Ġl ÃŃn
Ġf il
Ġca us
ĠA c
ĠP u
Ġparti ci
ci s
os altres
Ġun es
o gra
Ġf an
ĠAix ÃŃ
Ġin ten
or ia
Ġm Ãºs
Ġtemp or
au d
Ġre un
Ġcar rer
Ġter ritori
Ġen ti
li ol
Ġ1 6
Ġh e
d rÃł
ar ticle
b an
ven ciÃ³
Ġz ona
Ġb on
Ġimpor tant
Ġca m
ra c
Ġdese mbre
ĠM an
Ġp Ãłg
Ġqu alitat
Ġn Ãº
Ġlli bre
2 00
Ġres ol
Ġac c
Ġrec ord
Ġm entre
gu es
a ta
Ġd en
te mbre
Ġcontra c
E R
Ġsen tit
Ġf ou
Ġnove mbre
Ġpro du
Ġcon ver
Ã¨ r
ac tivitat
om ia
Ġdirec tor
un s
c er
Ã¨ g
ir c
ri r
c rip
ĠB ar
Ġde cid
Ġpob le
Ġp en
oci aciÃ³
l at
Ġpublic aciÃ³
gu ts
an o
um nes
Ġs ÃŃ
Ġju liol
Ġc u
Ġinter na
tÃł n
Ġs ent
v or
Ġins tal
er m
a qu
Ġpl ant
ÃŃs tica
Ġpass ar
e quip
o ta
Ġm us
re ta
a par
ad ora
Ġf ill
g Ã¨ncia
Ġm i
Ġcomp any
Ġm erc
r era
un t
Ġrel aciÃ³
Ġdi ri
ĠUn iversitat
Ġpr Ãłc
Ġmili ons
u g
Ġx ar
ci l
Ġmat eri
ter min
vis iÃ³
anÃ§ ant
h ora
I n
ri d
ĠcÃłr rec
le x
ĠG ir
Ġb ona
v aciÃ³
ul s
Ġllar g
ĠDes prÃ©s
ĠJos ep
d res
i Ã¨ncia
fic ar
ĠcomenÃ§ ar
Ġcos es
Ġni vell
or di
I I
alitz aciÃ³
ob jec
. -
v in
Ġdec lar
Ãº n
en c
Ġse tembre
ĠS oci
or re
Ġter min
b res
an Ã§a
Ġma ig
ec n
res s
Ġi l
l u
c om
Ġempres es
Ġd ona
ass a
Ã² r
em ents
p ia
ter na
Ġcon jun
Ġj orn
oc tubre
in e
Ġ2 5
t ur
Ġo fici
Ġa j
ess or
Ġins titu
Ġj uny
Ġla bor
n os
voc at
os pi
Ġpl an
Ġdivers os
ci ona
ir Ãł
Ġcatal ana
ĠnÃº m
ÃŃn im
f ia
Ġ19 9
Ġl ÃŃ
Ġsec tor
ĠV all
Ġtrac ta
Ġman if
gu al
Ġt ur
op ular
Ġma i
Ġg rÃł
v al
Ġav ui
Ġf al
ar ia
A C
mb it
eri or
Ġmar Ã§
20 1
! !
Ġsoci etat
Ġm ort
Ġc ad
Ġfe ina
Ġm ÃŃnim
Ġpossi ble
Ġg estiÃ³
Ġso ta
te g
Ġes tar
ĠT er
Ġes tr
l ou
Ġmol tes
Ġsoci als
on als
Ġde ci
Ġseg ona
Ġm ig
ĠP al
ul ta
di ci
Ġcomp l
g aciÃ³
Ġj oc
ex t
u it
Ġf ent
Ġde b
Ġre gu
v ant
as si
Ġseg le
Ġpresen tar
truc ciÃ³
Ġl la
Ġ 0
Ġc irc
es tat
Ġpun ts
ĠS anta
ĠM un
qu er
re a
Ġob res
id es
ĠâĢ Ķ
Ġaf eg
ol i
ti da
Ġob s
er ca
om b
Ġseg on
Ġpo ts
Ġb us
Ġg ai
t ot
Ġ Ã¨
Ġtreball adors
ĠP S
t ural
Ġac ord
Ġdivers es
Ġfa vor
ĠT arra
Ġva m
Ġcons ell
ĠC an
r ers
Ġexemp le
tu res
du ca
Ġf es
Ġper ÃŃ
Ġm on
Ġj us
Ġcomp te
ta des
Ġd ones
ĠfamÃŃ lia
Ġmitj anÃ§ant
Ġesta bl
ĠGir ona
Ġcontr ol
ĠR eg
e fici
ĠpÃº blica
r is
Ġin vesti
Ġa gra
c es
form a
vi en
ad al
Ã¡ n
Ġvol un
Ġju g
ec u
Ġc li
Ġcapa citat
Ġim m
ri en
x es
I C
Ġdeix ar
Ġin di
ĠJ ordi
Ġmunicip al
oc up
mb res
ÃŃt ol
ĠM ad
ĠE x
g ona
Ġel l
Ġd rets
ament s
tat ge
di o
h ab
Ġd it
Ġta s
Ġv ig
ac c
A r
Ġno ves
Ġmajor ia
Ãł l
ti ma
Ġs om
Ġtra di
Ġc in
Ġsen y
ĠC o
en ta
A n
Ġvis i
al a
Ġal umnes
Ġc ob
Ġcent res
ĠP ol
s up
Ã ±
i p
l la
Ġcon egu
Ġ [
Ġprojec tes
res a
Ġsemb la
3 0
ĠmÃºs ica
Ġcondi cions
L a
Ġd om
Ġenti tats
la cions
Ġaconsegu ir
ĠEsp anya
ĠpÃłg ina
Ġpres ent
ec a
Ġau tor
Ġdesenvolup ament
ĠÃº ltim
tud is
c on
alitz ar
Ġde termin
ĠCa mp
le t
Ã© n
er ta
Ġf eb
ed ir
Ġllen gua
ĠDe partament
Ġparticip aciÃ³
r Ã©s
Ġb o
oc rÃł
v ent
ci n
objec tiu
Ġtal l
Ġsup er
Ġe uro
ĠTarra gona
Ġde u
Ġmo di
ĠA ra
e ti
Ġpre gun
d em
Ġt ri
a mb
ap ro
Ġg aud
ĠF ran
i vers
Ġpob laciÃ³
Ġespeci al
v el
Ġpre par
d ica
iv il
Ġdes tin
omp any
la u
Ġloc al
Ġgrup s
Ġha u
er g
ul tura
duc ciÃ³
fic at
a ut
c o
Ġfor Ã§a
Ġf em
Ġp le
ab ril
Ġmat ÃŃ
Ġcomp et
Ġme mbres
Ġtermin i
Ġpartici par
Ġde dic
ĠR ec
c h
ĠSeg ons
Ã¯ sos
pos ta
ist re
ist Ã¨ncia
Ġcon Ã¨ixer
ar a
Ã¨ ri
Ġt ecn
Ġpres sup
Ġdes ta
Ã¨ m
Ġpre m
ab te
z e
i ment
it er
Ã§ os
Ġlle i
Ġper i
Ġtra s
or ta
Ġten im
ĠQu an
Ġcomp rom
Ġj ur
tÃŃ cia
Ġsegu retat
titu t
re g
Ġn osaltres
on at
Ġdoc umen
Ġet c
ten ciÃ³
Ġno us
Ġdist rib
b il
Ġhist Ã²
Ġres id
Ġi d
Ġjo ves
ĠlÃŃn ia
c ri
Ġpropos ta
Ġc inc
Ġa mp
vir us
Ġpro t
ai gua
Ġe duca
tiva ment
Ġm eu
Ġten ia
Ġ qÃ¼
ven dres
Ġfaci li
ac ter
Ġcas tell
Ġt ren
Ġm ica
Ġel ls
Ġrespec te
A T
Ã¨ ria
ona virus
Ġ Z
Ġoc up
hi b
en es
ÃŃs tiques
Ġfeb rer
Ġ k
Ġre alitat
er e
Ġpar lar
is teix
Ġmod el
labor aciÃ³
Ġ2 1
ĠEuro pa
Ġcomunic aciÃ³
e j
Ġs el
Ġveg ades
Ġn e
Ġesp ai
Ġpro per
Ġmitj ans
gu Ã©s
Ġdoc u
ĠperÃŃ ode
f or
Ġtorn ar
Ġpod em
Ġcons titu
Ġf os
Ġjorn ada
ĠCom issiÃ³
ÃŃ a
ĠMad rid
Ġl ec
Ġes de
Ġt ext
ministra ciÃ³
Ġv ic
u als
Ġs a
Ġtrob a
ĠÃº n
Ġv ia
Ġrela cion
Ġ2 4
Ãł mbit
ĠsegÃ¼ ents
Ġcam ÃŃ
Ġaqu ÃŃ
Ġf ac
Ġmet res
pr en
ĠH i
Ġf i
form aciÃ³
Ġproduc tes
Ġprofessi onals
Ãłc ter
m an
Ġn ord
Ġv o
al e
Ġcons tr
ix a
Ġcas os
Ġcar Ãłcter
Ġconjun t
Ġj un
Ġp in
ĠP P
Ġe vi
Ġex pres
ĠLlei da
Ġ titu
Ġcom b
Ġpod rÃł
ĠG ran
ble ix
h ir
Ġp opular
Ġab s
al tra
Ġg aran
il la
Es p
ÃŃ em
1 1
Ġalg una
ĠSer ve
Ġedi ciÃ³
enti tat
Ġfut ur
Ġpa per
Ġnom bre
Ġpla Ã§a
ĠM as
ĠD urant
ab or
ĠC entre
al la
Ġaj ud
Ġv in
Ġsobre tot
g en
Ġrecurs os
as se
ter a
umen ge
Ġbas e
Ġr Ãł
or ganitz
tal l
Ġalgun es
li es
Ġcul tura
Ġv ost
Ġpressup ost
w w
plic aciÃ³
ac ciÃ³
Ġp es
it Ãłria
al cal
ĠMar ia
d er
i tal
Ġg en
ĠF in
au tor
ĠJ u
Ġcos tat
Ġrec erca
pa i
Ġtempor ada
ort un
Ġsab er
ĠC l
Ġdiss abte
a tiva
Ġtreball ar
Ġcom erci
Ġd ata
A R
bli ques
Ġcar acter
ĠsegÃ¼ ent
rim oni
Ġf Ãł
ĠS an
Ġprom o
Ġin icia
u ta
Ġf ranc
Ġf arÃł
Ġdar rer
Ġf ora
Ġdiss eny
Ġn it
Ġesp or
Ġmes ures
tr Ã²n
ob ra
Ġser vir
Ġha gi
an ia
Ġcatal ans
g rat
l an
Ġdi vendres
Ġcons um
ib li
Ġt or
Ġben efici
ÃŃ fic
Ã¯ t
gi es
itz ar
Ġes ti
Ġha urÃł
ĠGener al
Ġaf ir
b a
it es
lici tud
Ġ2 2
Ġesta va
Ġve Ã¯
aques ts
Ġ Y
Ġcom ar
og rÃł
Ġmunici pi
Ġ eren
ĠPar lament
Ġsegu ir
Ġs u
ĠT or
tis ta
es tar
Ġprofessi onal
gl Ã©s
Ġparti ts
Ġr om
Ġs is
Ġ1 00
Ġrealitz ar
Ġn ens
Ġprincip al
gu da
b ol
i da
Ġter ra
Ġlloc s
Ġvi ol
Ġsal ut
im en
Ġnat ural
Ġf ons
Ġlli ber
Ãł m
jo us
Ġd ur
ten ir
ĠM ol
19 9
h ic
Ġcan di
Ġelec cions
ĠS egu
E n
ĠO r
ĠVi la
' ,
Ġcon vocat
ĠD E
ĠgrÃł cies
Ġcaus a
Ġor ig
du ir
Ġen ll
ĠV ic
Ġacab ar
ĠH a
Ġcat eg
Ġcre aciÃ³
y a
Ġmo vi
ogra fia
Ġre par
Ġac ompany
p ro
Ġi gual
Ġcre u
ĠJ un
Ġrecup era
ĠAix Ã²
Ġcontin guts
d en
m s
Ġan ti
tis tes
Ġconsid era
Ġreg id
Ġpass a
Ġ2 6
Ġdem ost
esc ola
Ġdiri g
on dre
Ġpos i
ĠS e
Ġ /
Ã Ģ
Ġdem ocrÃł
ĠS up
ĠA v
Ġcre ar
e z
Ġv ul
Ġdi umenge
Ġcamp anya
Ġprobl emes
ĠDi rec
Ġpresen taciÃ³
I ns
Ġm ob
Ġme di
n i
es tudi
ĠS ol
Ġd ic
ÃŃs tic
Ġmal al
Ġcre ix
ĠeconÃ²m ica
acc Ã©s
Ġevi tar
Ġxar xa
Ġdirec ciÃ³
Ġex plica
Ã³n a
Ġme va
Ġex p
und aciÃ³
Ġfam ili
Ġcar re
v ista
Ġpa Ã¯sos
ĠR es
ĠM us
ĠD ec
v int
Ã² l
li ment
Ġd ub
Ġespeci alment
anc es
ar em
Ġ201 8
Ġ201 7
Ġf as
Ġesp a
Ġ ord
Ġn acional
Ġresul tats
d it
Ġmin uts
Ġtin gut
os es
Ġc ic
Ġcons trucciÃ³
Ġan terior
ost en
li da
Ġpar la
da vant
A N
es truc
Ġelec trÃ²n
o f
o k
Ġmanten ir
Ġdesc ob
Ġa ju
os os
Ġan im
cion ar
Ġdef ini
an til
Ġt ema
qu it
Ġpu gui
Ġn a
ĠM i
Ġpar a
Ġd Ã³na
p re
Ġproc edi
Ġprev eu
ta gon
reb Ã©
Ġm il
Ġtin drÃł
Ġinc or
Ġconc ep
Ġdi jous
Ġmost ra
Ġm ed
le gi
Ġleg is
Ġt r
Ġcon tac
Ġs uc
Ġ19 8
Ġt ÃŃtol
ĠAn t
l ÃŃc
ĠCas tell
Ġr isc
Ġcap ital
ĠN acional
Ġperi od
Ġmo tiu
Ġmateri al
mar ts
ĠM o
ĠC iu
t Ã²ria
Ġf igu
O N
Ġpod ria
ibli ot
er ic
Ġob ra
n et
Ġdi marts
ospi tal
n ex
Ġmillor ar
Ġsup erior
ĠprÃłc tica
aques tes
Ġreb ut
Ġve hic
ĠF undaciÃ³
pe a
Ġpro tagon
Ġt u
g rÃ©s
Ġc ur
¿ ½
ï ¿½
ĠF er
Ġcr isi
Ġ5 0
i or
Ġhau ria
A L
h er
Ġdef in
Ġcomen Ã§a
ro p
el a
ĠR a
ĠPu ig
ĠF ranc
m Ãł
Ġdon cs
Ġt eu
ĠCatal ana
Ġre m
qu is
rib un
Ġimp os
Ġgaud ir
Ġm assa
ĠP od
Ġquan ti
Ã¨ tica
Ġpresen ta
Ġau g
ĠpolÃŃ tics
Ġprim ers
Ġprincip als
tin a
ĠR am
in ar
Ġmerc at
x e
Ã¨g im
ĠpÃºblic s
Ġpres id
Ġresul tat
Ġrefer Ã¨ncia
Ġf re
Ġlli ure
ĠR o
Ġan unci
x it
ĠpolÃŃ tiques
eix i
Ġt rÃł
Ġdefens a
glÃ©s ia
Ġ2 3
Ġsup os
Ġtot hom
Ġpa g
os sos
ador es
Ġsi mp
ĠC i
Ġpres Ã¨ncia
Ã¼ es
Ġcon fi
Ġrec la
Ġf ona
ci e
Ġ201 2
Ġtar da
Ġre bre
Ġproduc ciÃ³
Ġ rob
Ġen c
E N
Ġpu guin
v ors
Ġdes tac
er ts
as i
Â» .
ess in
Ġmat Ã¨ria
al u
Ġpro hib
Ġprobl ema
l en
Ġfun ciona
Ġcr ÃŃ
Ġtel e
s t
Ġpor tar
Ġloc als
ab ilitat
ur an
ĠfamÃŃ lies
os s
O r
Ġdis p
d o
Ġpre mi
Ġdi m
ol o
A ss
' s
Ġciutad ans
al t
Ġgai rebÃ©
ĠL li
in ici
qu erra
vi at
ili tats
a j
Ġlabor al
ĠV il
Ġpar e
au la
Ġs im
e qÃ¼
Ġm ot
Ġ2 7
s ic
bl ement
ll uns
g ia
ĠG ra
Ġlliber tat
ita ri
ica ment
e ducaciÃ³
Ġinc lou
ĠpÃº bliques
Ġha vien
ĠR ep
Ġ201 3
tra c
Ġqu in
Ġdi lluns
Ã¨ri e
ĠpolÃŃ tic
a gra
um s
Ġj ut
Ġan omen
Ġs on
Ġb Ãłs
m aciÃ³
ĠSoci al
Ġser ia
Ġinterna cional
Ġv inc
i al
teri ors
Ġenll Ãł
Ã© u
ĠA b
Ġexplic at
Ġus u
Ġform at
Ġque da
crip ciÃ³
di al
Ġg l
Ġfun ciÃ³
Ins titut
d s
n at
Ġin teg
p oca
v ada
j at
Ġcul tural
ĠP el
ĠS ab
Ġp an
Ġall Ã²
Ġs ob
C N
f a
Ġaqu ells
Ġju dici
at en
Ġur ban
c ola
A d
ĠEn tre
tiv al
Ġs ens
Ġ201 6
ĠCom un
Ġlli bres
ag ost
ĠT e
ĠprÃ² pia
Ġr Ã¨gim
.. ..
Ġgu erra
ul aciÃ³
Ġ201 5
1 0
ta va
ca p
ci al
Ġrec om
Ġdecid ir
Ġas pec
tic ular
li tat
Ġp il
Ġque dar
Ã§ ar
is teri
Ġ2 8
Ġs um
u da
ĠVal Ã¨ncia
Ġcons eqÃ¼
tu al
Ġprof essor
oc s
Ġrec ol
Ġen f
ĠnÃºm ero
Ġmol ta
Ġviu re
r ats
ada ment
ĠC h
quit ec
Ġpro va
Ġseu a
Ġmus ic
Ġpro v
5 0
Ġrecon eix
Ġp is
Ġv ist
Ġg erm
Ġnecessi tat
Ġconeix ement
t ec
Ġsor tir
ĠA d
in aciÃ³
Ġfe ts
o cia
qu ÃŃ
Ġs Ã¨rie
Ãº blica
p en
ven cions
Ġ .
actu alitat
ar en
ĠAv ui
Ġm ul
oll ir
Ġneg oci
ĠCa p
met re
Ġs ud
Ġser an
Ġg as
Ġespa is
ĠPer e
Ġbaix a
Ġmes ura
Ġdi gi
Ġ19 7
Ġresol uciÃ³
at ura
Ġnecessi tats
ing Ãº
c el
Ġaqu ell
p ort
Ġcomp eti
Ġll u
ust ri
Ġ201 1
Ġex erci
Ġb i
re di
if ica
es pai
ĠB en
A gÃ¨ncia
Ġimp ort
es es
Ġac cep
Ã³ r
Ġsi guin
Ġorig in
Ġex pos
ĠP rem
enci al
g o
ta cions
Ġcons ul
Ġpots er
ci pi
tÃŃ cies
Ġcar a
Ġjus ti
g er
a vi
Ġh ora
Ġes men
Ġter c
Ġactu al
Ġpod ran
Ġdi pu
ing Ã¼
alitat s
Esp anya
Ġim atge
Ġtrac tament
Ġcomun itat
Ġdem anda
Ġpl anta
te gra
g res
tit z
Ġel ements
organitz aciÃ³
Ġ201 4
alitz at
t o
Ġex tra
Ġl im
ent rada
Ġm Ã¨
rib u
Ġest em
Ġref lex
Ġf esta
Ġcl ub
Ġes tudis
ÃŃ fica
ad ell
Ġtras ll
Ġp ort
Ġmill ora
Ġd ol
Ġdeman ar
Ġres posta
Ġproc ess
ĠP res
Ġindi vid
um e
Ġc ot
Ġpropos tes
Ġhab itu
Ġpe tit
er va
Ġar t
Ġe mb
Ãł leg
Ġpro u
Ġbar ri
Ġprot ecciÃ³
gu er
ĠM al
Ġcons erv
in cid
Ġdif ÃŃ
ĠIn s
Ġdeb at
ent ment
ribun al
Â» ,
Ġ |
Ġimp uls
Ġre t
Ġactu acions
Ġexplic ar
Ġvis ita
ec res
Ġ2 9
Ġco ordin
U P
Ġh or
Ġ201 0
Ġsin dic
Ġespany ola
Ġcon ven
Ġno tÃŃcies
Ġrespons able
ol es
Ġjur ÃŃ
Ġconvocat Ã²ria
ĠP rim
Ġmar xa
Ġse gui
Ġpar ticular
ĠG rup
Ġfun cions
lus iÃ³
Ġsol s
E C
any s
car re
ÃŃs si
e tes
Ġlle gir
ou re
Ġ3 1
gu any
Ġv ari
ĠfÃł cil
os c
Ã§ ada
tin t
es tiu
ĠAnt oni
ĠÃ Ģ
l les
Ġesta bleix
ĠDec ret
Ġ y
u ix
Ġin dic
Ġfe ia
uÃ¯ t
Ġvol tant
Ġdon at
Ġv ista
e uros
g el
Ġc ost
Ġt re
en tatge
Ġsor tida
Ġfill s
Ġmill ors
Ġex ig
tor a
Ġpo gut
Ġs us
c he
Ġpara ules
id e
r arÃł
âĢ ĵ
A c
erat ura
ĠL e
Ġp i
Ġg rat
s sa
Ġmunicip als
Ġan at
Ġide a
an ar
Ġc ivil
Ġa hir
ĠM ont
Ġcandi dat
Ġcorrespon ent
Ġll um
Ġav anÃ§
Ġfin anÃ§
Ġid enti
Ġcontinu ar
ĠUn iÃ³
Ġguany ar
Ġfal ta
is cal
Ġt emes
Ãº l
Ġval enci
mp oc
t ri
Ġpre u
es tr
Ġf on
alcal de
at ori
os ta
Ġcan Ã§
Ġass eny
Ġpas se
ĠG ar
itat ge
ob le
gu en
Ġf ÃŃs
ĠQu e
Ġo f
Ġs ap
fer Ã¨ncia
es per
Ġcon te
Ġl it
Ġcons ci
Ġd ura
olÃ²g ic
Ġinicia tiva
Ġpossi bilitat
ex per
Ã² p
egu t
Ġp al
ocup aciÃ³
o fer
Ġequip s
ĠIn terna
tic les
ca ment
Ġur b
Ġestr at
Ġs ur
Ġc ient
Ġdin ers
Ġdisp oni
em en
Ġfun cion
Ġg ir
id ar
Ġtar d
Ã ĵ
ĠB o
Ġs essiÃ³
Ġmun tany
aten ciÃ³
Ġimpor tants
Ġfona men
1 8
Ġn ingÃº
Ġcateg oria
Ġprev ist
Ã© ixer
Ġdeci siÃ³
a plicaciÃ³
ti es
Ġcomp ta
b ert
ici p
Ġde ri
Ġp ed
ĠJa ume
tin gut
ĠD el
Ġm em
ha ver
ĠCar les
r in
Ġcent ral
ha via
Ġvolun tat
Ġefec tes
ĠT erra
Ġcl assi
Ġincor por
f ÃŃ
Ġser v
Ġm ir
Ġcad asc
âĢ ¢
Ġhom es
Ġpar ts
Ġtitu lar
E uro
Ġpar es
Ġp ub
lec tiu
p eu
Ġ4 0
O E
Ġb at
Ġg Ã¨n
e ts
or da
es taciÃ³
Ġvol em
ĠIn ter
Ġex pl
a mp
Ġobjec tiu
Ġf ix
Ġll ista
ĠM in
Ġesp er
Ã¨ l
Ġllu ita
Ġz ones
ĠT ur
Ġdim ecres
Ġel la
r ont
O R
Ġf ra
lus i
Ġobjec tius
Ġac cions
Ġv ir
Ġespec tac
Ġjo ve
Ġpor tal
da p
Ġfut bol
Ġsec re
ĠDi pu
Ġconc urs
ga f
Ġtreball s
Ġa de
Ġmovi ment
ur ar
an i
ien tal
ĠeconÃ²m ic
ĠPS C
Ġv ÃŃ
Ġpro por
Ġi r
ĠMon ts
Ġprocedi ment
Ġ er
ĠP at
Ġper c
Ġpre vi
Ġmar e
i cions
m it
en ari
er Ã§
Ġdel eg
Ġcom Ãº
Ġpens ar
Ġconsell er
Ġte va
Ġter cer
1 2
Ġqu ad
I N
ĠveÃ¯ ns
ur als
ad Ã¨m
Ġ ...
tal la
Ġceleb rar
ĠM Ã©s
Ġcomar ca
pr endre
Ġlle g
Ġm Ã²
ĠP ress
Ġofici al
Ġw ww
esp ec
ĠVal enci
is mes
ass es
Ġg esti
tat ges
qu el
Ġvol en
Ġmitj Ãł
r ant
i ble
Ġlla vors
Ġta ula
ĠB a
Ass ociaciÃ³
' .
Ġinc re
Ġdifer ent
om Ãł
Ġofer eix
olÃ²g ica
Ġen davant
in f
Ġap un
Ġper m
Ġcompany ia
ĠC ultura
Ġex cep
Ġade qu
Ġ19 3
ĠP en
Ġb ri
Ġ ec
Ġpod eu
Ġc ert
is tir
a ven
o od
l ant
ĠServe i
Ġoc as
tr u
Ġdocu ment
Ġno vel
ar rib
ĠA CN
Ġempres a
ric s
in at
Ġedi fici
as t
ĠLl u
Ġcor onavirus
ed at
met res
u mp
jec te
Ġt oc
or ig
ir an
Ġf ru
l le
Ġcor rec
edi fici
Ġent rar
n ec
ta ble
Ġre al
tor al
ĠMun icip
v eu
Ġactu alment
mb le
Ġconf lic
h ores
gu lar
Ġ ,
Ġconc ent
Ġamp li
orre gut
Ġes truc
A M
Ġdar rers
Ġpr Ã¨
da c
Ġpos terior
ĠEs tats
actu aciÃ³
z a
Ġf l
Ġpos iciÃ³
Ġ200 9
Ġconf ir
â Ĥ
Ġpr endre
Ġdi fic
Ġpa ci
ĠSal ut
Ġcol or
Ġa dap
Ġusu aris
âĤ ¬
Ġreun iÃ³
r or
Ã²n ia
tur als
ed eraciÃ³
Ãºs t
ex p
Ġel abor
Ġco op
Ġb anc
Ġac tes
ed ia
Ġm ans
Ġpeti ts
d ors
tor n
Ġrel le
Ġval ors
Ġexper iÃ¨ncia
ĠÃºltim s
Ġindepend Ã¨ncia
Ġinstitu cions
om es
ens a
Ġpla ta
ist ents
o di
titu d
ĠdifÃŃ cil
Ġpresen tat
p s
ĠFran Ã§a
Ġf ar
Ġcan vis
ĠF a
or ca
us iÃ³
Ġdocumen taciÃ³
Ġfunciona ment
Ġgra u
ca pa
in dic
Ġnorm ativa
Ġmal grat
Ġa plic
Ġun iversi
Ġdigi tal
Ġimp res
Ġsal a
l oc
Ġri u
che z
Ġat endre
Ġplant es
eny ament
ĠC ent
ĠA m
Ġcomp os
Ġso vint
Ġprem sa
Ġent orn
Ġmom ents
Ġparticip ants
Ġqu ar
ĠF es
Ġse par
ĠM erc
olo gies
ibliot eca
Ġper fec
Ġva c
al tre
ĠR os
Ġfin alment
ĠTer ritori
is b
fi ques
lÃŃc ula
il ar
v os
Ġdel ic
ĠMus eu
Ġm iss
Ġdem ana
ĠDirec ciÃ³
ĠUn its
Ġcontac te
Ġind ustri
Ġc lau
Ġcon form
Ġfin als
Ġquanti tat
Ġdesc on
Ġap or
er tes
Ġ200 8
ĠEn s
tis me
Ġesp Ã¨
Ġciutad ania
ĠCatal Ãł
ĠT ots
ĠE m
men tar
Ġcl asse
el i
vi ar
Ġcont emp
Ġass ol
d ats
gu em
Ġtas ca
e us
Ġar ticles
Ġ19 6
Ġestudi ants
Ġcontin gut
Ġaspec tes
Ġacc edir
ra des
i em
r ent
Ġnecess ari
ic aciÃ³
Ġv uit
Ġrepresen tants
Ġgl ob
c e
ĠJos Ã©
Ġtrans port
Ġprogra mes
Ġcon veni
ess a
r ÃŃ
ĠT ra
si va
Ġcomprom ÃŃs
Ġabs ol
Ġma pa
Ġsegu it
u el
I Ãĵ
ĠvÃŃ de
Ã² ries
ĠS ec
Es cola
titu ciÃ³
Ġ ul
ĠN om
on g
qu in
Ġinf antil
Ġtrob ada
Ġimport Ãłncia
Ġescri t
Ġarrib at
Ġaconsegu eix
Ġcar rers
Ġmateix os
Ġre i
Ġob tenir
Ġajud ar
Ġmen a
s er
era cions
Ġsign ifica
Ġdific ul
Ġte atre
tin g
Ġpat rimoni
ĠprÃ² xim
Ġcaracter ÃŃstiques
Ġren o
ĠD Ã©u
gl Ã¨s
Ġjun tament
ĠtÃ¨cn ic
Ġper dre
Ġin no
ĠqÃ¼ estiÃ³
li citat
Ġexpres s
in form
f on
Ġb al
Ġrepresen taciÃ³
Ġcanvi ar
Ã²n ica
Ġfot o
is ti
al ta
1 5
Ġindepend en
s ia
E M
Ġmunicip is
ĠM arc
Ġper ill
ran s
ĠT reball
ĠEuro pea
Ãłl isi
Ġ Ãºs
Ġ gui
Ġa viat
Ġarrib a
Ġutilitz ar
ĠP re
Ġde partament
Ġrel ig
qu ia
ro c
Ġrepresen ta
Ġf u
t em
ec uciÃ³
o ti
en da
Ġha gut
Ġcor reu
re ga
Ġprin cipi
Ġdar rera
Ġpeti ta
oc al
Ġv ÃŃc
Ġest ran
i ficaciÃ³
A D
Ġter ren
ĠgÃ¨n ere
qu et
Ġrel acions
I S
ĠCl ub
Ġint el
estruc tura
Ġta mpoc
Ġpos a
ĠInterna cional
f il
Ġf ran
Ġ200 7
Ġs osten
Ġproc ed
Ġver itat
Ġpro ves
Ġem o
Ġfin alitat
ĠCom p
Ġpres Ã³
Ġdif ondre
Ġd reta
Ġin fer
a bles
Ġdispos iciÃ³
ĠqÃ¼ esti
Ġpl at
Ġh as
Ġsetm anes
Ġco incid
I T
Ġob ert
Ġll ic
Ad ministraciÃ³
Ġdirec tament
Ġca b
Ġreg ist
al um
Ġconver tir
Ġdes apar
... ]
ter is
enti ment
ĠX X
r ÃŃc
ĠV ol
Ġrespons abilitat
Ġsen ti
U R
Ġop ortun
Ġprimer es
Ġpos at
ĠMi quel
Ġra Ã³
Ġprof ess
ocia cions
in iÃ³
Ġn uc
ti ga
ĠPrem i
Ġg e
v all
Ġju gar
Ġs ot
re us
Ġal hora
ĠprÃ¨ via
Ġform ar
Ġf oc
Ġmitj ana
Ġc rec
Ġa gaf
Ġme mbre
Ġx if
g ent
u ari
Ġrec ep
ver siÃ³
Ġpa is
Ġal i
ĠDipu taciÃ³
Ã§ at
ĠA ss
ĠM or
Ġprincip is
Euro pa
es tÃł
Ġconstr uir
ĠL u
ĠAques ts
1 4
pi es
v em
Ġdesenvolup ar
Ġcer ti
Ġadministra cions
Ġes s
ĠtÃ¨cn ica
ex pres
Ġc la
Ġtra m
eix in
Ġviol Ã¨ncia
. "
t on
re ix
Ġconegu t
A S
Ġcontrac te
Ġm ec
it x
Ġn av
Ġafeg it
essi ons
ex c
Ġcic le
I B
Ġe v
Ġobs tant
ex erci
ci t
Ġsitu at
i re
Ġmateri als
ĠD ia
fica cions
Ġsist emes
ĠFranc esc
gu Ã©
ĠX avi
ĠE mp
Ġint ro
Ġconc ert
Ġdi ari
alitz ada
Ġac us
Ġj ust
all es
ĠP ed
Ġgaran tir
ĠB er
Ġjug adors
Ġen erg
U r
Ġsub vencions
Ġav an
Ġcon v
ĠP au
Ġ[ ...]
a cab
Ġpr en
inter Ã¨s
Ġfamili ar
Ġsel ec
Ġvi atge
Ġhom e
Ġp ost
ĠT ribunal
Ġ6 0
Ġper d
ĠB aix
ĠSab adell
Ġcomp tar
Ġfas e
ĠP or
Ġhab i
ex posiciÃ³
Ġinc l
ĠE R
Ġqu il
b uix
v ats
Ã¨ rica
actu al
ga cions
Ġconsid er
i Ã¨ncies
en ar
Ġre quer
Ġtall ers
er al
ori es
Ġimp l
Ġxar xes
ĠmÃłxim a
Ġassegu rat
Ġcons entiment
Ġde r
Ġtrob en
em anya
ĠI I
Ġsegu r
ĠV er
Ġ19 4
Ġtin d
Ġim atges
ogra fi
Ġdispos a
Ġescol es
Ġofer ir
ĠS Ã³n
Ġtin c
p id
Ġespany ols
Ã¨n d
Ġasseny al
E ducaciÃ³
gi ques
ĠBar Ã§a
x t
ĠFin alment
ĠCon veni
Ġre du
da ment
edi ciÃ³
Ġre iv
Ġmem Ã²ria
ĠRam on
Ġg reu
Ã¡n chez
gun s
dor ra
Ġcon vid
N o
Ġfun d
Ġac te
emÃł tica
Ġpromo ciÃ³
Ġpod ia
ĠX V
Ġterc era
Ġam ics
ĠAc tu
Ġpre fer
Ġre vol
ĠF el
Ġcreix ement
ĠB ale
ĠM ossos
Ġpoc s
O G
ĠG rÃł
v ades
ĠCon grÃ©s
ĠN adal
ĠC UP
gin y
Ġsen tir
Ġciu tats
k a
d al
Ãłn ica
ĠP i
ĠF ins
tan a
Ġproduc te
ĠF ac
ĠMunicip al
ĠtÃ¨cn iques
ĠLlu ÃŃs
Ġag ents
ĠJ us
Ġmar ca
ot el
Ġno ti
od es
Ġmen j
Ġdesp la
ĠS Ã¡nchez
on omia
Ġf ron
ĠCor onavirus
all ar
Ġvehic les
it en
re es
Ġex ecu
orig en
gi da
Ġfranc Ã¨s
ĠH o
Ġcon vi
Ġcontinu a
Ġsel ecciÃ³
Ġalg Ãº
ven ir
Ġden unci
vis tes
at es
ĠPal au
i o
ĠNo va
ent orn
Ġpublic at
ĠS a
Ġtrasll ad
Ġp ec
Ġnom b
adal ona
arc al
Ġmili tar
Ġexc lusi
Ġver siÃ³
Ġvinc ul
ĠEs c
Ġad re
ri t
Ġdistrib uir
ĠC ivil
au gu
ĠC u
en se
ĠF orm
Ġpol icia
c le
Ġsa tis
ĠRe us
Ġes tim
Ġp ac
Ġimp lic
ĠAques tes
Ġpl ena
Ġaqu ella
ĠR ib
ĠC er
e fec
Ġcons ulta
an im
1 7
Ġcomp or
Ġcl Ãłs
mble a
ig a
Ġin augu
Ġun itats
Ġpa gar
am or
esc rip
Ġcon duc
m on
Ġconc re
Ġm asc
ori al
Ġper du
Ġcomp liment
ĠGu erra
Ġrec ull
Ġdub te
Ġt reb
Ġal terna
Ġgu ard
Ġeuro pe
ĠMan resa
obre gat
Ġex isteix
men tat
ĠB adalona
Ġsuper fÃŃ
Ġinter pre
ĠC ul
on Ã²m
Ġel Ã¨c
b i
Ġmusic al
ĠU r
c an
Ġsup osa
Ġre dac
Ġcarre tera
Ġinvesti g
voc ar
us ta
Ġvi at
Ġad op
Ġsecre tari
Ġinf ants
Ġescri ure
ĠL la
Ġten d
Ġf iscal
Ġdestac at
Ãºst ria
tir ar
Ġpri or
Ġsen z
u cions
Ġcons ol
ĠC at
Ġpre t
Ġcre a
Ġrec orregut
Ġbus car
Ġlec tura
ib ilitat
Ġdocu ments
ĠprÃłc tiques
ĠT en
ĠI s
Ġl iter
Ġaconsegu it
Ġd Ã¨c
Ġfigu ra
ord en
Ġel e
U n
on ats
Ġpag ament
Ġar ticle
Ãº ltim
in formaciÃ³
ĠVall Ã¨s
Ġse x
i gua
Ġprem is
Ġprohib it
Ġent endre
Ġnorm es
ĠJun ta
A P
ra ment
en tal
ogrÃł fic
Ġfin anc
si ques
e ques
Ġv ot
ur g
pos ar
e tats
Ġseny or
Ġ201 9
ĠLl obregat
ol ÃŃ
Ã² leg
Ãł b
ad ministraciÃ³
ĠT V
Ġs Ã©
ĠlÃŃ der
Ġsegu eix
econ omia
ĠCiu tad
Ġapro vat
Ã¨nd um
Ġf ab
Ġ ub
Ġd o
Ġl ingÃ¼
pren entatge
Ġapro fi
e qu
ĠPS OE
- -
Ġme itat
ĠP arc
ĠTe atre
Ġcurs os
Ġrecord ar
Ġex tre
Ġob rir
Ġ Â·
k i
Ġa plica
Ġdi buix
Ġll uny
Ġmen jar
ti on
tar an
Ġcom issiÃ³
Ġmor ir
ica cions
E x
1 6
Ġcri teris
ari al
mb ra
Ġdifer Ã¨ncia
fici ent
qu il
Ġtor na
Ġoc ulta
ĠelectrÃ²n ic
ÃŃ m
Ġdesta car
Ġ200 6
Ġbas es
Ġobli gat
Ġcin ema
E T
Ġens eny
Ãłn im
ĠlÃŃn ies
ĠNom Ã©s
Ġmuntany a
Ġl id
Ġextra ordin
Ġrealitz aciÃ³
ord re
ac h
Ġan teriors
E mp
ol uciÃ³
Ġass um
O C
Ġtrob em
Ġp on
vis i
u blic
Ġcatal anes
ĠM edi
Ġmanten iment
itz at
ĠfinanÃ§ ament
Ġcomp ro
er tura
it Ã¨
Ġproduc tiva
Ġma g
Ġnav eg
fici al
z ar
Ġab and
Ġfon ts
ĠM ed
activitat s
Ġperson atges
ĠRe ial
Ġcastell Ãł
Ġg ol
Ġceleb ra
om pl
Ġm er
Ġbl anc
Ġtin gui
ÃŃs tics
ĠCi U
Ġaqu elles
Ã¨ tic
ĠD av
Ġrecup erar
ĠmÃ² bil
k e
Ġfor ces
Ġagra da
Ġacab at
at or
Ġdeix a
alu aciÃ³
Ġreconeix ement
ĠS ÃŃ
Ġre quis
ĠCas a
c ul
j ada
Ġtreball ador
Ġent ren
Ġprocess os
Ġvic tÃ²ria
Ġconcep te
ĠM ari
Ġpar aula
Ġex prÃ©s
Ãł rea
aqu ÃŃ
Ġadministra tiu
B arcelona
Ġvisi tar
x i
Ġfavor ita
Ġtas ques
1 3
ĠSal a
Ġconte xt
Ġesde veni
Ġque d
ĠPol ÃŃ
Ġper me
Ġfacili tar
exerci ci
Ġv eri
Ġcompar tir
Ġqu ina
op a
Ġceleb raciÃ³
ĠD on
Ġk m
Ġporta veu
Ġas si
I A
en at
al i
t ric
ist Ã²ria
ĠO b
ĠX I
Ġescol ar
Ġdesta ca
Ġun ivers
p es
Ġdis pu
Ġp sic
ĠB l
Ġes for
ig Ã¼es
n ia
Ġtreb alla
eg a
es tre
Ġper ju
Ġun itat
Ġmalal tia
Ġter mes
ografi es
Ġcli ents
Ġe qui
er rat
Ġhum ans
Ġper man
Ġcon ta
on or
Ġcompet Ã¨ncies
is sions
Ġv ots
Ġmost rar
Ġrefer Ã¨ndum
Ġmin istre
ĠC ada
Ġdeix at
Ġtotal ment
en f
Ġsubs titu
Ġin tegra
Ġcons ta
Ġcos ta
Ġven da
Ġpol ici
Ġm as
Ġdirec te
ĠconseqÃ¼ Ã¨ncia
Ġjoc s
ĠBale ars
Ġdesc omp
it or
Ġcontinu aciÃ³
g ers
av or
O M
ad o
Ġcu ina
Ġg ar
Ġs em
Ġform es
Ġafec tats
un es
Ġa tor
Ġdisc urs
tim es
ot es
Ġtar ge
era ment
Ġre torn
Ġcul turals
Ġad qui
Ġinter venciÃ³
g les
v Ã¨ncia
ĠA s
si on
Ġsen si
til la
Ġs il
ĠP l
a ju
ĠServe is
ĠRep Ãºblica
Ġtradi cional
Ġcompany s
c ant
mb its
ĠÃ¨ xit
ĠER C
itat ges
ĠM at
Ġpublic ar
Ġpla ces
id ors
Ġestrat Ã¨g
t t
Ġ Ã²r
exper iÃ¨ncia
ĠT an
Ġdi Ãłleg
Ġde tec
el e
âĢ Ķ
ĠG o
Ġperson als
Ġcl asses
Ġ8 0
m its
am eric
Ġadministra tiva
Ġmodi ficaciÃ³
ri u
Ġb omb
el ec
ĠN omen
Ġdiu en
Ġinvesti gaciÃ³
E L
ĠF ood
8 0
Ġpossi bles
Ġdec ret
Ġelec toral
Ġpermet re
g ell
Ġpartici pa
tÃł ria
Ãłn ia
h or
eri es
Ġinici ar
Ġcon dem
Ã³r rer
de z
ĠF or
agra da
ab s
Ġre forma
Ġestabl ir
Ġn eu
Ãºn ic
Ġcer ta
Ġin cid
b ilitats
Ġmar x
Ġcorrespon ents
Ġe ta
Ġes ca
Ġno v
Ġall Ãł
ĠR Ãł
Ã³ c
om s
O S
ĠM all
ĠP e
Ġper tany
Ġdesp eses
Ġsub venciÃ³
Ġgir on
al es
ban isme
Ġamb ient
Ġcon ten
Ġgai re
Ġesta ven
Ġ ordin
ĠB or
Ġtecn ologia
Ġten ien
Ġman ca
Ġque dat
Ġdefini tiva
men ta
Ġpl u
Ġfes tes
Ġobs erv
b o
Ġnecess Ãłria
ĠPa ÃŃs
Ġsitu acions
ĠS ub
ĠF ern
Ġtan car
Ãłr dia
ĠP as
Ġrep ro
Ġtreball ant
qu ad
d is
Ġb an
2 5
os o
Ġdeclar aciÃ³
Ġha gin
Ġcirc ums
ĠjurÃŃ dic
Ġinform a
Ġv esp
Ġpro te
en cia
Ġref or
Ġar gu
ĠB ra
ci pl
tÃłn cia
Ġp eu
enci ar
or k
qu em
Ġcar rera
4 0
ent en
Ã²s it
ĠMar t
Ġal ta
ĠH em
tÃłn cies
Ġleg al
Ġinteress os
Ġf ront
ĠSegu retat
Ġcomp tes
i onat
Ġgener als
Ġhabitu al
Ġvig ent
ĠtÃ¨cn ics
Ġpor tes
Ġtall er
Ġpre c
I P
Ġcomerci al
Ġ19 5
ĠF ederaciÃ³
Ġac adÃ¨m
Ġobjec te
ĠA u
ĠI lles
Ġplant e
r us
ĠsuperfÃŃ cie
u gi
u a
ĠO l
Ġsol uciÃ³
es glÃ©sia
Ġdeman at
Ġprodu ir
Ġapar eix
Ġcon nec
Ġv el
ter s
in o
ai re
Ġp Ã¨r
Ġgrat uÃ¯
ĠÃł mbits
Ġpob les
ĠR od
Ġnomb ros
Ġorganitz at
men ys
e ig
Ġac os
Ġal t
v ells
Ã¨ ries
ĠFood s
Ġtre ure
h es
E ls
Ġcont rib
Ġha uran
Ġcon tes
al dia
ĠdemocrÃł cia
Ġres s
p ir
ĠP os
c ada
Ġassegu ra
cis ament
hom e
Ġass oci
ĠDav id
A B
Ġllar ga
ĠvÃŃde o
Ġde pend
Ġinc lo
Ġten int
Ġmo tius
Ġv aren
Ġf ort
ona ment
Ã² giques
ĠJ es
tad or
Ġpropi etat
Ġvis iÃ³
Ġdescob rir
Ġre vista
Ġrealitz at
Ġcot xe
ĠâĢ ¢
Ġresol dre
Ġpec es
Ġrespons ables
ĠAl bert
u f
Ġar reu
Ġrec orda
Ġaut Ã²n
m o
Ġcor re
ĠU s
Ġconeix ements
Ġbl oc
Ġavan tatges
Ġa men
ti des
Ġpa u
Ġprov ÃŃn
ĠXavi er
Ġma gn
Ġo per
Ġob erta
Ġcomp rar
en Ã§
Ġpar c
ÃŃfic s
Ġesc rip
Ġcr Ã¨
e mb
ĠF ira
Ġtele visiÃ³
ro t
ĠCol oma
ist ori
versi tat
Ġlit eratura
Ġs ort
Ġmen or
Ã¯ da
dio vis
Ġide es
Ġ( "
cion at
Ġi ma
es ca
Ġeduca tiu
Ġregid or
Ã¨ poca
in vesti
g ada
Ġtradi ciÃ³
ta li
Ġsatis f
ri Ãł
Ġtrob at
fic ada
ĠpÃ¨r du
II I
Ġdispos i
ep res
am unt
es querra
t el
Ã¨ x
Ġb a
Ġmenj ador
Ġe ix
Ġri t
v ador
ar r
Ġapro f
Ġprof un
Ġdon en
Ġha guÃ©s
Ġplata forma
Ġsec tors
Ġcompl ir
Ġsup erar
end emÃł
OG C
Ġre alment
ist ent
p ora
i Ãł
v as
Ġcomp ra
gra f
Ġinterna cionals
hab ili
Ġregu l
or ar
Ġsegui ment
Ġd oble
Ġde tal
end ari
Ġtin guin
Ġnat urals
Ġp ista
Ġre duir
Ġorigin al
Ġfonamen tal
Ġpre ocup
Ġb ra
Ġreg iÃ³
/ /
Ġb osc
olÃ²g ics
lec ciÃ³
ER C
Ġll o
ĠG al
Ġsent Ã¨ncia
Ġde tall
ĠJu an
Ġder ro
ospi ta
Ġprop is
Ġor ien
ĠH e
ĠCon c
Ġni vells
ha u
Ġ >
Ġconc ret
Ġinf lu
Ġfes tival
Ġrecom an
Ġvol gut
ĠMar tÃŃ
Ġform en
ĠN e
Ġf rac
av ui
Ġfa Ã§
Ġinten tar
Ġe ines
teix en
Ġsec ciÃ³
Ġg os
Ġa tac
Ġa juntament
Ġno ta
Ġmod er
Ġhi p
Ġpregun ta
ĠmÃ¨ t
Ġpass ada
Ġm ic
ci na
ĠT he
Ġ ÃŃn
ĠMun dial
% .
ivers ari
ĠPro gra
at ur
Ġfamili ars
Ġdistrib uciÃ³
Ġrep e
c l
Ġg anes
Ġcontr ari
Ġ *
ano va
Ġindustri al
Ã¨r cit
Ġll anÃ§
Ġpu blica
d ria
Ġne te
til s
Ġgu st
Ġter res
Ġtur isme
or ci
ĠcomenÃ§ at
Ã² c
Ġ )
Ġfem en
Ġ200 5
ĠP ots
ic h
Ġvac ances
Ġhabi tants
or aciÃ³
Ġpret Ã©n
Ġan ual
Ġac redi
ura ciÃ³
Ġqu art
apar tat
C O
Ġins tru
Ġt ret
Ãºl tima
ed it
ĠO c
Ġtel Ã¨
R E
mat eix
ĠB i
Ġacab a
Ġaju da
g ress
A s
Ġterritori al
capa citat
Ġen lla
Ġquil Ã²
Ġmun dial
dre u
ĠF l
x iu
ĠMall orca
ci o
ĠActu alment
itz a
ecu tiu
ĠrÃł pi
Ġped ra
fici na
us uari
Ġtrans form
ĠM en
: //
Ġpl ans
Ġdura da
ili b
Ġmob ilitat
c en
Ġpre venciÃ³
Ġamb iental
Ġdefens ar
es os
ns it
lia ciÃ³
lar s
Ġpre us
Ġfe ta
Ġb ones
Ġc ant
E bre
g Ã¼es
cid ent
itu d
Ġprogra maciÃ³
Ġsan itari
ĠÃ¨ poca
Ġ3 5
Ġanim als
Ġ7 0
ĠFes tival
Ġconfi anÃ§a
ul tat
fic ats
Ġv es
licitud s
vent ut
Ġen d
Ġcas es
Ġcar ta
an g
om ent
Ã¨ dia
Ġcom erÃ§
ĠD oc
Ġsi gut
Ġv int
ans a
oll it
Ġver m
Ġvol ia
Ġpass ant
Ġacc Ã©s
Ġorganitz a
arcel on
ĠV an
Ġconflic te
ĠD em
Ġm ira
ĠMa jor
Ġen g
Ġor gan
Ġr uta
ex pl
Ġvol um
r Ã²
ĠA ut
ter es
Ġ- -
Ġt esti
Ġtrans c
Ġal cal
Ġpun tu
Ġap orta
Ġtran quil
6 0
Ġfre qÃ¼
Ġinten ciÃ³
ĠPer quÃ¨
Ġno tÃŃcia
Ġglob al
. [
Ġcomen taris
ob li
Ġapro xim
Ġpro tes
Ġes tic
re z
gu essin
Ġmod ern
Ġf omen
Ġr u
Ġd ra
edi ent
Ġ #
Ġf ont
Ġsec und
ĠPar tit
Ġal em
esp eci
v o
Ãłm ica
Ġan tic
ĠMin isteri
Ġjus tÃŃcia
in terior
Ġa ma
ĠR i
Ġp end
Ġa tenciÃ³
Ġconc essiÃ³
un cia
Ġfer ro
Ġde ia
dem ont
Ġdes itj
ĠR om
I M
Ġdeci sions
) ;
Ġg al
ĠEs tat
Ġl o
Ġesti gui
ra s
Ġesta bli
Ġp rac
f ons
eny a
m em
ĠJus tÃŃcia
form es
Ġd amunt
Ġenti tat
ĠU E
ÃŃt ols
ĠMal grat
. ,
i res
Ġma j
el abor
Ġrequis its
Ġc Ã²m
tr at
I L
se mblea
m ad
ĠM itj
ol Ã²giques
Ġs essions
Ġ9 0
in y
u en
ogrÃł fica
gres sos
ĠN ord
e f
igu al
Ġdecid it
ĠF esta
ĠCul tural
Ã į
alitz a
ĠcanÃ§ ons
Ġapro var
Ġn enes
19 8
t rica
Ġcomple x
Ġev ident
Ġref ugi
ĠC ab
tad ors
Ġnecess aris
inform e
ĠMart ÃŃn
Ãł tica
on ada
Ġb ici
ĠRes oluciÃ³
Ġmiss atge
ĠL i
ĠfÃŃs ica
Ġ200 0
si ble
Ġindepend ent
imp ort
Ġcomunic at
Ġn Ã©ixer
Ãºn ica
ĠhistÃ² ric
Ġvo tar
Ġvol s
l er
ĠPar ÃŃs
Ġf aran
Ġtecn ologies
Ġul ls
Ġp uc
va ment
Ġcomar ques
ĠMonts errat
esta bleix
Ġmant Ã©
Ġmob il
Ġafir ma
ia s
Ġde p
Ġcompet Ã¨ncia
ĠEn cara
Ġcon vers
Ġdom ici
ĠprÃ² pies
Ġinteress ant
ost os
ĠG e
ĠPuig demont
ĠRÃł dio
in d
Ġdeclar acions
Ġi tali
Ġs Ã²l
ĠS o
t ells
ran ts
Ġan glÃ¨s
" )
z z
us a
ĠM ag
Ġm ad
Ġprofess ors
ud it
ĠM e
ĠÃºn ica
ener gia
Ġbri tÃłn
que ts
a prenentatge
Ġdif usiÃ³
Ġpat r
ĠhistÃ² rica
ĠA juntament
Ġca min
% ,
Ġinici al
Ġconsul tar
s in
Ġren di
Ġv aria
esp era
Ġs ou
en ca
ur at
Ġcre at
lec tius
Ġcurs a
Ġcomple ix
ĠC E
ĠB e
Ġparticip at
Ġnecessi ta
ĠA t
Ġau tors
ĠP ort
si u
du ra
Ġs ac
ĠvÃŃc times
Ġpeti tes
b ia
ha gi
alum nat
O L
por ts
o x
Ġc Ã²
Ġpar ella
ĠD is
Ġb la
Ġm is
ĠP unt
Ġcal endari
Ġcamp s
Ġp ic
Ġvesp re
Ġf el
ĠP ir
Ġassi gn
Ġbl og
r ist
Ġmitj a
Ġa prendre
ĠÃºn ic
Ġrecol lida
ĠÃł rees
Ġsitu ada
Ġperdu t
Ġal es
Ãłs tic
Ã§ al
tÃł lia
Ġrecon egu
A g
ven il
ĠN orm
Ġt ens
en Ã§a
Ġpar cs
ĠN at
Ġpregun tes
Ġconsid erar
ĠA g
ĠTerritori al
Ġrelacion ats
ĠqÃ¼esti ons
la b
Ġsoci s
Ġdesc ans
s es
et re
ĠJes Ãºs
Ġreg istre
Ġb all
jo y
Ġdi v
av aluaciÃ³
Ġjudici al
Ġv ers
Ġv ull
hab itatge
ĠR ob
ĠB on
ric ultura
Ġpr on
Ġrecup eraciÃ³
Ġacord s
in depend
Ġb ons
n is
2 2
Ġre ducciÃ³
ĠeconÃ²m ics
ĠMan uel
AC IÃĵ
Ġdi men
Ġc Ãłn
Ġaju ts
ron tar
Ġ200 4
a ti
Ġpossi bilitats
ĠPod em
Ġqu ant
emÃł tiques
Ġtrac tar
Ġresid us
Ġel im
H ospital
m or
Ġfot ografies
Ġva ga
ĠTerra ssa
gat z
ol esc
Ġper fil
Ġp eix
Ġre gi
ÃŃ p
ĠM Ãºs
ĠT rans
Ġima gin
Ġpressupost os
Ã¨ xit
Ġcompeti ciÃ³
Ġn arra
Ġcol ors
Ġvi la
ÃŃ fiques
end es
j ament
Ġdisponi bles
Ġdi ver
Ġterren y
Ġtra ves
Ġar quitec
Ġcomp on
op ortun
Ġimm edia
Ġllen gu
ĠCom arcal
Ã²n im
any ola
Ġa vis
Ġa igua
Ġlabor als
Ġdis tin
Ġcompl ement
ĠCiu tat
Ġclar a
Ġdist Ãłncia
m ac
Ġcons tant
Ġf itx
Ġprom oure
on e
Ġpers pec
G T
que ta
Ġdon ant
Ġdis min
quad ra
Ġactu als
ob s
Ġvol er
c ut
li quen
ĠI mp
Â Ń
ric te
Ġdificul tats
ĠP R
rer e
Ġplant ej
enci als
Ġnorm a
Ġind Ãºstria
Ġar tistes
I D
Ġh tt
Ġrep ublic
Ġparti da
Ġassegu rar
Ġfot ografia
Ġden om
ĠAl s
Ġinc los
is tit
gu era
es ia
f e
Ġfab ric
Ġins cri
Ġmerc ats
ord Ãł
Ġmen ors
ĠRa joy
any ol
Al t
Ġes tarÃł
ex ecuciÃ³
Ġresp on
m er
Ġme us
Ġefec te
Ġllen gÃ¼es
Ġcin qu
ri ol
Ġcu ri
Ġcomun itats
ari en
h t
ĠPer s
apro vaciÃ³
Ġvel oci
Ġto ca
ĠN av
Ġinfer ior
Ġb and
Ġrecord at
Ġvehic le
Ġconc erts
tiv ar
idar itat
Ġll ui
Ġmec an
2 4
Ġtra jec
Ġcondi ciÃ³
om i
Ġvol ta
o v
o taciÃ³
Ġinter ior
ĠN ou
Ġedifici s
Ġregu lar
!! !
Ġperiod ista
ul ts
Ġd Ã¨
ques ta
ĠprovÃŃn cia
Ġorganitz acions
m ina
Ġnecess Ãłries
ĠA quÃŃ
Ġesc ola
k s
imen taciÃ³
m ig
Ġajuntament s
Ġorganitz ar
Ġj ard
Ġactu aciÃ³
t ro
Ġprogra m
Ġnorm al
Ġdoc tor
ĠS ar
Ġtra mi
Ġlegis laciÃ³
cid ental
por aciÃ³
Ġc ita
Ġen guany
Ġun iversitat
di ques
Ãł vem
Ġfil la
da g
ada p
ospita let
a juntament
Ġpeti ciÃ³
Ġinter Ã¨s
ĠP opular
Ġel eg
arÃł s
er op
Ġcomp lic
Ġrit me
Ġsab em
Ġac ciÃ³
Ġperson atge
Ġ200 3
ĠL ocal
Ġca ure
espec tac
l ada
Ġprop ers
Ġcr isti
Ġafir mat
' t
Ġrepar tir
ri ure
Ġcapa Ã§
Ġlim ita
2 1
r als
ĠS erra
di Ã¨ncia
Ġe dit
Ġtind ran
l ement
Ġmateix es
Ġdedic at
te u
ĠC osta
Ġestudi ar
Ãł tic
Ġprim Ãłria
w it
Ã²n ic
Ġca vall
ĠL A
con omia
Ġvisi tants
v an
Ġvic epres
ĠEs tÃł
aix Ã²
Ġjorn ades
ran i
Ġt eix
Ġg ens
Ġocas iÃ³
Ġv Ãł
5 00
Ġ +
lici tar
Ġdocumen tal
Ġob tin
ĠquilÃ² metres
Ãº ria
Ġf ul
Ġneg a
Ġpub licitat
Ġs ant
Ġe vol
Ġsubs crip
ĠP Ãº
f es
Ġsign at
ad re
b it
Ġafeg ir
Ġesp era
ĠpÃłg ines
si m
P A
Ġpropos a
Ġf usta
Ġrelacion ades
Ġe ina
Ġconform itat
ĠComun itat
ĠPolÃŃ tica
Ġvul n
A u
Ġprincip alment
ĠfaÃ§ ana
2 3
Ġi s
ĠMÃºs ica
g ans
Ġpod rien
Ġar r
estruc tures
Ġven ir
Ġocas ions
ĠS ud
Ġinform e
Ġnom s
j ol
Ġan d
Ġmir ar
id or
H ospitalet
Ġjug ador
Ġen viar
rup ciÃ³
Ġs Ã³c
Ġd ot
Ġjut ge
tament s
Ġconsol id
Ġmig dia
ĠcanÃ§ Ã³
ĠcrÃŃ tica
Ã± a
ĠmÃł qu
Ġsegu int
ĠCons orci
Ġvalenci Ãł
Ġro d
ĠLli ga
h um
ĠD om
gatz em
ĠT Ã¨cn
m issiÃ³
' "
Ġinf ra
Ġre ac
Ġrec ollir
h n
l em
Ã¯ tat
imp acte
ĠB al
Ġn en
ĠF igu
Ġfot os
o est
Ġpres ents
Ġsuc c
ĠtrÃł nsit
p at
Ġen car
Ġsil enci
Ġx erra
l el
g Ã³
Ġs Ã²
ter n
Ġass istir
ÃŃssi m
Ġpermet en
ĠS u
Ġorganitz aciÃ³
gu s
Ġespeci als
Ġpaci ents
cin di
Ġar ran
ĠS et
Ġmanif estaciÃ³
Ġdirector a
Ġc ura
ĠVil anova
d ers
Ġp itj
E ns
Ġvalor aciÃ³
habili taciÃ³
Ġal menys
Ġdomici li
ĠX ar
ĠM ir
Ġf en
Ġre tall
ĠIn f
Ġlegis la
Ġpu jar
Ġqual i
Ġnuc li
Ġpres siÃ³
Ġsol id
Ġex posiciÃ³
Ġco di
ens enyament
p o
Ġf ic
pe z
Ġdarrer e
truc cions
Ġfin es
ĠN i
Ã¡n dez
ĠMa tar
Ġpresid enta
esc ol
ĠF il
Ġ :
ĠIn d
ix es
a y
Ã¨ cia
al Ã§ada
ĠJ orn
Ġeduca tius
ĠE S
Ġurb Ãł
ĠCons tituciÃ³
Ġin versiÃ³
ĠtelÃ¨ fon
Ġpasse jar
Ġan iversari
Ġconegu da
EN T
Ġreflex iÃ³
ĠT o
ĠA pro
o posiciÃ³
- ,
any es
Ġpopular s
Ġdem Ãł
Ġir re
ĠB iblioteca
ĠPen ed
ĠTur isme
Ġgener aciÃ³
Ġreg al
Ġque den
Ġv ide
omen atge
ĠQu Ã¨
Ġdirec ta
Ġmovi ments
Ġxif ra
ĠGu Ãłrdia
ĠmÃŃnim es
Ġlli ura
ĠValenci Ãł
Ġres erva
Ġpa tir
Ġpre cisament
Ġassol ir
tin er
ĠPed ro
ĠCom itÃ¨
Ġcl ic
Ġ âĤ¬
ran a
Ãºn cia
Ġass ociacions
g ica
ĠF ont
os i
Ġad ver
it Ãł
ofer ta
ĠC D
Ġrepresen tant
ass ociaciÃ³
Ġel les
Ġmor ts
arrib ada
ĠcÃłrrec s
Ġanomen at
ĠS obre
I R
Ġord re
Ġhum ana
ass istÃ¨ncia
ĠespÃ¨ cies
es tan
Ġdipu tat
Ġeuro peu
Ġtoc ar
Ġhum Ãł
u ti
Ġperc eb
iÃ³ s
Ġ19 0
Ġexc el
in ari
Ġcur t
Ġplat ja
Ġman tin
Ġqu asi
ran ca
ĠSup erior
Ġtarge tes
A m
u alment
Ġh eu
Ġp ena
Ġveloci tat
E D
in al
ÃŃ lia
crip cions
Ġprop era
Ġlli ga
Ġn aix
Ġc ens
ĠlÃŃ mit
Ġaplic ar
ren ed
ĠB at
ĠPots er
t ecciÃ³
ular s
b ar
wit ter
Ġcla us
Ġfel ici
tor is
op eraciÃ³
Ġinform at
Ġcoop era
ĠeconÃ²m iques
ĠconseqÃ¼ Ã¨ncies
Ġv ess
Ġimp ar
) :
on da
ĠpÃ¨rdu a
Ġso par
Ġc iÃ¨ncia
Ġcon nex
Ġd orm
Ġc i
ĠPol icia
Ãłn ic
men et
mi ques
Ġindivid ual
an ca
ĠM u
Ġrob a
Ġpo di
ĠR ub
Ġop ciÃ³
Ġmod els
Ġb ell
Ġac um
Ġeta pa
Ġmanif esta
ĠReg lament
v Ã©
Ġexper iÃ¨ncies
Ġgra us
Ġinstitu ciÃ³
ĠO li
Ġh er
is os
Ġp ell
2 9
h em
versi ons
Ġ4 5
Ġp acte
Ġconfi gu
eta ri
Ġconver tit
ĠGra menet
ĠAn dreu
Ġcomerci als
ti ment
Ġvis ites
Ġllengu atge
Ġprotagon ista
Ġdesp esa
ex istÃ¨ncia
Ġ20 20
Ġso f
d el
lÃŃc ules
Estat ut
Ġales hores
ac tes
Ġpais atge
Ġre ci
ĠPened Ã¨s
Ġ ompl
Ġor g
Ġcons istori
ĠF ar
Ġmanif est
Ġcli ent
Ġfran qu
plic ar
Ġresul ta
ra b
ĠValenci ana
si tat
Ġsal ari
Ġm ens
Ġ3 00
ĠReg ne
j ant
c ons
Ġpo ca
de f
Ġconsid erat
Ġvi es
eb o
m ant
ĠM et
Ġuniversi tats
e a
inc re
Ġsign i
ĠÃł mp
ri g
on Ã¨s
Ġen vol
ĠPro f
ĠJu li
or at
Ġsol a
ĠCi Ã¨ncies
ĠMed iter
Ġperman ent
Ġdi versitat
Ġs ost
Ġcontrac taciÃ³
Ġref lec
Ġf lu
pr Ã¨s
Ġmar ge
Ġdi vid
Ġt he
Ġtrajec tÃ²ria
ĠP D
ĠF C
Ġrelig i
Ġind ica
Ġconserv aciÃ³
ĠG arc
ÃŃ g
Ġcomp r
Ġtorn at
Ġrecon egut
c k
Ġceleb rat
I V
Ġpar cial
Ġreiv indic
Ġofici als
e taris
os sa
Ġsol ucions
Ġespec ÃŃfica
Ġpro vin
Ġfor en
Ġen rere
an ti
Ġneg re
Ġclassi ficaciÃ³
Ġb iblioteca
I F
Ġcri da
Ġactu ar
Ġt es
Ġresta urant
ĠC ris
Ġmil ers
ĠP o
us os
ĠF am
Ġtext os
Ġro da
tes a
Ġcom mem
d essa
gun es
ĠL on
Ġcontemp or
Ġanunci at
itz acions
Ġhau rien
Ġautor itats
ob res
ĠAn dorra
Ġlle is
ĠMatar Ã³
Ġgener ar
Ġres tes
ĠProgra ma
Ġent en
Ġad di
en taciÃ³
Ġplan tilla
Ġs ig
an Ãłlisi
Ġsur t
ĠD OGC
Ġsenz ill
Ġrecon Ã¨ixer
Es quadra
ĠespÃ¨ cie
ĠO ficial
Ġtrans par
Ġcon juntament
Ġva ix
Ġexper imen
t h
Ġc ures
Ġmul ti
Ġviu en
Ãº r
O c
ĠSal vador
ĠdÃ¨c ada
Ġp et
Ġposterior ment
Ġestabl ert
Ġv ent
Ġcons isteix
qu id
Ġe p
ĠP le
Ġpar al
ĠEuro peu
Ġpro teg
r ell
ĠF ab
ar quitec
ĠPla Ã§a
Ġeduca tiva
Ġdes ign
ĠP on
Ġg es
i e
Ġrecom ana
res siÃ³
Ġdis cipl
Ġtreball en
Ġb ru
Ġeuro pea
evol uciÃ³
ĠB as
os itat
Ġt ro
gu des
ĠCatal ans
Ġnatural esa
T A
Ġe ducaciÃ³
Ġpri vat
Ġconcent raciÃ³
Ġdes car
lus tra
Ãłs ter
ĠCent ral
ĠL o
Ġ3 3
l ent
Ġvost ra
Ġdipu tats
Ġdom ini
l is
aju da
elabor aciÃ³
Ġtempor al
Ã³ pez
Ġ Q
ĠÂ ¿
4 5
Ġcaus es
in dica
Ġoportun itat
ĠC reu
Ġf ir
Ġf res
ell Ã³
cion alment
Ġre vis
ĠAb ans
Ġcadasc un
ĠD iss
Ġdiri gir
Ġam ic
Ġb ut
es de
op ciÃ³
Ġpar ell
Ġpre ten
gu eu
Ġpro ve
Ġpo esia
Ġperiod isme
Ġnat ura
mÃł tic
2 7
Ġagaf ar
labor ar
ĠF on
ac onsegu
ĠP rat
Ġpens ament
Ġ3 8
Ġcomple ta
g ment
Ġmes tres
Ġinter p
Ġindependen tistes
mb la
Ġrecla ma
Ġcon fer
efec te
ĠAl emanya
ĠXI X
ĠH um
Ġd a
ĠR af
Ġg reus
Ġub ic
Ġs os
Ġsuc ce
ĠG aud
Ġcomp ens
ĠM il
Ġma tin
ĠL Ã³pez
Ġproc la
ul at
ĠGarc ÃŃa
Ġtreball at
ĠTan mateix
os ament
Ġf als
Ġefec tu
Ġes til
Ġass istents
Ġseg les
2 8
l lar
it Ãłries
ar e
Ġm el
Ġter ror
2 6
Ġra ons
Ġmed ia
Ġes tats
Ġc rim
Ġesdeveni ments
Ġcoop eraciÃ³
P er
Ġprofessor at
Ġimpres cindi
Ġsol ament
obre ix
Ġqu ÃŃm
Es glÃ©sia
ĠT Ã©
orden aciÃ³
esp ort
oso fia
ĠT orre
Ġsor pres
Ġpres ti
Ġop cions
ĠclÃłs s
Ġfru it
ĠJ ocs
r y
ĠDon cs
Ġllo guer
Ġb e
Ġre per
Ġpe Ã§a
Ġeurope us
Ġveg e
Ġpres ump
Ġnete ja
Ġesti guin
Ġescol tar
Ġca igu
Ġaprofi tar
Ġreun ir
Ġtan cament
Ġindependen tista
ta s
Ġesta tal
U N
er os
Ġvir tu
an tic
ĠbÃ© ns
Ġc Ãł
Ġcol l
d Ã³s
ĠQu i
Ġlle ug
Ġconta min
Ġa plicaciÃ³
Ġinno vaciÃ³
og le
Ġgerm Ãł
x ill
Ġins cripciÃ³
it y
Ġperju dici
Ġr us
ĠDi ari
lab ora
Ġdes per
ĠVall s
Ġtrans formaciÃ³
ÃŃ cia
Ġbar re
A ra
Ġt rim
ĠCa ixa
Ġfomen tar
Ġpre ci
Ġa trac
Ġvost re
alitz ats
Ġan ava
Ġx oc
l Ãł
Ġcontrac tes
es til
ĠÃºltim es
ed eix
Ġ200 2
Ġinicia tives
Ġmalal ties
ĠS im
Ġdelic te
it o
m ana
it e
Ġbenefici s
Ġhum an
Ġple gat
is p
~ ~
c or
can vi
ĠS A
mar ca
ha vien
Ġter ri
carre gar
Ġb isb
Ġafec ta
Ġ3 6
Ġan em
Ġs ug
Ġcont ribu
c u
Ġcri tic
Ġconcep tes
Ġsu ficient
Ġv all
ĠÃ²r gans
cion alitat
Ġprodu Ã¯t
Ġcal drÃł
U S
Ġquan ts
ĠReg istre
ĠelectrÃ²n ica
Ġcol la
Ġentre vista
Ġdespla Ã§
Ġdispos ar
Ġ5 00
Ġempres arial
Ġdemost rar
Ġcircums tÃłncies
Ġdia gn
Ġent rada
empres es
g ats
Ġdic ta
ĠrÃł pid
Ġesde vin
ĠI II
Ġta xa
Ġmal a
Ġpar Ãł
ĠSoci etat
gual ada
Ġimp lan
In ter
ĠE ra
Ġigual tat
Ġf ed
ĠÃł mbit
Ġ200 1
Ġamen a
ĠmÃŃnim a
Ġtan cat
Ġf la
l tima
Ġas se
ĠT ri
Ġpres taciÃ³
Ġcon ferÃ¨ncia
Ġel ement
Ġre visiÃ³
7 0
Ġdirig it
Ġc im
ĠC oll
d its
itz ada
Ġgar ant
Ġhab itatges
Ġmin ut
es for
Ġcateg ories
ĠCa m
ĠS om
ĠFer ran
Ġexerci r
expres siÃ³
Ġv et
ĠC opa
Ġprodu eix
ĠCom erÃ§
Ġf ores
Ġpass en
E conomia
al g
is tat
Ġcop s
ri ques
Ġsens aciÃ³
Ġd ut
Ġsup eri
ot o
ĠÃłmp lia
Ġten iu
Ġestruc tura
ĠS el
Ġe qu
ĠP ob
Ġmost rat
aj ut
ĠTor ra
ĠGrÃł cies
Ġsocial istes
Ġpresent en
l and
ca mp
Ġdetal ls
ul ari
Ġpo ques
esc enari
ĠprÃłctica ment
an nex
Ġsus pen
ĠY ork
exp edient
Ġcomp ren
en cs
f rica
ĠCer d
Ġaug ment
hi vern
ĠM ill
Ġaix ec
Ġpermet rÃł
j os
Ġreb u
Ġref Ã³s
Ġpre vis
e vi
Ġsan g
Ġi gu
ĠP r
Ġqu ins
Ġrefer ent
Ġcomunic ar
ĠPro jecte
Ġg eg
Ã²r um
o ciÃ³
Ġord en
ina m
ĠXar xa
m ol
Ġsitu a
Ġvost res
ĠForm aciÃ³
Ġbus ca
fer s
Ġrealitz a
titz aciÃ³
Ġsimp le
Ġresp ondre
Ġacompany at
ĠAl guns
Ã³r m
Ġllic Ã¨ncia
Ġpri vada
Ġfaci n
Ġn asc
Ġresid Ã¨ncia
ones tir
Ġespectac le
ĠE L
Ġav alu
om f
Ġre vel
Ġdes tr
on ia
Ġve us
ĠC lar
U C
me di
que tes
in ada
Ġreun ions
Ġnove tats
Ġt rib
an omen
ell er
ĠavanÃ§ ar
ad i
Ġlli ures
Ġfe ien
ĠD ani
Ġcar n
Ã īs
Ġid entitat
bl o
Ġpor tat
ĠC re
Ġf id
Ġestabli ments
Ġcor rent
si l
Ġprepar ar
Ġm ent
... )
u cion
Ġpro xim
ac cep
ĠAn na
Ġconsci Ã¨ncia
m un
Ġt ÃŃtols
ĠDe f
Ġmot or
ÃŃ v
av era
ĠG in
ĠX ina
ĠInter net
no vaciÃ³
n gel
ll at
Ġimm ig
Ġgrat uÃ¯t
it ges
Ġres um
ins tal
Ġgesti onar
ob ertura
Ġaug mentar
ĠR ic
Ġpos ada
ebo ok
ex tre
al guns
Ġpro visi
ĠB ern
ĠlÃŃ mits
er Ãł
Ġsub rat
Es tudis
Ġman eres
Ġin gressos
Ġmi da
ent es
Ġgas tr
ĠM entre
des a
ĠS ense
gu is
Ġguany at
ĠdemocrÃł tica
Ġb arcelon
Ġpar cel
Ġsocial ista
ti tat
Ġmes tre
ques tra
Ġqu ines
Ġcandidat ura
i taciÃ³
ĠP rom
Ġsub jec
ĠÃ ģ
ej ament
is a
ju dic
Ġcomen tari
ĠR el
Ġperspec tiva
carre gat
espectac le
ĠSup rem
ĠfÃł b
Ġinform ar
gu ez
Ġdoc ent
ĠT al
ĠB anc
Ġmo ciÃ³
erop ort
Ġcons ens
Ġconsid eren
Ġdedic ar
Ġcoordin aciÃ³
ĠR oma
ĠTot es
Ġ15 0
Ã²r gan
Ġte at
Ġju venil
Ġcerti ficat
on z
en ament
Ġ $
P S
Ġfor ta
Ġlec tors
Ġpropi etaris
Ġdeclar ar
Ġpr os
reta ria
Ġconvi vÃ¨ncia
ĠN a
ĠC in
Ġresta uraciÃ³
li ber
ĠPal ma
ĠRe i
ĠH an
eix o
Ġperm Ã¨s
ĠMar ta
Ġpar lament
ĠO n
Ġcomple t
Ġr at
Ġinstitu cional
ĠDes envolup
Ġperm ÃŃs
Ġdemost ra
Ġop iniÃ³
Ġrep te
Ġtradi cionals
ĠD u
Ġb reu
Ġsi mb
ci tats
Ġcomp orta
Ġe vid
Ġre ti
Ġprotagon istes
Ġacos tu
ĠR oca
Ġe ts
ĠPod eu
ĠUn it
ist ema
ĠI m
i taris
ĠComun icaciÃ³
aqu ell
essor ament
Ãł cia
pi ra
Ġassenyal at
ĠCar los
inc or
ĠLon dres
Ġbo ti
o re
ĠG er
ĠÃº ltima
Ġdiri gida
Ġ ol
Ġequi val
ĠI tÃłlia
ĠSeg ona
3 5
in di
Ġcont Ã©
Ġcam ins
s ol
Ar t
Ġop era
du es
il s
j ats
Ã²s its
Ġvig il
or ts
ĠPa Ã¯sos
en di
oportun itat
Ġc Ãłm
ĠB ell
ÃĢ rea
Ġrom an
Ġcap s
ĠA M
ĠP ep
Ġpitj or
ĠS eu
Ġbas tant
Ġ4 6
Ġd alt
Ġaut onÃ²m
Ġutilitz aciÃ³
r Ã©
Ġf ira
ar da
Ġcontrib uir
Ġ &
om un
ĠPu jol
Ġrep tes
cep ciÃ³
Ġa posta
Ġmus eu
w s
Ġc erc
Ġsosten ible
e da
d on
Ã² rica
Ġte us
Ġb ol
Ġtin dre
ĠG l
Ur banisme
ĠAntoni o
Ġ Ãłnim
pos tes
Ġben estar
ĠD avant
Ġgiron ÃŃ
ĠPrim er
Ġvig or
c Ã³
ar tista
Ġpro ba
ci als
Ġceleb rarÃł
Ãł lia
Ġbici cle
us tr
Ġg o
m oni
Ġdin ar
Ġba talla
Ġpin tura
Ġcr Ã©ixer
ĠPat rimoni
ĠPres ident
m os
ĠCar me
Ġv osaltres
s eg
l ista
Ġ tirar
in eu
Ġmi rada
ĠFel iu
Ġcap ÃŃtol
Ġam or
ĠAn d
Ġes tiu
Ġres erv
Ġobjec tes
an tiga
p ass
Ġassegu rarÃł
Ġdis capacitat
Ġorganitz ada
Ġform ada
Ġllui tar
ti ts
ĠMartÃŃn ez
Ġr ural
C E
ĠA li
Ġgovern s
Ġestabl erts
Ġ â
Ġcompro var
7 5
Ġtri omf
r ÃŃem
h ospital
Ġprac tic
xill erat
Ġvalor ar
Ġdoc ents
Ġhtt p
oti di
m Ã©s
Ġlid er
ĠRec erca
n er
Ġf eu
ul ada
Ġa igÃ¼es
Ġv esti
g al
Ġpe dag
Ġre qu
ĠEn ric
Ġf isc
Ġman dat
Ġpos ici
Ġcompet ent
s cri
U A
Ġfac tors
it em
ĠAl tres
Ġdefini tivament
Ġpro gres
ĠGo ogle
b e
Ġproxim itat
esta bli
i di
d ora
Ġbar ris
ter ia
rÃł s
ĠR osa
Ġren unci
gu ll
Ġpar lant
ĠM ic
Ġcon voc
o fici
Ġsin gular
h ar
rÃł nia
Ġdeu te
hau ria
ĠT om
Ġen vi
Ãºl ti
Ġseu es
Ã Ĵ
Ġpres a
ĠP Ã©
ĠFern Ã¡ndez
Ġcat ed
Ġl og
Ġrem un
ĠJo aqu
Ġterri toris
Ġcap davant
Ġimpl ica
ĠS r
Ġrisc os
P C
ĠFran cis
Ġdedic ada
Ġsub ministra
ro ga
g or
Ġpes se
Ġdiv ul
tin s
Ġimpuls ar
ĠLu is
Ġsim ilar
Ġproper es
ĠA p
ĠSan ti
Ġqu otidi
ĠPla ta
Ġsex ual
ĠM er
dar ia
Ġciutad ana
Ġobli gacions
Ġjun ts
est ran
ĠFac ultat
ĠV en
lat ura
9 0
Ġimpos sible
Ġent rades
Ġt rop
en tisme
Ġdetermin ar
Ġau diovis
Ġserv eix
Ġna cionals
au di
Ġb any
Ġmo tiv
Ur gell
du eix
ĠP ri
Ġgen era
Ġhab ita
Ġrem arc
men taciÃ³
Ġreflex i
? ?
Ġregid ors
Ġregu laciÃ³
Ġre cap
Ãłr rega
Ġf eix
Ġsol idaritat
enci at
Ġv endre
pr om
Ġcan al
ĠsÃŃ mb
Ġsum a
ĠT ant
Ġofer ta
Ġgerm ans
am ar
Ġcompos iciÃ³
Ġtan ts
ota cions
ĠgratuÃ¯ ta
Ġsimp lement
Ġass ass
Ġport en
L es
Ġ199 9
Ġescol ars
Ġpro vocar
3 6
p ers
ĠT res
ĠlingÃ¼ ÃŃstica
Ġfranc esa
Ġc og
O T
all Ã²
Ġarrib en
f era
Ġb ot
at ÃŃ
Ġ3 4
An dorra
Ġex istents
ess os
Ġdub tes
autor itzaciÃ³
esta bl
Ġra dic
up aciÃ³
Ġtrasllad ar
Ġf ol
Ġdom in
Ġsor g
ard o
Ġmusic als
Ġcer ca
ten a
Ġprocedi ments
ĠSoci als
ĠP rin
ent ren
Ġvul gui
Ġpo eta
Ġabsol uta
Ġl Ã²g
e v
Ġsum ar
f Ã¨
Ġag rup
Ġrec ent
Ġsor tit
Ġposi tiu
ti rÃł
Ġcomple tament
Ġleg als
Ġb u
C AT
Ġaut omÃł
ĠCa mbra
Ġsim il
investi gaciÃ³
Ġam eric
c ol
ĠEs te
Ġmasc ul
Ġa pren
Ġac ÃŃ
Ġproba blement
Ġclar ament
ĠM od
Ġde pen
ĠEs pa
Ġve ta
l ine
ĠP Ãºblica
ĠB Ã©
Ġnaix ement
Ġdol or
ĠVa ig
ant erior
it ors
Ġinterpre taciÃ³
Ġcar b
Ġpis os
Ġmar es
oc ol
ic al
ĠbÃłs ics
Ã² graf
ÃŃ cies
ĠG ab
Ġveu en
Ġent ra
and o
Ġcadasc una
ĠT rob
ĠV e
Ġaut Ã¨n
Ġl ine
Ġen cap
ĠÃºn icament
ĠE r
ent ura
Ġfre d
Ġtran si
u gu
ĠF re
Ġsindic ats
Ġcad ena
ĠGrÃł cia
ar ro
Ġneg ociaciÃ³
Ġcal or
b ra
us siÃ³
Ġcot xes
us ti
ĠD os
ĠC O
Ġquar ts
Ġvul guin
a men
ĠA qu
Ġlliura ment
Ġe dat
Ġperc entatge
ĠCons titu
emp le
Ġcient ÃŃfica
Ġcan cel
Ġsegu rament
Ġdist ricte
adre Ã§a
giny eria
ri ls
estr at
Ġconver teix
Ġconsell era
a ma
Ġrelle v
Ġd ansa
Ã¯ ts
Ã² ric
ul t
Ġv id
Ġ Ã²p
Ġmarx ar
Ġdifer Ã¨ncies
at er
ĠR ip
Ġvin ent
or g
ĠAut Ã²n
ĠNat ural
Ġx i
Ġestrat Ã¨
Ġd inam
Ġimm ob
Ġsub ven
tu a
Ġin ver
Ġen ca
Ġmet od
mes a
Ġampli ar
ÃŃ tim
as ti
Ġpropos ar
Ġcontinu Ã¯tat
ĠPÃ© rez
Ġte oria
As semblea
ĠP lan
Ġcos sos
as a
ĠEs ta
h ol
C om
Ġparticip en
Ġincl Ã²s
l um
Ġint ent
Ġb oca
Ġju ga
Ġex terior
Ġtren car
Ġ tir
R A
Ãłs tica
Ġregid ora
Ġrespec tivament
Ġdi gn
Ġm ur
Ġa Ã¯
ĠG onz
an isme
Ġop eracions
ol lida
as segu
ĠFigu eres
ĠD ret
Ġmal ament
Ġcan tant
Ġvo taciÃ³
Ġp ont
Ġcom anda
S i
Ġtemp eratura
ĠC rist
Ġdesc rip
alcal dessa
ĠD ol
Ġexcep te
ĠI V
Ġcreix ent
Ġloc alitat
Ġm Ãºlti
ĠVila f
Ã¨ u
ĠE con
Ġsuspen siÃ³
Ġtrobar eu
Ġaf avor
Ġg ols
Ġanunci ar
Ġf Ã³rm
Ġlegisla tiu
Ġg el
Ãºs sia
Ġexper ts
Ġconnex iÃ³
Ġ3 2
ĠCu gat
Ġesfor Ã§
Ã¯ n
s el
Ġac ollir
Ġdispos en
Ġdefens at
Ġhor aris
Ġpa ti
ĠLl en
C C
Ġexemp les
Ġus os
ÃŃssi ma
id al
Ġm era
Ġsus p
Ġj ub
e i
Ġf ant
Ġespor tiva
expl otaciÃ³
Ġob ri
ĠT oni
ĠUn iversi
Ġin j
an unci
ili ar
Ġprev ista
esfor Ã§
d ol
Ġali ments
Ġest ona
ex Ã¨rcit
Ġsetm an
Ġmaj ors
Ġparticular s
Ġquar ta
Ġman ip
Ġcons ells
Ġpres os
Ġl u
Ġac tiva
ĠPrin cip
Ġsob iran
b al
ĠI N
ĠConsell eria
ĠC ard
ĠAmb ient
ĠvÃŃc tima
Ens enyament
at Ã³
Ġdarrer es
Ġcul pa
Ġa ten
rop oli
k o
ĠG estiÃ³
Ġt ru
Ġterren ys
hes iÃ³
por tiu
s ar
ĠB us
Ġinstru ments
uÃ¯ da
ber g
li gÃ¨ncia
Ġad olesc
Ġtri ar
ĠrÃł dio
ag o
ĠRec ord
Ġtend Ã¨ncia
Ġparla men
apro va
Ġutilitz a
Ġess ent
Ġmet ge
inc lou
Ġac tors
Ġpob lacions
Ġdes ig
Ġpodi en
Ġtr uc
Ġdefin ir
ĠC ad
Ġvol eu
ĠÂ »
Ġa vi
Ġcre ure
ĠE t
ent e
Ġinter posar
ĠÃ©s ser
Ã¨x ic
Ġincre ment
Ġsab en
dic ciÃ³
Ãłria ment
ĠT ecn
Ġl os
Ġta ules
ĠCiutad ans
Ġtrami taciÃ³
ĠN ic
Ġpresti gi
Ġpasse ig
Ġalem any
at e
Ġart ÃŃstica
ĠcrÃ¨ dit
lec tual
Ġg rec
_ _
ĠO s
ap or
ĠH er
Ġpe us
Ġan nex
Ġh id
Ġh ospital
ĠGu ill
Ġfa ig
Ġtra ducciÃ³
Ġgu ia
fi quen
Ġ4 00
Ġri ques
Ã Ī
or al
Ġprote gir
Ġ7 5
Ġcirc ulaciÃ³
ES O
C at
ĠC os
ĠCastell Ã³
d ard
Ġconflic tes
Ġag rÃŃc
Ġtan ca
Ġpan talla
Ġes tre
ĠhistÃ² ries
Ġb Ãł
Ġtrim estre
Ġdi visiÃ³
Ġutilitz at
Ġver d
Ġsecund Ãłria
as ta
Ġlle t
lus ions
ĠcÃłr rega
b ac
Ġac tiu
Ġvolun taris
Ġcomen tar
ien tals
ĠcÃłn cer
Ġan uals
Ġv ins
di tat
aqu ells
Ġdescomp tes
Ã²l ica
Ġtren ta
Ġar que
Ġtesti moni
ol la
Ġnombros os
ha urÃł
op iniÃ³
via ment
Ġes tal
Ġan tics
Ġmodi ficar
ĠCon tra
ÃŃ mp
Ġvi v
Ġorgan ismes
Ġidenti ficar
Ġex ac
Ġimprescindi ble
Ġinvestig adors
200 2
Ġpil ota
k y
N I
id Ã¨ncia
Ġreg lament
Ġdis f
Ġexpres sa
ĠV ia
ĠDesenvolup ament
m ada
Ġesc ala
ĠSer gi
Ġat Ã¨s
Ġxif res
Ġrespons ab
ĠEs per
Ġres istÃ¨ncia
ĠÃ Ĵ
ĠfÃŃs ic
Ġvi atges
as tre
Ġdot ze
m Ã¨s
Ġdestin at
al ista
alitz ades
Ġno ies
Ġf arem
Ġd anys
Ġi di
A V
ost ra
ĠSet mana
Ġlegis latura
Ġperi Ã²
Ġcor rupciÃ³
en lla
Ġpos en
tan s
E U
ur ants
lec tiva
l Ãłn
Ġeurope es
Ġsuperi ors
ĠjurÃŃ dica
is enda
Ġg ira
qu eu
Ġmod alitat
pl es
ĠRob ert
Ġcomun s
Ġint ens
Ġcl ÃŃn
Ġrelle u
g na
Ġconven Ã§
Ġjur at
ĠIn formaciÃ³
r ari
au gment
f re
ĠP ot
g ament
ĠGra u
, ...
p h
3 3
Ġcob rir
Ġaccep tar
Ġrequ eri
end rÃł
ĠUn ivers
Ġplante jar
Ã¨ tics
Ġdeix ant
Ġpro voc
Ġmen tal
ĠMar e
Ġin versions
Ġcli ma
Ġapor tar
Ġrel at
Ġperme ti
Ġ18 9
Ġinici at
tany a
z o
ator is
t Ã©
Ġretall ades
ut ri
Ġh onor
Ġplante ja
Ġsubscrip tors
Ġprepar at
Ġpri vi
vin guda
ĠPro tecciÃ³
all ot
Ġf um
ĠmÃ¨t ode
Ġ %
ilib ri
Ġaspec te
esde veni
Ġtar dor
Ġdon arÃł
ĠC ha
Ġob tingut
ĠV I
Ġintegra ciÃ³
ĠRaf a
' '
Ġinteg ral
Ġesta d
al f
Ġdisponi ble
ĠprÃ¨via ment
Ġrendi ment
e ines
Ġbo tiga
Ġrep or
Ġexerci ci
Ġvuln era
Ġdi aris
Ġh Ãłb
Ġsitu ar
200 3
ĠN Ãºria
Ġpob resa
li ar
ibliot eques
Ġ3 7
Ġdi ent
Ġa tra
Ġrequer eix
W eb
Ġt orre
4 8
Ġcontrol ar
Ġcost os
ten siÃ³
Ġv as
Ġmar ques
Ġf orn
Ġinform es
i ors
ĠR oc
y es
Ġn au
Ġfin alitzar
Ġesc en
ĠÃº til
Ġ6 5
Ġredac ciÃ³
Ġinclo ent
Ãł tics
Ġnombros es
Ġesfor Ã§os
Ġreiv indica
ci ls
Ġcal c
Ġmat rimoni
Ġpot enciar
ĠmÃºs ics
l in
Ġplu ja
Ġd ob
n om
Ġperiod istes
ĠT ext
ĠdÃ¨c ades
l ot
f ra
Ġvis cut
Ġmarc ar
ĠT i
d ex
Ġcompor tament
Ġprepar aciÃ³
ĠM es
Ġcandi dats
fic ant
ww w
at ures
assi gn
ĠJo ventut
Ġesp erar
Ġden Ãºncia
le z
Ġh omenatge
Ġve iem
Ġanti ga
is sa
arrib ar
oll ers
ĠcomenÃ§ ament
gu e
Ġpend ent
el im
li b
Ġconstitu ciÃ³
Ġaporta cions
Ġgaran tia
em er
ĠVilaf ranca
ĠS ch
Ġpro b
ĠPar ti
Ġdenunci ar
' m
ĠO riol
e va
Ġbaix ar
Ġoportun itats
Ġre tirar
di rec
aut onomia
Ġvari etat
Ġt ribunal
Ġm issiÃ³
Ġan alitzar
Ġcob erta
Ġdefin iciÃ³
Ġb lo
Ġpre vistes
Ġpri vades
201 0
Ġun i
ĠCon f
Ġnecess iten
Ġt ÃŃp
tu als
ha m
Ġpar lat
Ġd ates
Ġrec entment
en o
Ġv oc
ĠF ou
Ġdesenvolup at
Ġob ertes
ĠbÃł siques
Ġtan ta
Ġaproxim adament
ĠCas al
Ġinclos os
all er
Ġvicepres ident
Ġinflu Ã¨ncia
tari at
Ġmarc at
li des
z i
ĠT witter
199 9
b s
Ġg er
Ġve ig
Ġespanyol es
Ġal um
m ats
Ã¨g ia
ĠdÃ¨ fici
or ge
O ficina
Ġfe tes
ĠU N
f f
e val
Ġocup ar
tes i
. )
Ġde gut
rÃŃ guez
Ġfil osofia
r Ã³
Ġindic at
Ã± o
ĠR og
Ġdisc rim
0 5
u alitat
Ġmost ren
Ġcom iss
at erra
Ġtota litat
terior ment
ĠrÃłpi dament
Ġpregun tar
Ġrebu ig
Ġan gles
Ġplan ificaciÃ³
Ġer r
a tac
Ġad jun
vi ra
Ġcaigu da
Ãłr rec
en g
ĠacadÃ¨m ic
Ġv ell
l ÃŃ
ĠRod rÃŃguez
ĠEn titat
Ġ8 3
ĠtrÃł mit
arc aciÃ³
i le
Ġac tiv
Ġbas at
Ġfil m
ĠS or
ĠT ort
Ġrealitz ades
Ġnom enat
i rem
Ġpos s
Ġsimil ars
Ġincorpor aciÃ³
Ġpas si
Ġcri teri
Ġcient ÃŃfic
Ġreno vaciÃ³
ĠG el
Ġanomen ada
leg is
i tar
ĠQu im
E G
ĠFac ebook
as h
Ġen orm
Ġincorpor ar
Ã²n iques
Ġdi p
prom ÃŃs
ĠS eny
Ġlleg it
Ġlle tres
Ġal ter
Ġla ter
Ġpri va
Ġpolici al
ĠFrancis co
establi ment
O s
tor es
ĠB el
Ġalterna tiva
Ġas c
ĠE N
ell Ãł
Ġselec cion
Ġespor tives
ĠCo ordin
Ġmat Ã¨ries
Ġar ren
Ġcar tell
Ġad ults
Ġsorpres a
ĠEs cola
ĠPlata forma
er ciÃ³
Ġa pos
Ġs ÃŃn
us i
Ġrec ons
ĠB r
or gan
ĠfÃłb rica
ĠPrim era
Ġcanvi at
v et
Ġdi pl
Ġaplica cions
Ġescri ta
ĠS osten
ĠC el
in guda
ĠVila Web
quis iciÃ³
en guany
Ġno ia
Ġsegui da
Ġesc enari
ĠMar ÃŃa
ĠLl or
ĠD rets
d om
Ġperfec tament
eg ar
ĠA f
ĠC orn
l ats
ĠTer res
y er
ĠE di
Ġequip aments
tan ta
Ġsign ar
Ġsegu eixen
Ġmanif estat
ter mina
ĠC urs
Ġband era
Ġofer eixen
Ã§ ades
Ġconc lou
ed or
Ġafeg eix
Ġlle vat
ab ast
ĠV ir
Ġbaix es
eg o
Ġpar rÃ²
Ġcent en
Ġf it
Ġcos tu
incre ment
erv atori
Ġreb aix
Ġ4 8
Ã¯ na
Ġfigu res
ti ficaciÃ³
Ġapar eixen
Ġsemb lant
Ġparti d
ĠPÃº bliques
Ġhab itatge
Ġdesta quen
Ġelabor at
Ġno c
ĠV ella
ad ia
Ġf eli
Ġconc er
Ġre habilitaciÃ³
du Ã¯t
pr Ã¨n
Ġtan tes
Ġenerg Ã¨tica
Ġmo da
Ġg ru
Ġm u
7 8
Ġurban ÃŃstica
Ġdetermin ats
Ġespor tiu
ed es
tÃłn ia
Ġm onestir
Ġfac tura
Ġde tin
in ats
ĠW eb
independ entisme
ĠS empre
ĠavanÃ§ at
Ġde tingut
Ġposi tiva
Ġha ur
Ġefec tiva
Ã²leg s
Ġpron unci
itz ats
Ġciutad Ãł
Ġutilitz ant
Ġtorn ada
p le
Ġmed iter
199 2
Ġ3 9
ĠG as
Ġre cin
Ġexclusi vament
Ġdimen sions
Ġ q
Ġgra du
z ena
Ġconcre tament
t ol
U M
l ants
3 4
Ġplan eta
Ġre als
ĠS on
Ġadqui rir
Ġpar ad
c os
ĠPa blo
Ġsan itÃłria
ĠC rec
ĠQu in
Ġpil ot
Ġf lex
ĠG r
op era
tor als
Ġvost Ã¨
Ġb ur
Ġpos ant
Ġa C
ĠMerc at
Ġall ot
ĠA hir
ĠAl ta
ĠFin alitat
Ġper segu
Ġsubs cripciÃ³
A b
Ġpot encial
le ta
ĠEl ec
ĠB rus
Ġmecan ismes
ĠEsp eci
ĠT ru
ĠT ele
Ġirre gular
at x
ex terior
Ġfem in
Ġespec ÃŃfiques
Ġpas siÃ³
o w
Ġurb ana
3 9
ĠÃł rea
Ġnoc tur
Ġresta urants
ab el
gu ard
ĠCamp ionat
Ġpr Ã©s
ĠlÃŃ ders
Ġdemost rat
li g
ĠEsp anyola
Ġespectac les
ĠAutÃ²n oma
al iciÃ³
ĠM Ã³n
Ġterritori als
fici ents
Ġofici nes
ĠG a
ĠJoaqu im
h u
Ġprof essiÃ³
ĠP ic
ici s
ĠS L
Ġcomp e
Ġsoci etats
gu itat
Ġdeclar at
ĠM ac
Ġide al
ĠM ob
Ġno is
Ġinteress ats
Ġt omb
Ġinter net
le ts
V ic
alg una
ĠEx pl
Ġprojec ciÃ³
il aciÃ³
Ġa ta
al ar
Ġat rib
Ġdificul tat
quer as
I s
p ecciÃ³
Ġ199 8
esper it
er na
Ġmill ores
ver na
0 9
Ġemp rened
Ġri val
Ġfron tera
Ġprim avera
Ġinclou re
Ġobserv ar
In terior
k er
ĠMerc Ã¨
a fec
Ġpens a
Ġar tes
Ġcompl emen
e o
ĠA lex
Ġapar Ã¨ixer
Ġtranspar Ã¨ncia
fic ades
Ġc m
Ġfra se
ĠestratÃ¨g ia
Ġconegu ts
ĠGran ollers
3 8
Ġi tiner
ĠCor ts
ĠrÃłpi da
Ġbri ll
Ġsal uda
Ġra mad
ĠMol t
Ã¯ a
ĠJo hn
Ġsindic at
U T
Ġfund aciÃ³
li d
Ġorg Ãłnica
Ġm assi
all s
igu el
ĠT orn
ci osa
Ġdeleg at
7 9
Ġja p
Ġn aciÃ³
Ġdes f
Ġde dica
ĠEcon Ã²m
Ġca mbra
ĠDE L
Ġ18 8
adÃ¨m ia
Ġv ora
r ents
ĠJ ap
Ġfuncion aris
emp or
Ġpod reu
on en
te or
ĠAss ociaciÃ³
Ġdin tre
enti tats
Ġexpress ar
Ġmiss atges
an ista
ĠB la
ĠE ducaciÃ³
ad equ
ĠR Ãºssia
ĠcrÃ¨ dits
Ġterc ers
Ġlle tra
omp liment
Ġesdeveni ment
Ġmer eix
Ġtan c
ri ment
O P
in ten
hor ari
Ã¨m ia
Or dre
Ġt ros
rat ge
Ġcompany ies
af eg
ĠI C
Ġc Ãłl
erv aciÃ³
ÃŃn cep
Ġm ac
Ġdesenvolup a
Ġmodi ficacions
Ġespec ÃŃfic
Ġpaci ent
ĠTer esa
Ã² f
oc ar
Ġvide o
Ġpar ar
Ġinfra estructures
ĠD esc
Ġcient ÃŃfics
Ġpo guÃ©s
Ġbla ug
Ġedi cions
Ġpens at
Ġ15 5
Ġmanif es
rer es
Ã²s tic
ĠOl ÃŃmp
y n
Ã ¤
Ġa gu
ĠIn depend
ĠF iscal
Ã²n ies
Ġpri vats
Ġhabitu als
mÃł tica
ĠFel ip
ri da
Ġdes n
C a
ĠcrÃŃ tic
Ġfen omen
Ġalcal de
Emp resa
ac redi
ĠFab ra
Ġclub s
Ġbanc ari
Ġc Ã¨l
titu ds
Ġconjun ta
eu ro
Ġdeleg aciÃ³
ĠS c
pi raciÃ³
Ġcapa Ã§os
0 6
Ġmon u
Ġpresen tada
ĠmÃ² d
Ġmatin ada
Ġal imen
0 1
Ġan Ãłlisi
ĠEmp ordÃł
Ġindustri als
men tal
Ġform ulari
Ġefec tiu
Ġri gor
ass ar
Ġcomen cen
Ġpu jada
Ġquin ze
ĠAr ts
Ġabsol u
Ġesde venir
Ġcomb atre
Ġla s
ur t
Ġprovisi onal
Ġpublica cions
Ġto p
ĠSe mbla
Ġform acions
ĠM iguel
ĠelÃ¨c trica
Ġafir mar
ĠS eb
ĠL lo
Ġnaveg aciÃ³
Ġpl ats
ar ca
ĠEn guany
ĠS itges
0 4
Ġpens o
Ġde guda
ĠclÃłs sic
Ġpropi etari
Ġal eg
Ġpresen tarÃł
enf ron
Ġenlla Ã§
Ġpresid Ã¨ncia
Ġfl ors
7 6
Ġrepres siÃ³
ĠJa vi
Ġf ÃŃ
Ġemp le
Ġvis tes
g ic
Ġn eix
ĠestratÃ¨ gies
Ġdesp leg
quer res
Ġdes igual
Ġfonamen tals
Ġproced ents
ĠM em
Ġdes g
Ġfin ca
Ġtur ÃŃstic
Ġprove Ã¯
Ã ¶
Ġdelic tes
ĠIn ici
ĠM Ã¨xic
Ġtreball adores
Ġimpl emen
Ġxerra da
ĠJun queras
ĠcrÃŃ tics
Ãłn cies
ma gatzem
ĠN eg
ĠN ot
Ġrealitz ada
Ag ricultura
Ġser i
ĠSec re
Ġposi cions
Ġcontra s
Ġcirc uit
ri el
Ġ5 5
Ġpod rem
en tar
ĠJo ve
Ġn er
vol uciÃ³
Ġimmedia ta
Ġcat Ãłleg
Ġbas ada
200 6
CO O
Ġv endes
ĠOr ganitz
ok ies
Ġex t
la m
aconsegu ir
Ġcons truc
ac cions
Ġsor pren
Ġprevist os
ĠGar cia
Ġr ell
ĠT ar
Ġperson alitat
Ġdisposi tiu
Ġart ÃŃstic
er ador
Ġdetermin at
ec s
Ġbell esa
ec h
Ġqual ificaciÃ³
Ġmor al
ĠUr b
Ġprom ot
imp uls
Ġrevol uciÃ³
Ġteix it
Ġde termina
ÃŃn s
Ġimp ostos
Ġecon omia
200 7
A t
ac ompany
0 8
Ġf oment
Ġestruc tures
Ġar bres
Ġpor tu
Ġjut jat
ins cripciÃ³
Ġguany ador
ĠC ic
Ġper tin
Ġriques a
Au diÃ¨ncia
ĠB omb
Ġhip ot
tor ia
Ġjur is
gen da
b um
Ġinc on
ĠbÃłs ica
el aciÃ³
av al
Ġrec Ã³rrer
ĠF oment
Ġderro ta
4 4
ĠB re
ĠdÃ¨fici t
ar reu
Ġveri table
enlla Ã§
b rer
Ġsost re
Ġl ema
Ġfemen ÃŃ
ĠFer rer
Ã¨n ia
n al
ĠAd ministra
Ġpre visiÃ³
Ġmajor itÃłria
ini ons
AN C
ĠTor res
d ad
Ġall uny
Ġgu anya
C on
g ades
Ġfisc als
Ġrepres enten
Ġmoder na
ĠEl l
Ġdestin ats
Ġapun tat
Ġindivid uals
ĠvÃŃde os
Ġdesc ens
tica ment
ĠPir ineu
Ġma tar
Ġpass os
Ġapar tat
Ġpublic ada
Ġextre m
Ġat urar
Ġpar len
Ġin gress
ĠS ants
Ġsupos ar
Ġocup a
Ã¡ s
Ġinici alment
vi es
ro gues
P L
ol ar
a eroport
gl aterra
Ġo pos
Ġcomple tar
ĠC la
Ġinno v
ĠUn itat
ac us
ĠB os
Ġencap Ã§al
ĠÂ ©
Ġpre ven
ed ents
Ġdispos icions
ĠmÃ¨t odes
Ġexclusi ves
Ġanterior ment
Ġsol ar
7 7
ĠE UA
emÃł tic
uc h
ĠCom promÃŃs
Ġan irÃł
Ġinteress ades
ĠCon tin
Ġcon tenciÃ³
ta ven
in er
Ġa tre
Ġhor ari
ĠPro c
Ġar ts
Ġadop tar
Ġtur ÃŃstica
Ġconsul tes
ĠRip oll
Ġcomp tarÃł
Ġac cident
ĠS am
ĠcomenÃ§ arÃł
Ġdin Ãłmica
Ġdep Ã¨n
escrip tor
ĠP ER
Ġrecin te
or b
Ġbal anÃ§
ĠBrus sel
Ġra s
Ġgu er
Ġcamp anyes
Ġc ans
ĠD ins
Ġal iment
Ġsal es
ĠJ x
ĠMar ina
Ġesc ollit
od is
ĠCa mb
il at
Ġr onda
es me
ros sa
Q U
ol f
S A
Ġimplan taciÃ³
Ġprov oca
Ġnorm alment
Ġsign atura
5 5
ĠB lan
Ġmarc ador
Ġenerg ia
Ġten siÃ³
om ena
Ġpo emes
Ġimp acte
Ġadequ at
le y
r omp
E UR
Ġcont ÃŃn
es qu
Ġcamp ionat
Ġpa ga
un da
li ques
Ġcons erva
Ġconfer Ã¨ncies
ĠmÃºlti ples
Ġe fica
Ġtrop es
og ia
Ġam unt
Ġ oli
Ġmilitar s
termin aciÃ³
Ġenf ron
ĠTort osa
b urg
ul tats
Ġs inc
Ġempres ari
qu Ã©s
Ġp op
Ġconven is
Ġregu la
ini cia
Ġil les
ĠMol tes
ĠT h
ĠN O
ĠC erv
Ġre acciÃ³
Ġmic ro
iv ell
ĠH ist
es tudis
Ã¡ lez
ĠC N
ĠE du
Ġesc ollir
ta tives
ag rup
Ġme dici
ĠV idal
Ġfra g
y o
Ġac titud
Ġrepe tir
h istÃ²ria
Ġper o
Ġl uc
Ġhab ilitats
i ri
ron at
201 3
u cionar
ĠgrÃł fic
ĠProf essi
au rada
ĠN osaltres
Ġpub lici
Ġpos teriors
Ġhist ori
Ġme ta
Ġh otel
Ġlec tor
201 2
0 3
ĠcrÃŃ tiques
Ġesmen tat
Ġti p
Ġconvers a
Ġcar tes
Ġdeix en
Ġpol s
id enti
ot els
Ġesp ort
fic Ãłcia
va cions
is is
Ġjun ta
dic s
Ġres postes
eix ement
Ġal liber
ĠSec retaria
ĠS h
Ġta ri
ĠP in
Ġrepresen tar
Ġconsid eraciÃ³
ĠGonz Ã¡lez
Ġdign itat
Ġintro duir
Ġrecep ciÃ³
an n
Ġt rip
n g
Ġdeman en
Ġvess ant
ĠRog er
Ġimp u
iv era
Ġfid el
Ġac ull
Ġreg la
ĠPos teriorment
Ġafec tat
Ġalterna tives
Ġinc om
el com
ic ar
ĠJorn ada
Ġinter n
Ġll istes
rib uciÃ³
al ada
amp liaciÃ³
Ġau x
l ica
Ġsemb lar
Ġha ure
Ġep is
cep te
Ġorig en
Ġqued arÃł
Ġplan ejament
Es pai
Ġub icaciÃ³
ĠS indic
te ig
Ġprotes ta
Ġuniversi taris
e an
Ġamb dÃ³s
ĠAr t
Ġimpos ar
Ġsab ia
ant ena
ist res
lici tant
Ġsob ir
l d
u ri
cion ada
Ġrecol z
S S
ĠLa bor
als evol
ĠPor tu
Ġcadasc Ãº
ven en
Ġf ull
Ġb r
ĠG i
ĠConstitu cional
ĠXV III
Ġconstr u
Ġacompany ar
Ġass ump
l ÃŃn
Ġinten sitat
an des
Ġco her
T he
Ġpesse tes
Ġsug ger
Ġr ere
Ġjo ventut
201 8
ĠPrem is
0 7
ĠS ols
ĠM ira
I mp
Ã² lic
Ġpen al
Ġcon grÃ©s
ĠIns titut
ĠEs t
Ġte ves
Ġdi al
E P
Ġprofess ora
Ġadequ ada
Ġsal var
h otel
Ġsosten ibilitat
on ades
Ġre tar
ĠH istÃ²ria
Ġvolun tÃłria
Ġop tim
vi la
ĠC ub
Ġadap tar
Ġnegoci s
Ġtransi ciÃ³
I ON
J o
Ġcontinu en
Ġinteress ants
Ġmedi eval
xi us
emer gÃ¨ncia
Ġreti rada
Ã¨m ica
Ġx in
Ġha v
Ġi gn
Ġmanifesta cions
lu Ã¨ncia
Ġb eques
Ġdestin aciÃ³
Ġrecla mar
ĠBa ges
Ġab ord
ĠprÃ©s tec
Ġse xe
n oc
Ġpreveu en
Ġrealitz arÃł
Ġincl osa
Ġcon vocar
te t
Ġcompon ents
Ã¨n cer
di cis
Ġ6 4
ic o
Ġbanc s
Ġclic ant
Ġmag ist
Ġbisb e
9 9
Ġmuntany es
Ġin qui
ra el
americ Ãł
Ġdetec tar
le tes
Ġbl ocs
ale tes
Ġj unt
ĠV is
ass os
ogrÃł fiques
Ġconduc tor
ĠC op
Ġvaix ell
Ġobli dar
Ġpl us
Ġtrob ava
Ġdel im
Ġrealitz en
d ran
200 9
Ġ4 3
Ġno i
ĠestÃł n
Ġquanti tats
Ġmun tatge
ropoli tana
j ades
Ġdigi tals
I G
el ecciÃ³
Ġcenten ars
ĠV ill
ent endre
igu es
al ÃŃ
ĠO rien
Ġconstr uÃ¯t
ha gin
egu da
Ġsembla va
re tes
Ġpis cina
ĠmÃ²bil s
ĠGaud eix
us ter
Ġcondem n
Ġcomun icacions
ĠPu blic
Ġdis par
Ġfl or
Ġbas a
Ġfe ines
Ġt em
aut o
gen tina
Ġesc la
hab itatges
ĠC COO
Ġtal ent
6 5
Ġestudi ant
Ġ4 4
ones a
ĠSeb asti
Ġcont und
es tal
Ġnove tat
Ġcomp tat
ar di
Ġespec ÃŃfics
Ġdisposi tius
Ġac omi
Ġex pec
Ġapun ta
re ci
ĠJap Ã³
Ġencar reg
ĠS te
ta litat
Ġsup erat
Ġdepartament s
ul m
Ġma quin
Ġinaugu raciÃ³
estrat Ã¨gia
tin o
Ġ tit
ĠB ri
ci alment
ĠnÃºm eros
201 5
Ġresponsab ilitats
Ġdes tÃŃ
Ġescrip tor
Ġpro pa
ĠJ an
ĠDem ocrÃł
Ġpl Ãłn
d ec
Ġac ud
ĠmÃłqu ines
uÃ¯ ts
E m
Ġve ÃŃ
Ġsan itaris
ĠOr dre
Ġvis ual
Ġc ir
Ġpar lem
AR C
Ġin ven
ĠD a
Ġtrob arÃłs
ĠRafa el
Ġexisteix en
Ġac lar
Ġco aliciÃ³
Ġn et
Ġi b
Ġgui tar
e jar
udit ori
ĠperÃŃ odes
ĠF em
ĠS istema
Ġverm ell
ĠÃł l
x o
Ġren da
Ġaj us
Ġll it
ĠÃł rab
ĠL L
Ġimmedia tament
voc ats
ĠP ac
ĠestÃł s
di es
Ãł u
apro fi
ĠAr tur
Ġb allar
Ġme ves
an glÃ¨s
da m
Ġr os
Ġorigin als
Ġnasc ut
Ġboti gues
mor zar
Ã©s ser
men tada
ĠMen orca
id s
Ġc iÃ¨ncies
Ġsensi bil
ĠtrÃł mits
Ġsindic al
Ġli ber
Ġpa tit
ĠF ons
ĠSer Ãł
Ġbosc os
ĠC Ãł
Ġin fec
6 8
o o
al imentaciÃ³
emp s
is tia
ri ent
Ġviat jar
Ġaband onar
ĠS t
Ġconsci ent
Ġsom ni
b es
Ġexpos icions
emÃł tics
cis me
em n
Ġpar ada
ĠUn ides
ĠR amb
Ġsim ul
Ġexpress ament
Ġexp edi
Ġpro var
Ġdirig ents
Ġt ex
im a
Ġ0 8
Ġes tu
ĠquÃŃm ica
ĠdemocrÃł tic
Ac ciÃ³
Ġcomp ati
tri u
Ġesta cions
A G
Ġmera vell
ĠSel va
Ġtrasll at
end is
T S
Ġobligat Ã²ria
mol t
Ġbicicle ta
Ġal tes
Ġrefer eix
ĠC irc
ĠH om
Ġlli urar
Ġcapa citats
199 8
m al
Ara gÃ³
esti ma
ĠTÃ¨cn ica
Ġinstru ment
cip aciÃ³
Ġf esti
objec te
rim ir
Ġcor pora
Ġtrans vers
Ġg est
Ġcomplic at
Ġf ixa
Ġdese mb
Ġad scri
Ġregist rat
Ġop tar
Ġpens ant
ĠVic enÃ§
Ġt rets
201 1
ĠCar rer
Ġpend ents
fici Ã¨ncia
ĠG en
Oc upaciÃ³
O n
Ġfavor able
Ġ" .
ĠfÃŃ siques
Ġcom una
Ġinter vencions
inter canvi
Ġjard ÃŃ
Ġaju des
ve tat
ĠFam ÃŃlia
v Ãł
Ã¯ des
la cant
ĠF ed
I gualada
Ġitali Ãł
qu ing
ur banisme
ĠLla vors
gu eren
Ġret ribu
E I
Ġdetermin ades
m ica
ran Ã§a
Ġperfec te
Ġav all
Ġcent enar
ĠO p
Ġelec torals
3 1
Ġpot enci
Ã² tica
Ġtrans metre
tri ques
ĠB any
ĠbÃłs ic
ĠD NI
aj ud
Ġregul adora
em at
Ġqu elcom
in tegra
ĠR iu
Ġasseny ala
Ġver gon
Ġf ren
T R
Ġtrac tat
Ġafec tades
on ant
Ġaddi cional
Ġcontamin aciÃ³
Ġm ÃŃ
or ld
ab itatge
0 2
Ġt emÃłtica
Ġpar elles
Ġl Ãº
Ġompl ir
ĠRo vira
umen tal
Ġmerc ad
Ġn ena
ĠT el
Ġman tingut
ĠD en
m ir
ĠCor poraciÃ³
ĠR u
Ġunivers itÃłria
ĠP all
x ar
pos a
Ġesta da
Ġescri ts
le ga
Ġ u
Ġesca u
te d
Ġsupos at
Ġrespec tar
Ġsan itat
200 5
Ġimplic aciÃ³
ĠCris tina
P F
Ġtrac te
Ġl ong
Ġtorn eig
Ġdesc riu
Ġsubs cri
eri al
Ġcan als
Ġdes carregar
ĠD ar
Ġcom itÃ¨
ĠSol er
Ġestabl ertes
Ġen viat
Ġcomprom et
Ġpl ana
il ia
qu Ã©
Ġcirc ular
Ġassum ir
esdeveni ment
Ġm oure
ĠmÃłqu ina
Ġ os
Ã² x
Ġfabric aciÃ³
ĠP h
Ġempres aris
Ġcob ertura
ora bles
Ġconfir mat
Ã² tic
Ġelabor ar
ĠAt Ã¨s
Ġrep eti
Ġvi tal
ĠT rac
ĠN acions
Ġes querra
Ġjusti ficar
ĠF o
Ġa di
ĠCol om
d ir
ĠXX I
Ġtur istes
tr ol
ĠU Vic
Ġdeix em
ĠV am
Ġdi d
Ġpin tor
Ġapro vada
ĠU AB
im m
ac es
Ġpod ers
Ġreb el
ĠMol ts
ex ecutiu
Ġm Ã¨ri
Ãº p
Ġrefugi ats
ĠGuill em
ĠD r
Ġass ociaciÃ³
Ġaplica ble
Ġsenti ments
Ġfac tor
Ġpres tacions
Ġac oll
omb ra
Ġposs essiÃ³
obli gaciÃ³
ĠM el
Ġar ti
k ing
ĠI b
ĠfÃ³rm ula
3 2
incor por
ĠD ones
Ġseny al
6 6
Ġfinanc era
ĠS ecciÃ³
Ġvol tants
Ġuniversi tari
Ġconc reta
ĠT erc
Ġass ist
g as
Ġn utri
Ġc erv
Ġmanif estar
Ġdesp atx
ĠProm ociÃ³
Ġprivi legi
Ġcas tells
Ġl e
Ã¨ tiques
200 8
Ġinterp reta
Ġocup aciÃ³
erg Ã¨ncies
gi p
ĠCh ar
Ġarquitec t
ĠEs tem
mon is
Ġbut lle
ol er
Ġafec ten
Ġca ixa
ĠEste ve
Ġpos se
t rics
Ġsur ten
itz en
Ġdeb atre
Ġd Ã²
Ġ6 00
Ġfacili tat
Ġerr ors
N C
Ġrefor Ã§ar
co hol
Ġob erts
ed o
ĠhistÃ² rics
Ġin g
Ġgaran ties
ĠJ ac
Ġfru ita
Ġabsolu tament
Ġdecid eix
Ġmost res
Ġrepro ducciÃ³
Ġespectac ular
ĠcÃ² pia
Ġcom issions
Ġm ass
ni um
Ġag res
Ġsec ret
Ġmat rÃŃc
form e
Ġmar it
Ġneg ociacions
ĠCol au
Ġunivers al
Ġcrea tivitat
Ġpropos at
Ġanim al
Ġcomun ica
Ġmet ges
ĠBl anc
Ġar mes
m el
Ġt ron
Ġgen eracions
h as
Ġsor tides
ĠExpl ora
Ġre form
Ġer ror
ĠL os
edi ficaciÃ³
ĠLli bre
g ol
arquitec tura
ĠB es
Ġpos em
ĠMari ano
U E
Ġemb l
Ġtemp le
Ġcreu en
Ġra di
Ġb it
Ġoc tubre
ĠAr ticle
aqu ella
Ġm Ãłster
ĠUn s
Ġafec tar
Ġtrans por
Ġp leg
mp t
id enta
Ġp istes
ĠbritÃłn ic
ĠIn c
Ġre vistes
av inguda
Ġgru ix
ĠA le
ĠU B
tivitat s
i ents
t Ã²ries
Ġpropi etats
Ġfranc esos
Ġcompos itor
estr ena
Ġm onar
Ġnoti ficaciÃ³
Ġanti gues
ta tiva
ĠC ru
Ġblo que
Ġjusti ficaciÃ³
id esa
ĠS il
Ġat ribu
Ġsor oll
Ġcli mÃłtic
ob rir
Ġcritic at
Es querra
Ġfines tra
Ġpass arÃł
Ġhav ÃŃem
Ġacc essi
ĠD im
Ġliter Ãłria
Ġdid Ãłc
a plica
t ella
Ġven en
Ġpro vocat
Ġvir us
eg aciÃ³
ĠDani el
Ġsenti ment
ĠcÃłm era
Ġes qu
l it
Ġele vat
Ġelim inar
ort en
Ġc Ã³rrer
es pa
Ġmanten en
cid ents
al umnes
esp Ã¨
ĠAr rib
Ġinclou en
Ġcorrec ta
Ġpla er
Ġen vers
ĠH ar
Ġop inions
Ġsubministra ment
Ġat emp
an tar
Ġvir tual
ĠC s
Ġconfir mar
res tant
ĠR oss
Ġ ran
ĠF ot
Ġcre ada
Ġqu ota
Ġesc ena
Ġac ol
ĠJ er
Ġdescrip ciÃ³
Ġoc cidental
Ġdedic aciÃ³
Ġre tre
Ġatac s
ĠparrÃ² quia
estran ger
a ig
ĠLlen gua
Ġdes it
3 7
r int
Ġprot ocol
Ã¯ m
Ġb iblioteques
Ġrelig iÃ³
Ġx ic
adap taciÃ³
Ġb lau
ĠDi ada
on y
Ġregist res
og ar
l Ã¨ncia
ÃĢ frica
Ġvalenci ans
ĠD ra
Ġnuc le
Ġbus cant
Ġpot Ã¨ncia
alum ne
Ġvigil Ãłncia
Ġ ull
Ġcon ci
Ġneg ra
Ġresid ents
us ias
a hir
Ġigu alment
ol ls
ĠRib era
Ġsenz illa
end rell
ĠMar esme
ex plica
ON A
Ãº ries
Ġ om
Ġdorm ir
ĠS us
ĠclÃłss ica
Ġsab ut
ura da
Ġpare ts
ĠM ai
eg at
Ġval ora
Ġord res
ĠD ig
dre ts
w a
ĠGar ri
Ġvis u
Ġredu Ã¯t
ĠI d
inter ess
ÃŃns ula
am es
Ġvin gut
Ġcorrespon en
Ġcomp res
er als
Ġen mig
ĠM ass
in en
ĠJavi er
Ġo posiciÃ³
ĠSanti ago
A tenciÃ³
Ġpod rÃŃem
om Ã¨
Ġs amar
Ġal lar
U B
Ġve ter
Ġprior itat
ĠB isb
Ġtrans missiÃ³
Ġaf rontar
Ġresul tar
ĠP orta
Ġsatisf acciÃ³
Ġc res
âĢĵ ,
mes os
al gunes
Ġex erc
Ġfu gir
Ġfic ciÃ³
agra daria
1 00
ÃŃg ens
Ġbl anca
Ġvig Ã¨ncia
Ġafavor ir
Ġneg ar
ĠelÃ¨c tric
resp ons
Ġdibuix os
Ġfer its
Ġtrob ades
Ġbarre ja
av o
Ġen em
ĠBomb ers
Ġeix os
Ġdenunci at
ili ari
Ġru tes
Ġinten ta
Ġregi ons
ro cin
apar iciÃ³
Ġprofun ditat
L A
Ġvalenci ana
Ġcr on
omp anya
Ġsos p
Ġseg ell
Ġtesti monis
Ġmin isteri
Ġex istent
vi ure
Ġs Ãł
b r
Ġrec tor
Ġconc lusions
Ġfemen ina
ĠNe w
ar xiu
Ġcarre teres
A ten
m arc
i bles
anc e
in et
ĠNorm es
di da
Ġemo cions
Ġquad rats
Ġserv it
4 9
or en
Ġcamp iÃ³
Ġurban ÃŃstic
Ġob re
AC N
Ġvisi tant
Ġmili Ã³
m nium
aran ta
Ġ199 7
Ġf anta
h ist
EM A
Ã¨c ord
ti ble
i k
ĠpodrÃł s
Ġtarge ta
Ġfas es
Ġcomb at
Ġcer ves
Ġdepend Ã¨ncia
Ġcap ella
Ġargu ments
Ġreconegu da
Ġconstitu eix
ĠT IC
Ġofer tes
Ġinform acions
Ġescen aris
Ġcorrec te
Ġal ts
v oca
Ġa tura
Ġregist rar
Ġtransform ar
ĠConc urs
ĠO bres
Ã² pia
Ġexc ur
Ġagrada ble
Ġf aria
Ġinfantil s
Ġdefin eix
ingÃ¼ ÃŃstica
Ġca i
Ġaudiovis ual
Ġg all
ĠPer p
Ġcan ta
g re
Ġno tes
d Ãł
ode terminaciÃ³
Ġins istit
Ġsigni ficat
in als
Ġassoci ats
n dia
Ġadolesc ents
Ġent rat
Ġdispu tar
Ġsubstitu ir
ĠC ON
ins titut
Ġreb en
Ġesmen tada
Ġconsci ents
la Ã§
autor itat
Ġse qÃ¼
r que
Ġrelacion at
Ġca u
Ġmag isteri
Ġanunci s
Ġ4 2
ĠV ÃŃc
ar n
E F
Ġe duc
Ġser vid
Ġfores tal
Ġll atÃŃ
Ġper que
ĠD ep
Ġsindic als
apar cament
ent Ã©n
Ġnorm alitat
Ġtitular s
ĠXV I
Ġ =
or is
Ġeduca tives
M ar
Ġpat eixen
201 4
I ES
Ġass istÃ¨ncia
Ġfos sin
ĠF orn
ĠFiscal ia
Ġvid re
Ġlle ure
Ġvi an
Ġen reg
u des
Ġemo cional
Ġexac tament
Ġf lo
ine us
ĠPa ul
Ġprom ou
Ġcomb ina
ĠP ons
T IC
ĠelectrÃ²n ics
qu era
ec tor
Ġv ides
is h
ab and
7 2
Ġmat ric
Ġblaug rana
T V
Ġdem arcaciÃ³
% )
Ġenseny ar
" ),
Ġm ou
Ġfines tres
ĠMan el
Ã² bil
Ġincid Ã¨ncia
ogrÃłfic s
Ġper cepciÃ³
Ġespec tadors
Ġespeci alitzada
Ġim medi
Ġacus at
duc cions
Ġestar an
Ġagra dat
Ġsol dats
Ġrelacion ada
labor adors
Ġrecomana cions
Ġ1 20
ĠF Ã²rum
Ġgra vetat
Ġreflexi onar
Ġor gull
Ġquad re
erv ar
ĠP ass
Ġins cripcions
ĠestÃłn dard
Ġenf ront
ĠAl gunes
ĠGr Ã¨cia
Ġpre ocupaciÃ³
Ġpl ens
Ġen giny
Ġfesti us
Ġre it
ĠQu alsevol
s en
rem i
p el
Ġnova ment
Ġpl atges
Ġpo ema
ĠAl fons
ern itat
Ġe ti
Ġextraordin Ãłria
Ġrefer ents
ĠDirec tor
Ġpat eix
ĠvÃł rem
Ġver sions
ĠA C
ĠÃ²r gan
ĠFes tes
ĠsÃŃ mpt
Ġxoc ola
Ġres tric
Ġden uncia
e qui
Ġla mentat
ĠT ol
Ġtitular itat
Ġpi ano
Ġdimen siÃ³
Ġconstitu cional
Ġfeli Ã§
ĠB ro
Ġbat xillerat
ĠmÃŃnim s
ĠRamb la
ĠD uran
Ġestran g
Ġmobil itzaciÃ³
l ules
ĠbÃłs icament
Ġlider atge
Ġaixec ar
Ġbl an
Ġca fÃ¨
Ġz ero
ĠF e
Ġdescob ert
ul la
Ġme teor
Ġn ad
ĠR en
Ġar tista
ĠRi era
Ġpr ol
Ġfix ar
Ġdifer enci
ĠLa ura
Ã ī
Ġoc asi
Ġmun t
er ves
Ġprogram ari
Ġpi on
ĠsÃŃmb ol
ora ma
ust ria
ĠAc ord
Ġcan via
G ir
ĠB ur
Ġban des
Ġinteg rat
ac cident
Ġtrans ferÃ¨ncia
Ġincor pora
Ġtorn arÃł
ĠW ill
S C
Ġse ix
Ġcent rals
Ġcom er
s ers
ĠDi visiÃ³
le gar
Ġconvers es
ĠR ivera
ĠT im
Ġ199 5
Ġamb dues
expres ident
Ġextraordin Ãłries
Ġdesapar egut
Ġins truccions
Ġlla c
ar m
egu des
erat ures
Ġcal ia
Ġsobir ania
Ġma gatzem
ĠFranc o
ĠV endrell
Ġaprofi tant
ĠB u
!! !!
Ġc ess
ĠPortu gal
rÃŃc ul
it ori
Ġdoc Ã¨ncia
Ġenseny aments
Ġpar et
Ġexp liquen
Ġdeguda ment
Ġleg i
rat es
Ġprofessi on
Ġmedici na
ĠfÃłcil ment
na u
ĠMo di
Ġconstitu ir
Ġde di
Ġpun ta
ĠP omp
Ġlong itud
4 6
O B
ot ge
Ġrellev ants
Ġcinqu anta
Ġdestac ats
ĠPrincip at
Ġsec cions
Ġjudici als
eg en
Ġdona va
cion ari
Ġlli brer
Ġbrill ant
esta bilitat
ques tes
Ġ25 0
ĠT x
Ġform ats
Ġfin alitats
ar ts
Ġtransc end
Ġg audi
ĠDiss eny
ĠP oc
Ġcic l
ĠSan itat
Ġdeman des
Ġll uit
Ġsuper vi
Ġp ur
Ġcompr endre
Ġn um
Ġpun tual
ĠM oll
Ġdicta dura
Ġsor gir
il le
se u
ili tar
Ġespor ts
ĠQu ant
ĠF ut
Ġtro iÃł
Ġas pir
Ġacab en
Ġcomb inaciÃ³
im ag
ĠD eix
Ġa ules
g ant
Ġestran y
Ġfin alitz
Ġar ros
Ġad judic
ĠBl anes
Ġpat rocin
Ġcivil s
ĠEs tudi
americ ana
v illa
D e
Ġimp edir
Ġequival ent
Ġgener alment
ĠP ont
Ġess encial
Ġimpuls at
Ġsup Ã²sit
ĠD ades
Ġfam Ã³s
Ġex ha
Ġgerm ana
dal us
un itat
Ġpat ri
esper anÃ§a
uÃ¯ ssa
g is
Ġtermin is
l var
ĠM Ãł
Ġincre mentar
ĠCom Ãº
ĠI r
Ġmin im
M A
Ġ @
Ġpen sions
Ġcur ta
o da
Ġgastr onÃ²m
201 7
Ġr Ã¨cord
Ġprogres siva
Ġser ien
Ġcre iem
Ġmul titud
ĠRe al
ales hores
Ġ193 6
Ġm all
ag all
Ġseny ora
Ġsup era
ĠD ist
ĠU d
ad quisiciÃ³
Ġg aletes
Ġpractic ar
Ġconsum idors
ĠL ic
Ġhabita cions
Ġqu aranta
asc ens
Ġs ard
Ġdi ada
Ġefica Ã§
g s
Ġins tr
Ġrefer Ã¨ncies
Ġinclos es
ĠP ens
Ġco okies
Ġun ir
ac titud
Ġad onar
ĠTen im
ĠMar tin
ons ell
ĠG R
Ġ199 6
Ġcoordin ador
Ġaut ob
Ġemple ats
~~ ~
Ġpolici als
Ġde fec
ĠRo ig
ĠBar ber
ed ic
Ġpresen tades
Ġre ial
Ġb oni
Ġhuman itat
Ġdom Ã¨s
Ġdisc u
o ficina
Ġll in
ob tenciÃ³
ĠIs abel
ĠInf antil
cion alitzaciÃ³
Ġesper em
ĠPat ronat
Ġex hib
Ġon line
Ġintro ducciÃ³
Ġrela tiva
ĠA gu
Ġsubs tituciÃ³
ĠEs querra
Ġre formes
iny Ãł
Ġver da
Ġrecep ta
ĠGin p
Ġ ~~~
ĠCas tella
a gu
5 8
ĠP oble
Ġta xes
Ġneg res
Ġprof und
Ġtin ent
5 9
ur ats
l Ã²s
ĠE duca
Ġesta ble
Ġdetin guts
Ġex ter
Ġnegoci ar
es querres
Ġest ric
Ġcoincid int
Ġgarant eix
us sa
Ġsan cions
Ġlabor atori
in ament
Ġ199 2
em enti
ul en
d rom
Ġpor tarÃł
Ġesc Ã¨n
ĠIns titu
Ġcas ar
Ġexerci cis
Ġr urals
ges os
ex ili
tori al
Ġsal arial
ĠmatrÃŃc ula
Ġcamin ar
ĠparÃł metres
Ġc ÃŃv
Ġcin emat
Ġcontac tes
us e
im n
Ġful les
Am Ã¨rica
Ġprodu eixen
Ġpedag Ã²g
Ġins pir
Ġreg istra
ĠW orld
Ġcon du
ĠBra sil
Ġdeb ats
Ġsal t
Ġobli ga
ĠZ ona
Ca tal
Ġamb ientals
utilitz a
Ġjusti fica
Ãºst ries
Ġ' '
ĠInd ustri
Ġa fici
al em
Ġvirtu t
Ġtractament s
Ġcons truccions
or tar
Ġn adal
Ġfal tes
Ġpropor cion
Ġen ri
Ġb uit
ĠL lar
um a
Ġmet ro
s ÃŃ
Ġdenom inaciÃ³
Ġestran gers
Ġfrac Ãłs
Ġve ient
ĠNav arro
Ġhor itz
A p
I U
d os
Ġen gan
Ġtal lar
Ġcic les
Ġhabitu alment
Ġva gi
Ġgo verna
Ġur g
Ġvisi ble
Ġexcep ciÃ³
carre ga
ĠmajoritÃłria ment
Ġfelici tat
ĠT ota
Ġrepar timent
re gues
Ġinterpre tar
Ġgeg ant
Ġeta pes
Ġbar ra
ĠPres idÃ¨ncia
hum or
vi ment
Ġdesc end
Ġbaix os
li m
Ġproced ent
Ġtrans fer
ĠS en
k h
en car
ĠMitj ans
ĠPro jec
acab a
Ġperme tin
Ġre tir
Ġcon duir
Ġin drets
ĠRel acions
ĠRe is
esca u
ribun als
Ġsegu idors
ĠEmp res
a min
Ġque di
Ġcr u
Ġind emn
on ja
amb ient
Ġcorrec tament
Ġdisc re
Ġcompren siÃ³
Ġrepublic ans
c as
Ġvi vint
O p
Ġpol Ã¨mica
Ġdi pos
Ġmedia mb
ill es
Ġluc re
g em
Ġf ib
om et
Ġoper aciÃ³
ĠLlor enÃ§
u ela
eb re
du res
ĠT R
gu ed
ci ment
ĠT ari
Ġfor ts
Ġh otels
ori entaciÃ³
ĠG erm
Ãłm ic
Ġcomer Ã§os
v ÃŃ
ĠTor rent
Ġ ).
ĠSup er
ĠfreqÃ¼ Ã¨ncia
Ġderi vats
Ġan aven
Ġm Ãº
Ġconven ient
Ġcol les
ĠBer lÃŃn
Ġpu ja
Ġinter vin
Ġcomb usti
Ġtr ens
Ġcons tar
Ġmetod ologia
Ġexplica cions
ĠAl lÃł
Ġin def
ĠAl b
Ġcer tes
ĠMediter rani
Ġvol tes
Ġco hesiÃ³
ĠBos ch
Ġinqui e
Ġesde vÃ©
Ġa ire
Ġcondem na
av an
ĠJun ts
ĠP an
f it
Ġinici s
Ġcom arcal
Ġpot ent
ĠL eg
ĠMar tor
Ġbaix ada
Ġparlamen tari
ĠGab riel
tr Ãº
Ġ199 0
ĠDec lar
an ada
li qui
Ġabsol ut
Ġurban ÃŃstiques
ĠMediter rÃłnia
Ġm os
eu re
ĠJ ean
ĠautÃ²n omes
ĠA L
ad e
Ġdespleg ament
ur ÃŃ
si us
Ġllic Ã¨ncies
ĠFern ando
Ġacompany ats
ĠhÃłb its
u aris
ĠMar agall
Ġneg ativa
Ġex por
ES T
Ġg ossos
Ġfron teres
ĠprÃ²xim s
Ġretorn ar
Ġun eix
ĠM au
Ġac tius
Ġc essiÃ³
Ġcons ecu
ra ta
aut odeterminaciÃ³
Ġh os
Ġplan i
4 2
ĠclÃłss ics
Ġpa pers
ĠB ala
ĠCan al
m eria
Ġquant es
ĠcÃłl cul
ĠGel trÃº
An t
li ds
Ġtes i
ĠSosten ibilitat
Ġesper ant
Ġpl enament
ĠU IB
an siÃ³
Ġpa vell
Ġfin ances
Ġespor tius
Ġliter ari
Ġsubrat llat
ĠOc cidental
Ġrom ana
Ġprevis ions
ĠB Ãłs
Ġexcep cional
ĠPers onal
Ġdi g
Ġobri ran
Ġdefini tiu
Ġcerv ell
ĠC F
Ġapor taciÃ³
i ria
ĠM Ãłster
Ġacord ar
ĠCam ÃŃ
di ciÃ³
ĠcontenciÃ³ s
ĠPrim Ãłria
Ġdes esti
Ġsuc re
Ġfund ador
Ġ ï¿½
Ġfinanc er
Ġen cer
mb ia
Ġtrob o
ll o
qu ina
ĠnÃº vol
ĠM ent
Ġvian ants
Ġdiagn Ã²stic
ĠI l
Ġesc ul
Ġcerta men
Ġform ular
Ġpressupost Ãłria
Ġing redi
Ġcer im
Ġacompany ada
Ġrecup er
ad ar
ĠS p
Ġlleg int
Ġcar es
Ġ4 1
ona ments
Ġin vers
Ġremarc at
Ġrecord s
I ACIÃĵ
Ġs iga
ĠC C
ĠVic ent
utilitz ar
efici Ã¨ncia
Ġperceb re
ad er
Ġinf Ãłncia
ĠS in
Ġtri at
ĠUrb ana
asse mblea
Ġes te
ĠA na
ut en
urs os
min ist
ex pos
lib erament
ĠU R
ĠgrÃł cia
Ġextraordin ari
ĠHum ans
Ġarr el
ĠP lat
in Ãłria
Ġprop Ã²sit
un g
rac ciÃ³
Ġpob res
Ġaut o
Ġtemp eratures
ĠP asse
Ġguany adors
ospi tals
Ġpol i
ĠAm Ã¨rica
Ġrevol ucion
Ġintegra da
itz ades
escrip tura
ementi ri
Ġpan tal
Ġlu xe
Ġexpres siÃ³
Ġtra ms
ĠCin ema
Ã§ ats
ĠNot ÃŃcies
an k
Ġcan tar
Ġcinqu ena
i vis
e e
ĠlÃ²g ica
" ).
Ġm ix
H i
Ġt reu
Ġfun cional
Ġcur rÃŃcul
extre m
Ġro ck
ĠagrÃŃc ola
all Ãł
ĠVÃŃc tor
ĠF u
4 7
ll er
Ġdispos at
Ġcul min
ac tiv
ta bles
Ġ rib
tin ciÃ³
on d
Ġcomprom isos
Ġcontr ols
ĠCon ver
Ġfun dar
Ġal er
] .
Ġcar reg
Ġdirec tes
at g
Ġsup Ã²sits
Ġpor tada
ol d
Ġpes ca
Ġviv im
eta pa
ĠllanÃ§ ar
Ġsol en
loc ar
ĠT aula
o quen
us s
Ġfacili ta
Ġta ul
Ġferro vi
in teg
Ġm m
Ġna cionalitat
an itat
Ġor al
e y
Ġcer ts
en siva
Ġconvid ats
tri us
Ġenorm e
Ġevol uciÃ³
Ġcre ma
ciona ment
Ġintro du
Ġco re
ĠdifÃŃ cils
ĠmÃºs ic
Ġvalor at
Ġsap s
b ul
ex ig
Ġpass ava
ð Ł
6 9
Ġped res
Ġfitx er
Ġsac ri
Ġe dats
Ġconsell ers
Ġreno va
Ġconserv ar
ĠTa mpoc
ĠÃĢ ngel
Ġconcre tes
ĠC ant
Ġdirec tors
acab ar
Ġadre Ã§a
f Ã²nica
Ġfal tar
ĠDol ors
Ġesmen tats
ĠR oses
Ġexemp lars
Ġadministra ciÃ³
Ġf ur
Ġexig eix
Ãº m
Ġg am
ĠL ib
ĠDef ensa
leg al
Ġporta va
ĠdesplaÃ§ ament
Ġofici alment
Ġdi Ãłria
ĠDiss abte
ĠCon t
Ġal emanya
ĠaÃ¯ ll
Ġmus eus
Ġ4 7
Ġconc edir
Ġconsol idar
Ġprepar a
Ġsensi bilitat
ad Ãł
Ġcent rar
Ġagra ir
Ġpropor cionar
ĠU GT
ci Ãł
o tar
Ac ord
Ġsor ti
Ġes quer
Ġvol ien
Ġequ ilib
Ġsor ra
Ġfed eral
en i
ĠPall ars
Ġmed alla
Ġfranqu isme
ĠCo di
esc ena
Ġteat ral
enc es
Ġm ons
ĠOrien tal
Ġen carregat
Ġpar ades
Ġdismin uciÃ³
Ġver tic
ĠQu ina
ĠbÃłs quet
Ġ ),
ĠS ÃŃn
Ġdestin ades
Ġmas ia
ut el
ter o
Ġquan tia
H istÃ²ria
ors a
Ġtorn en
ul ant
ol is
Ġs oc
Ġrecoman em
Ġreg ne
Ġcal dria
ĠB ona
ĠÃ ļ
ÃŃs ica
Ġcon eixen
Ġad her
ĠmÃł gia
Ġha vent
Ġd urÃł
Ġvege taciÃ³
Ġrelle vant
le gacions
Ġmir ant
ĠCD C
Ġl ici
Ġab und
ĠSal Ã³
Ġ199 4
ĠPÃº blic
Ġdip Ã²sit
Ġli quid
Ġb el
Ġproduc tors
Ġdisseny at
ri ts
uÃ¯ des
Ġon ze
Ġdec oraciÃ³
Ġab ril
af ir
ĠdÃ² lars
si di
eg eu
Ġprofun da
- .
ĠG av
Ġun iÃ³
Ġpro gress
uti litat
in ant
Ġcated rÃł
p ot
ĠC OM
ĠPres entaciÃ³
ĠveÃ¯ nes
Ġdirig eix
Ġem issions
U L
Ġcu a
Ġsemb len
Ġpro grÃ©s
Ġcor poraciÃ³
ĠR esta
Ġindic ar
Ġexclusi va
Ġexpec tatives
ĠMar g
Ġor ÃŃgens
itz ant
en tals
ĠMar atÃ³
Ġdetermin ada
Ġpleg ats
Ġmall or
v itat
Ġsubs tan
ĠVol em
Ġ" ,
Ġcondem nat
ĠP ilar
Inter net
ĠB art
Ġedit orial
Ġb ron
Ġcent ra
Ġgener at
ĠRep ublic
ĠBer ga
m as
Ġpl Ãłstic
Ġh ec
Ġconc lusiÃ³
in aris
Ġtempor ades
Ġdiscipl ina
Ãł us
me z
Ġaprof und
ui z
ĠR espec
Ġr Ã¨
ĠPir ineus
ĠBany oles
Ġindepend ents
E B
Ġarrib ant
Ġpolici es
r el
ĠC iÃ¨ncia
h onor
Ġfin alitzaciÃ³
Ġalem anys
ĠM c
Ġtend Ã¨ncies
Ġactu a
Ġautor itzaciÃ³
ri us
anim itat
Ġman i
b is
Ġvincul ades
Ġpan orama
Ġfot Ã²graf
Ġmedia ciÃ³
Ã²c rates
AC C
gra m
an Ã¨s
Ġapro par
Ġvincul ats
Ġass istit
Ġass essor
A uditori
di pu
Ġnom en
Ġan ul
Ġcoopera tiva
Ġxocola ta
A F
Ġrealitz ats
ĠAu diovis
Ġexpress at
Ġ4 9
ĠSe villa
Ġtradi cions
Ġul tra
Ġcomanda ment
Ġs Ã¨ries
ĠCo operaciÃ³
Ġur nes
Ġfuncion ari
ĠJorn ades
ag ricultura
ĠA D
200 4
ĠF un
dis cipl
Ġconcent ra
Ġempresari als
ĠQu alitat
Ġcre ant
Ġdon i
ĠPer i
an omena
Ġc ine
omp le
Ġes tima
Ã¨l gica
Ġesp iri
ÃŃ ci
is tan
Ġmod alitats
ell as
Ġdespla Ã§ar
Ġhaure m
ĠD els
ĠD ic
Ġespeci alitzat
A no
Ġfun da
V A
Ġra ti
Ġno table
Ar xiu
ĠJo ves
Ġform ant
T M
Ġadministra tius
Ġdiscrim inaciÃ³
Ġg ris
Ġb eca
Ġsab eu
Ġtra ma
Ġc Ã²n
201 6
u e
Ġapar tats
Al cal
ĠVil ad
tim itat
Ġfun cionar
um na
Ġre d
Ġreper tori
Ġsol ucionar
aut ob
Ġm it
ĠD ata
Ġvig ents
Ġcob rar
estableix en
ha uran
8 5
ĠB ol
er d
Ġrom Ãłn
ĠmÃ¨ dica
tr al
Ġfranqu ista
Ġjug ant
ĠM esa
Ġcompar tit
Ġconfigu raciÃ³
Ġcer car
vesti gaciÃ³
exc lusiÃ³
ĠSeny or
Ġpropor ciona
ĠSebasti Ãł
C R
ĠR esp
Ġra dio
avo reix
Ġint ensa
Ġtrib ut
Ġcurs es
Ġexc essi
Ġcompar teix
Ġbon ic
ĠEsp anyol
et o
ran o
h el
ĠL ingÃ¼ÃŃstica
Ġc edir
ri tat
Ġparticip ant
Ġeng any
Ġfar mac
Ġdipu tada
Ġrec omp
ren ys
Ġmitj an
A ut
6 7
Ġes glÃ©sia
le u
ĠM ostra
Ġag rÃł
Ġdeci siva
ĠPomp eu
Ġdepend Ã¨ncies
Ġdisseny ar
li gent
Ġescrip tors
v era
ĠG il
Ġcap i
Ġform ula
Ġv or
ĠS ha
Ġmet Ãłl
abs Ã¨ncia
Ġplata formes
Ġsepar aciÃ³
un ta
Ġcontinu ada
as pec
anti guitat
ig Ã³
h id
ĠE d
Ġtan cada
i la
Ġconvid at
ĠV ista
ĠM ora
Ġenlla Ã§os
Ano ia
organ isme
Ġem etre
ori als
Ġreligi osa
Ġâ Ĩ
Ġcons tÃłncia
Ġrefor Ã§
Ġleg alitat
ĠAl g
IV A
Ġsor teig
b y
Ġexig ir
Ġcompar aciÃ³
apor taciÃ³
Ġrec oll
ĠOlÃŃmp ics
ĠK a
equip ament
ĠM anc
g os
Al emanya
Ġinc lusiÃ³
Ġmaquin Ãłria
Ġcom te
Ġvis itat
ro car
Ã²n ics
Ġdisponi bilitat
ro qui
Ġt ribunals
Ġconc edi
ist emes
ĠautÃ²n oma
ac ollida
Ġcul tures
ĠRo ja
4 3
Ġcri dar
on ista
ĠB il
ordin ador
ĠFl or
Ġdes trucciÃ³
Ġcon fec
Ġsegu ra
Ġcin quÃ¨
Ġes cap
ĠC r
ĠD iu
Ġd rogues
ĠB all
Ġconvi da
Ġxerra des
Ġsoci o
Ġri us
ing s
Ġmal trac
gus tÃŃ
pi tal
Ġf all
Ġcontempor Ãłnia
Ġpr ÃŃncep
ĠT in
ĠIC V
ina ugu
evi tar
Ġ8 00
Ġcomplex itat
Ġrepar aciÃ³
AN T
l anda
ĠT u
ĠDom Ã¨n
ĠMedi cina
ĠMartor ell
Ġadministra tives
Ġjuris dicciÃ³
Ġacord at
Ġurb ans
qu ir
Ġestableix en
ot erÃł
Ġperson alment
rot xa
Ġvideo j
cion ats
ĠH or
Ġdo taciÃ³
Ġinten tat
ĠD ÃŃa
Ġdestin ada
s ense
Ġcol Ã²nies
Gir ona
Ġrenunci ar
Ġ9 3
Ġt ub
Ã² b
Ġgu Ãłrdia
ĠJ ut
ex cel
s on
ĠT re
Ġrec tan
Ġimplic ats
Ġinform ativa
ĠCerd anya
Ġcompeti tivitat
Ġles ions
ili ats
Ġaccep ta
Ġ199 1
Ġpassat gers
ali ments
ĠCamp us
ĠJx Cat
Ġro des
Ġob er
ĠMa ig
Ġve ia
Ġmat emÃłtiques
Ġner vi
Ġidenti ficaciÃ³
Ġtind ria
Ġassol it
ad as
es mentat
Ġrec orre
Ġmens ual
ĠA mp
ul sa
EMA IL
Ġav aluaciÃ³
Ġgovern ar
ĠXV II
ĠCon ferÃ¨ncia
Ġorganitz adors
Ġin vas
Ġvin tena
ĠT ÃŃtol
Ġveu rem
m ic
ĠB ru
ĠL uc
Ġasc end
Ġm als
Ġconegu des
ar gu
Ġderi vades
Ġan ualment
iss es
Ãł miques
Ġinf ant
ten iment
U na
an os
of t
s ec
N G
Ġf ita
Ġindivid u
ĠAd riÃł
ĠL as
Ġpon ent
Ġb ro
ĠFut bol
Ġassenyal ar
ĠY ou
Ġpin tures
Ġfona ments
Ġacoll irÃł
Ġquotidi ana
ĠllanÃ§ ament
Ġvaix ells
ac e
Ġgu iÃ³
esc ala
ĠpolÃŃ gon
Ġen com
Ġhi vern
Ġsolid Ãłria
f al
econ Ã²m
Ġab ra
Ġreg les
Ġun animitat
Ġsitu ats
Ġcar tells
Ġque ix
An y
aqu elles
i eu
Ġad met
oss es
Ġins ta
o a
arquitec te
ac tor
Ġvoc aciÃ³
ĠH it
Ġdi eta
" ;
Ġescri u
ĠP A
enes tar
ac ta
Ġsal v
v als
ÃŃn ia
Ġp ir
ĠBern at
Ġespecial istes
ĠM Ã¨
Ġcompl ert
Ġpuntu aciÃ³
ĠC AT
Ġcompe tir
ĠId enti
Ġexecu tiu
ĠI gual
D OGC
al eg
Ġsubjec tes
ili ars
Ġtur ÃŃstics
Ġtindre m
Ġexp uls
Ġpais atges
Ġutilitz en
ex emple
Ġri ure
v ic
Ġofer int
ĠPas qu
espa is
7 3
in ers
aj us
Es ports
equ ilibri
? ,
ĠEs tic
Ġapun tar
Ġfu tura
ĠCorn ellÃł
Ġdeleg ats
Ġ199 3
Ġsu au
ĠacadÃ¨m ica
tri citat
Ġenll oc
ĠBala guer
Ġres erves
men tant
Ãį ndia
Ġap reci
Ġequip ament
Ġju eus
esqu ena
Ġimpos si
ĠJuli Ãł
c ents
actu ar
ĠgrÃł fica
ĠComp any
Ġcai gut
Ġprob able
Ġur gent
Ġc ord
Ġgastr onomia
Ġmin istra
Ġsex uals
Ġlliber tats
ĠCo opera
Ġde ures
Ġexpos ar
Ã¯ nes
re al
ass essorament
Ġdetermin aciÃ³
Ġcom and
ĠCar men
Ġjard ins
Ġparti des
Ġigu als
Ġdesc obreix
Ġcu id
Ġdivul gaciÃ³
m od
ĠBo i
Ġsub jecte
aju ts
Ġinter venir
Ġde g
Ġsent o
inter pre
ĠI gles
ĠÃºn ics
p la
vis ions
Â «
n eu
Ã³ mez
v it
Ġb uf
Ġsecre tÃłria
f ar
Ġsenti ts
ĠR uiz
Ġreun it
ĠT ec
ĠMa ta
Ġexpedi ents
ĠsÃŃmpt omes
Ġpet r
Ġend ins
Ġa er
Ġindi rec
inc endi
la va
ĠJ ust
Ġesc ales
ing ton
ĠL it
Ġten ÃŃem
ant en
Ġpre venir
ĠCas als
Ġestr enar
Ġcompens aciÃ³
Ġro t
isteix en
Ġsom riure
is si
Ġhaur ÃŃem
at o
alitz ant
Ġpre cep
gued Ãł
ĠLl ull
tad ora
" :
ĠP sic
Ġ198 0
ĠconvenÃ§ ut
er gies
Ġceleb rada
Ġe ficient
Ġpavell Ã³
Ġes taciÃ³
Ġ Ã©
enc e
Ġfill es
Ġpor ter
Aten eu
ed ors
ass ass
Ġrec or
ĠProfessi onal
Ġrela tives
Ġcommem ora
Ġvergon ya
lo ga
Ġavalu ar
ixa mp
int ro
ca tal
Or ganitz
ress ol
Ġja zz
9 5
Ġde tenciÃ³
val u
Ġll ars
Ġform al
ĠparÃł graf
j ud
ĠS ota
Ġarrib i
Ġinstitu ts
Ġcl o
Ġcl Ãłus
T E
ne y
ti tats
P ro
Ã¨r p
Ac adÃ¨mia
Ġfacili tant
ĠDÃŃa z
Ġecon om
l li
Ġves tit
Ġcor rents
Ġdirig ent
Ġass aj
Ġ ort
Ġem erg
ĠC AP
ig ien
Emp ordÃł
Ġpens ava
O li
Ġt Ãºn
Ġmonu ment
Ġt Ã¨x
tr ats
B A
ĠS ard
Ġviat gers
Ġprotagon isme
ĠI gualada
gon Ã¨s
Ġb esti
ot eca
Ġn or
Ġcaus ar
6 1
l y
gan da
Ġsobiran ista
ĠPar al
al gun
Ġsot metre
ĠB Ã¨lgica
ĠD ona
Ġop ort
assign atura
oterÃł pia
t Ã©s
tur ar
Ġm isteri
Ġm ural
4 1
Ġma tis
Ġgeg ants
Ã¯ ble
2 000
Ġimmig rants
O lot
ĠSal t
ĠM essi
a igÃ¼es
ĠJ orge
ĠR ed
ĠB enestar
ĠN IF
ĠO ber
k et
ĠL in
Ġresid encial
Ġhec tÃł
Ġestr elles
Ġm urs
al tura
Ġf ili
ĠF al
Ġ0 80
ĠcÃ² mp
Ġsens acions
allot jament
Ġn its
establ ir
f ins
Ġpatr Ã³
Ġpen jar
ĠB arcelon
IT AT
ES S
Ġemp a
Ġmanten int
8 8
ivis sa
Ġg roc
ĠB ert
Ãº lia
ant e
Ġaug menta
ĠAn glaterra
Ġju gat
ex plicar
ĠCamp s
i ar
Ġmar ÃŃ
Ġinfra estructura
ed ent
Ġvi us
a plicar
ĠK ar
Ġcontinu arÃł
Ġrevis ar
Ġd uc
Ġfores tals
Ġs als
Ġcomen tat
estal vi
ĠTru mp
Ġseix anta
Ġa ven
tin es
Esp ort
Ġresp ir
Ġinf l
8 00
Ġcompar eixen
Ġprov Ã©
ĠMir Ã³
ĠP IB
ju Ã¯
Ġconten ciosa
Ġsup orts
Ġquali ficat
Ġfacili tarÃł
Ġofer irÃł
Ġlle genda
Ġorgan isme
Ġnom enament
Ġaug mentat
Ġmalal ts
ĠLl ic
Ġleg alment
Ġar m
Ġb ibli
ĠB ot
esp anyol
par tit
as e
Ġvo tat
Ãłn ics
Ġconvocat Ã²ries
Ġre ma
Ġassegu ren
ĠFon ts
Ġ5 2
imp ost
Ġt ec
Ã¨ ric
ĠApro var
Ġingredi ents
Ġrealitz ant
em issiÃ³
Ġimpres sion
ĠRec ursos
Ġinc en
Ġconsolid aciÃ³
ĠÃŃn tegra
Ġfiscal ia
esc riure
R e
Ġp it
ĠfinanÃ§ ar
ur ban
Ġsu ficients
Ġin vol
ĠConver gÃ¨ncia
n eg
Ġdesapar Ã¨ixer
Ġrecep tes
ĠC li
Ġv il
A ran
ad judic
Ġcens ura
Ġterra ssa
ĠCerd anyola
ĠEs por
Ġtrasllad at
arra f
ĠM ur
Ġh ospitals
lum inaciÃ³
op s
Ġpre cipi
oca ment
Ġcerti ficaciÃ³
independ Ã¨ncia
ĠMent restant
Ġadver tit
Ġben vinguda
accep taciÃ³
Ġar xius
Ġconsid eri
ĠD eu
ĠcurrÃŃcul um
Ġclar es
i A
erm ita
w n
ad r
es mentada
Ġag ost
ĠproveÃ¯ dors
Ġlli Ã§
entre vista
Ġc oc
ad os
7 1
Ġpos arÃł
Ġal Ã§ada
ĠPress up
Ġt Ã¨r
oc as
min es
t y
Ġacc el
ĠS ag
In f
Ġnecess item
ĠH ern
ĠB asc
Ġacos tar
ĠG Ã³mez
ĠCar ta
ĠmÃ¨ dic
Ġs uÃ¯
Ġusu ari
ha guÃ©s
? .
Ġamena Ã§a
ĠT aller
ĠGu ardi
Ġrecla mat
ĠestratÃ¨g ic
di cions
Ġdesenvolup en
D es
n ar
Ġs ag
Ġconta gi
Ġex tensiÃ³
tÃł ries
Ġpens en
erg ia
dalus ia
Ġdes af
Ġrom Ãł
ĠAM PL
Ġre ina
Ġdestin ar
Ġpressup os
efec tu
lÃłn dia
Ġh ero
Al bert
al ter
fi qui
Ġserv eixen
Ġpossi blement
tal ls
en ques
Ġb ac
ĠBra va
Ġfa v
ĠX III
Ġaf avoreix
Ġser ra
Ġconduc ta
Ġt ribu
Ġm oss
Ġvi va
ĠCon ca
Ġclassi ficat
i at
Ġrec op
ĠG ai
Ġt era
Ġforma tives
Ġde tenir
Ġaf ric
6 2
av anÃ§
Ġsub sidi
Ġllar gues
ĠÃģ lvar
Ã²c rata
Ġcontinu at
ĠDig ital
ĠSar riÃł
Ġtres or
ĠGer ard
ĠUniversi tari
Ġrecord o
Ãłs tics
Ġn as
ma il
Ġreivindic ar
Ġordin ador
ass ol
Ġcent rat
Ġordin Ãłria
Ġger ent
ĠtrÃł fic
Ġes go
ĠDeclar aciÃ³
Ġla c
Ġgam ma
ĠNic ol
Ġespor tistes
ĠpÃ¨rdu es
os iÃ³
tor ns
u taciÃ³
Ġajud en
Ġfuncion alitat
ĠA R
Ġr up
Ġhabi taciÃ³
Ġesmen tades
D A
Ġtracta va
ĠFran k
al cohol
Ġv ui
Ġin Ã¨
ĠAl hora
ĠLic eu
Ġfor tal
ĠAMPL IACIÃĵ
Ġreun eix
Ġcap itÃł
ĠDi vendres
umen taciÃ³
ac os
ĠT Ãłrrega
ĠAc ciÃ³
Ġc ementiri
Ġcamp us
Ġcontac tar
Ġav ant
g il
Ġt ones
Ġconver tint
ĠSol id
Ġbenefici aris
Ġurban itzaciÃ³
ten en
Ġor iental
i z
ro vis
6 4
ĠT C
Ġitali ana
Ġsaluda ble
Ġimp resa
ĠG ui
ĠPre cisament
ac tivar
Ġfin alitzat
Ġr ol
Ġreci cl
Ġaj ut
ĠEstat uts
ad vocat
Ġderi va
av all
Ġfer m
Ġconsider ada
in versiÃ³
Ġsucc essi
alitz acions
Ġposici onament
Ġcontrac tar
Ġalcal des
es quÃŃ
ustr Ãłlia
ĠS uÃ¯ssa
Ġac tituds
ĠRespec te
ĠN or
f in
Ġdes ob
ĠS erv
Ġta mb
b ara
gip te
on om
Ġfinanc eres
Ġapar ells
Ġconeix em
Ġabord ar
ĠR egu
ĠÃ į
Ġgesti ona
ad opciÃ³
ĠAr quitec
9 8
ĠS and
Ġdic tat
Ġec olÃ²gica
ĠDoc tor
Ġimagin ar
Ġvo tants
Ġesc enes
Ġab ast
Ġcr Ã²nica
ĠC erc
ĠL ÃŃ
ĠS enat
ĠP ra
b on
aut op
h os
Ġbus quen
Ġconnec tar
Ġan dor
Ġc obreix
Ġpl as
Ġb ran
Ġcated ral
ex ecu
ĠD am
ar es
Ġm asses
Ġ8 5
Ġmen Ãº
tiv als
qu eb
ĠBarber Ãł
ĠP acte
Ġsen c
Ġreper c
Ã¨cn ica
ĠBen efici
ĠModi ficaciÃ³
P R
ens able
i i
6 3
Ġdefin it
Ġd its
Ġvi Ãłria
ĠpÃºblica ment
Ġfru its
Ġv ocal
Ġobs tac
Ġconduc tors
guard ia
ĠIgles ias
Ġofer im
m f
Ġindivid us
un ivers
A li
Ġsal Ã³
Ġvic tÃ²ries
en cara
ĠTrob ada
Ġtecn olÃ²gica
mp a
Ġan iran
lec cions
Ġhum anes
ĠA z
Ġpeti cions
gn asi
Ġesdevin gut
Ġtra du
ĠA G
Ġpo guessin
F C
mar t
Ġsol itari
Ġem Ã¨s
Ġind isp
Ġde ure
Ġins u
Ġass essorament
Ġass aig
Ġac tor
ĠP et
Ġhum or
Ġenerg Ã¨tic
ĠP esca
Ġata car
Ãºn cies
Ġinten tant
Ġforma tiu
Ġreflex ions
alcal dia
Ġfac ultats
ins tru
ar de
ĠA cab
Ġn u
Ġrela tivament
on is
% ),
ĠT rÃł
Es tudi
ĠLl oc
ass et
7 4
anim aciÃ³
qui es
inf ants
en e
ro f
Ġinvestig ador
Ġjub ilaciÃ³
ul ats
Ġra ona
ĠPasse ig
ĠC R
Ġll ums
D i
ĠCl ÃŃn
Ġopera tiu
ĠTele visiÃ³
Ã¼ r
ill o
ag enda
Ġpal au
Ġent usias
ell o
Ġcap ÃŃtols
er ven
ĠprÃ²xim a
Ġofer t
Ġsubscrip tor
Ġrepublic Ãł
Ġrem od
ĠXI V
Ġcandidat ures
ent rar
titz ar
Ġalum ne
Ġret rob
Ġqual ifica
ĠDi umenge
Ġpre dom
rque ting
o i
ĠGar rotxa
Ġutilitz ats
Ġjut ges
t os
Ġva gin
imp or
Ġbra Ã§os
p ats
Ġhab ilitat
erra da
d ores
Ġinaugu rar
Ġsob res
ĠcÃ²m ic
of f
Ġtrans met
Ġm eri
aurada ment
ranc es
Ġvincul at
Ġindi gn
Ġpublic arÃł
Ġtr ist
Ġmun tar
Ġprobl emÃłtica
Ġins pec
ĠCent res
essi on
Ġpens em
c re
Ġmili tants
tad ÃŃstica
Ġimmedi at
Al b
Ġtin guÃ©s
Ġassump tes
Ġesper it
Ġsem if
Ġadre Ã§at
Ġven tall
Ġrod ona
Ġre is
Ġdis ting
D E
ob ri
Ġdra ma
ĠÃ©s sers
Ġexpos at
Ġav ent
Ġforma tius
Ġdes enc
ĠmÃł rqueting
Ġrom ans
ĠPol it
Ġdu en
ÃŃ x
Ġrela x
ĠS E
ĠT r
actu res
Ġtra Ã§at
Ġentre vistes
Ġsegu irÃł
ĠAnd rÃ©s
edit orial
Ġrectan gular
ĠMa y
gra u
Ġ5 4
Ġrepor tatge
queb isb
omun icacions
Ġocup at
ĠZ ap
en tament
Es c
Ġrec ollit
po ques
Ġvolun tariat
Ġpar cialment
Ġtren ca
ass o
a posta
an e
juÃ¯ c
Ġi c
ĠAm ics
qu ista
Ġefec tius
ĠWill ia
x os
Ġcostu m
i tiu
Ġfoc us
l as
I tÃłlia
ĠautÃ²n oms
Ġca ire
ess ors
Ġinteress ada
an tat
.... ..
IP C
ĠGu ia
in itat
Ġpal es
til les
si ves
Ġpregun tat
Ġtitu laciÃ³
Ġvia bilitat
J C
Ġpen ÃŃnsula
O bs
Ġtitu lat
ĠJ ard
Ġlimita cions
Ġf us
Ġf ederaciÃ³
Ġdeman ant
ric h
ten cions
Ġre me
Ġtru car
c em
Ġvari etats
Ã± ol
Ġsensibil itzaciÃ³
Ãł bil
at h
Ġre ca
Ġcomerci ants
ĠF ol
Ġcanvi ant
ĠVer da
ti bles
Ġconc rets
alitz en
ta tiu
Ġsepar a
ĠX II
Organitz aciÃ³
ran y
Ġrel ats
u tar
Ġobligat ori
ĠOli ver
Ġdi gui
Ġso vi
Ġestabl erta
Ġd ada
ĠR aval
ej at
anim als
ĠF ra
ro al
Ġin de
gra d
r Ã¨s
Ġmecan isme
Ġpag aments
in do
Ġ198 9
ja va
Ġcar net
ob a
Ġfut urs
Ġ6 2
Ġc ro
ne z
Ġhip Ã²
ĠGaud ÃŃ
ĠParti cipaciÃ³
Ġaprof itat
it h
3 00
Ġfes tiu
Ġil la
Ġgener en
Ġmercad eries
edi Ã¨ncia
Ġbenefici Ãłria
Ġdi ria
Ġretribu cions
ĠPers ones
Ġnuc lis
Ġdesapar iciÃ³
Ġca ixes
ĠV in
Ġpa pa
al tar
ĠLlo ret
ĠR eb
Ġpas ta
Ġtreball adora
Ġconv oca
Ġinform Ãłtic
Ġac cidents
Ã²c t
Ġf o
Ġc ub
Ġro ca
ĠG ent
Ġacus ats
Ġo us
Ġparticipar an
et Ãłria
ula cions
it enci
S ant
ag ossa
Ġedi tat
inter essa
ĠCol la
inf ant
vis tar
Ġla menta
u mb
Ġt h
Ġsan ciÃ³
? "
par a
Ġh on
c eta
ĠS ob
ĠReg id
Ġfa una
Ġestr ella
ĠT emps
Ġvol dria
ĠAn gel
Ġ5 8
Ġafec tada
g arÃł
Ġcristi ans
Ġn ul
ĠBlan ca
ĠAc c
ĠRic ard
Ġbron ze
A E
Ġ6 8
Ġexecu tar
Ġlim itat
Ġtan mateix
duc tor
Ġdo tar
Ġper cep
ĠÃ¨ x
ĠperiÃ² dica
Ġrepresen tacions
Ġpre cis
Ġinter ac
Ġeleg it
igien e
ĠC S
Ġorien taciÃ³
Ġnaveg ador
ĠlÃŃ quid
Ġv ella
ĠA les
Ġin vi
Ġparlament Ãłria
w e
cion es
ĠcontÃŃn ua
w ard
Ġevol u
Ġesta ria
Ġrep Ãºblica
Ġan tec
Ġrecla maciÃ³
Ġregi onal
Ġinter can
Ant oni
Ġter Ãł
Ãłn dol
Ġsegu im
Ġpar er
Ġqu ir
Ġradic al
Ġcorre dors
oti p
Ġrebut jar
w are
av ÃŃs
ĠI gu
te in
inc ompliment
ĠU PC
u x
ĠP ap
Ġs emes
ofer ir
Ġoc t
ĠN it
Ġmet ropolitana
ul siÃ³
Ã² cia
Ġan t
Ġess encials
ac s
Ġcaracter ÃŃstica
ĠAn ti
l ades
Ġmodi fica
p era
Ġconform en
ĠBat xillerat
Ġestr en
in novaciÃ³
al istes
Ġobli gats
Ġcontemp la
Ġus ar
ĠEl la
roqui al
Ġ193 9
Ġestim at
Ġadap taciÃ³
Ġp ecu
Ġall ÃŃ
Ġreconegu ts
Ġsorpren ent
p ÃŃ
Ġ5 6
ĠHit ler
ĠG all
Ġnacional isme
Catal unya
Ġlim itar
e te
ab et
A lacant
ĠVan guardia
Ġhtt ps
Ġ ric
rÃł c
Ġimpres siÃ³
estructura ciÃ³
ĠIndustri al
Ġinteress at
Ġinteg rar
ĠM EUR
ti onal
esc ut
Ġubic at
ĠPeri od
Ġfer ma
Ġe vent
Ġobs erva
ĠCamb rils
arc als
ĠEx c
Ġproc edir
ĠH ol
Ġmanifes tants
d f
Ġdisc ussiÃ³
ĠCris ti
im atges
Ġmobil itzacions
Ġven ia
Ãł t
ĠG re
Ġreno var
Ġobli gar
A igua
Ġcompet ents
Ġangles a
Ġcomerci alitzaciÃ³
ab ans
ĠCat ed
Ġan uncia
Ġarrib arÃł
lel ament
Ġpr or
Ġparla va
Ġimagin aciÃ³
Ġg imn
Ġs af
Ã² rics
Ġseny ors
da ta
Ġcontin ent
Ġcon gel
n ic
Ãłnim a
Ġcaracter itza
Ã²p era
bl anc
Ġins tÃłncia
Ġ5 1
Ġjut jats
ĠclÃŃn ica
Ġlleug erament
Ġb rom
ili p
Ġsamar reta
Ġinvesti dura
ĠcÃłm eres
Ġcop a
Ġg ros
Ã¨c d
estudi ants
ĠC ÃŃv
Ġdiscipl ines
Ġenca ix
S E
estudi ant
Ġidi omes
rup aciÃ³
ĠCon tac
om Ã²bil
empres ari
Ġpetr oli
av ia
Ġnoti cia
Ġar c
Ġrequer eixen
Ġcr is
ĠPl ana
Ġcontra dic
aspec te
Ġsent en
Ġweb s
ĠVi ves
Ġag re
Ġincorpor at
o us
Ġmasc lista
Ġes bor
A mb
ĠMob ilitat
Ġfac ultat
Ġec os
ĠMar roc
S al
Ãł tiques
ig s
eg em
Ġlater al
ĠjurÃŃ diques
Ġex ca
Ã§ Ã²
Ġen amor
ĠS ent
Ġg i
oc k
Ġsi guem
li ta
Ġdesc riure
n y
Ġperm isos
ĠPar e
ĠA gustÃŃ
Ġar bit
Ġdon em
Ġator gat
ica ments
Ġman ual
a a
Ġass ocia
Ġcor ona
Ġpublic ats
ĠEsc ol
Ġforma tiva
Ġdestin a
ĠSal ou
Ġmascul ÃŃ
Ġpres ervar
ĠAu tor
Ġdirec tiva
Ġcomiss ari
Ġes morzar
T C
Ġcontund ent
Ġamp lia
ĠSols ona
Ġprim a
Ġind ret
ver tir
ĠEspa Ã±a
in ista
Al ta
ĠH ospital
Es t
ĠPerp inyÃł
Ġposi tius
H em
Ġfer ides
ĠPob la
ti ve
Ġdirec tius
Ġque ixes
O rient
Ġpromo gut
Ġen questes
Ġcarre gat
Ġcul tiu
ĠCal af
im Ã©
Ġcomp ost
Ġresol ucions
Ġ9 5
Ġdon aciÃ³
ĠPa pa
Ġem magatzem
esta da
Ġcap Ã§al
ĠTur quia
Ġc ust
Ġ10 7
Ġperju dic
ĠRes id
Ġde terior
ti g
ĠCastell ers
rÃł cia
Ġgu arda
Ġservir Ãł
Ġprovin ents
Ġprior itats
ig ht
Ġinquie tud
ĠW h
Imp eri
ĠS itu
Ġal erta
escrip ciÃ³
Ġtanc ats
ĠG arraf
Ġas pira
ass um
Ġlit oral
ing rÃ©s
Ġnoctur n
rop ol
iciÃ³ s
ĠsÃŃmb ols
ĠÃłl bum
Ġpa tint
Ġinj us
am Ã³s
Ġfant Ãłstic
Ġlle gat
Ġben e
Ġdiver tit
m us
ĠRe f
Ġdipl omÃł
Ġguitar ra
Ġestu dia
Ġmodi ficada
Ã²l ics
Ġcompor tar
% ).
Ġcom Ã¨dia
Ġguany adora
Ġtransvers al
Ġposi tivament
ĠUn es
Ġf usiÃ³
U D
americ ans
ut x
ĠCan adÃł
Ġinvesti gacions
is e
Ġpropor ciÃ³
Ġ197 0
Ġde gus
ĠM arcel
Ġesp ero
ex ic
ĠhectÃł rees
ant es
ĠT rib
Ġman c
Ġa prÃ¨s
Ġreivindic aciÃ³
Ġseny als
entre ga
k el
v ella
ĠDirec tiva
t ÃŃs
Ġf ites
ad eria
Ġca mi
Ġfu tures
Ġh ere
ĠEconÃ²m ica
Ġtar onja
Ġobtin guts
ĠIgu alment
Ġindic adors
Ġdi Ãł
Ġcompeti cions
ĠlingÃ¼ ÃŃstic
Ġsimp a
ĠAqu ell
anomen at
Ġd any
Ġaut onomia
Ġarr els
Ġ7 00
Ġafici onats
Ġdesc ri
essi bilitat
ĠQu atre
en ys
Ġtorn i
Ġbra Ã§
glÃ©s ies
ĠT S
Ġespecial ista
Ġcomp ten
Ġinforma tiu
Ġgovern ador
Ġaddi cionals
g onal
ĠCons um
ĠV ell
Ġrelig iÃ³s
Ġassaj os
an dre
ĠUr gell
Ġnat ur
Ġciutad anes
Ġcoincid ir
Ġcerves a
Ġentren ador
ĠCons ul
Ġac tivament
Ġres tr
Ġvi via
Ġagra dar
ar mes
Ġcomprom Ã¨s
Ġcalc ula
Ġconstr uÃ¯da
Ġord enar
Ġfix at
Ġdescomp te
Ġconfir ma
li Ã³
ĠTom Ãłs
Ġcoopera tives
imp os
Ġinfer iors
Ġcal cul
__ __
Ġca Ã§a
Ġcompleix en
Ġap assi
Ġreclama cions
Ġplantej at
ig o
Ġvicepres identa
Ġbat eria
... ).
ĠCE IP
ur n
ĠI S
199 5
Ġform atge
Ġnega tiu
edifici s
actu acions
Ġmon eda
Ġf ug
i onats
ri que
ĠSe tembre
Ġse p
Ã²s of
Ġsal aris
Ġt Ãłc
Ġinteg rants
Ġprotes tes
ris ti
EL L
igual tat
Ġrec ents
inter venciÃ³
Ġgal eria
Ġsor prendre
Ġbutlle tÃŃ
Ġt ria
ĠBen et
Ġpo etes
Ġcomen ta
Ġsobre viure
ut h
Ġesp eren
ĠÃŃn dex
i tiva
iv al
Ġbomb ers
Ġrespec tius
ilat eral
ĠIn novaciÃ³
ĠCon cepte
Ġfir ma
Ġdepen ent
Ġregul adores
Ġav anÃ§a
Ġg ro
Ġles iÃ³
ĠS em
Ġevident ment
ĠR et
Ġconstitu eixen
Ġanomen ar
ĠU tilitz
labor at
ig i
Ġvis ibilitat
Ġes tils
Ġretar d
ĠPol Ã²nia
fon ia
Ġse tanta
m era
Ãłs tiques
ĠIs rael
Ġele vada
Ġcompar teixen
n ou
Ġdetal lat
ĠPD e
Ġfam osa
Ġfra ses
ĠCerv era
ĠBenefici ari
at ero
Ġenf rontar
Ġin capa
200 1
Ġperfec ta
ĠLli ber
Ġdi em
Ġperfil s
in ades
Ġ" "
ĠAles hores
Ġdes ena
Ã¯ ment
Ġefectu ar
lus iu
ĠEmp resa
8 9
Ġdi us
entren ador
Ġsubs tÃłncies
men tals
ina cions
Ġcul te
Ġanomen ats
Ġloc alitzar
ul ades
Ġh Ãłbil
vi u
ĠSegu r
p Ã¨u
Ġinc endi
Ġm ana
Ġdiss ol
m m
Ġtecn olÃ²gic
Ġvet llar
Ġcorrespon gui
Ġad mi
Ġcer Ãłmica
Ġa si
olÃŃ mp
Ġamp liaciÃ³
ĠAc tivitats
ĠCons ulta
Ġredac tat
ĠcatedrÃł tic
ĠR ural
A ix
ĠMonts e
ĠmÃ²d ul
ĠLli ure
mÃł cia
ac um
ĠEdu ard
ar ren
Ġcres cut
ol les
Ġ197 8
Ġcompareixen Ã§a
Ġprohib iciÃ³
ĠR econ
ven tari
ĠSar agossa
ĠbritÃłn ics
Ġinteress a
ĠE ti
Ġpropos em
em ma
ĠL ou
Ġan Ã²nim
imÃ© nez
Ġen for
ĠS ens
Ġdon ada
Ġpreci siÃ³
Ġcol umna
ĠConc re
Ġcarre gar
Ġsom nis
Ġlater als
Ġbon ica
ĠJu venil
Ġepis odis
r endre
cin c
ĠBer guedÃł
ĠSÃŃ ria
Ġdispos ats
ĠE v
ss es
Ġdur ar
Ġimmig raciÃ³
l Ã³
end o
mos fera
Ġcent ÃŃ
Ġtorn em
Ġinscri ure
ĠMem Ã²ria
ĠTerritori als
In d
ĠM unt
Ġre marca
ĠV ist
Ġprepar ant
rig ht
Ġanti cip
i er
Ġdu u
Ġgiron ines
ĠSa int
Ġpeix os
w ood
Ġf actures
Ġimmob ili
Ġpas tis
Ġ198 4
Ġparticipa tiu
Esp anyol
Ġconten idors
ĠTri as
ĠGl ob
in osa
Ġinscri ts
ĠBar ri
S ÃŃ
Ã¨ p
Ġjus tament
adjudic aciÃ³
. ).
a prendre
Ġpor c
ĠcomenÃ§ ant
Ġadap tat
Ġaudiovis uals
Ġindepend entment
ol e
! ,
Ġma pes
Ġp obre
ĠD escripciÃ³
ĠR ich
Ġresol t
Ġcoordin ar
Ġator gar
Ġpil ars
en tatges
Ġad vocat
lici ta
na val
Ġreflec teix
Ġav entura
ĠS ara
ĠbritÃłn ica
ĠO fer
r osa
Ġs op
Ġrob atori
C ar
Ġquad res
Ã© r
ĠB B
por ta
Ġconten en
Ã¨s ties
Ġbarcelon ÃŃ
Ġimp re
ĠEx per
Ġart ÃŃstiques
ĠE dit
ĠPal amÃ³s
Ġfos c
Ġentorn s
Ġsimul tÃłnia
ĠÃ¨x its
ĠCic le
Ġassoci at
Ġconv Ã¨ncer
o ur
Ġemb ol
j e
Ġnacional ista
Ġesc al
Ġtempor als
Ġarti ficial
e Ã§
ĠC ity
Ġ198 6
Ġtoc at
Ġassign atures
ta mbÃ©
Ġredu Ã¯da
Ġmarc ats
ent ena
emp erador
Ġb ressol
ĠJ urÃŃ
ĠR em
g eri
Ġconvid ar
entren ament
g ina
c uls
Ġac ompanya
6 00
Ġespeci alitzats
autor a
Ġsatis fer
Ġent enc
Ġent Ã©n
ĠEuro pe
ur r
end ran
Ġprepar ats
iversi tats
u es
Ġmanip ulaciÃ³
Ġremarc ar
Ġpu guem
ocal ip
Ġcuri ositat
Ġfund ada
Ġqu otes
g ador
Ġesta tals
E r
Ġpromo cionar
Ġ197 9
ĠF ÃŃsica
ĠMon tilla
esper ar
Ġn egu
Ġ ;
ĠRib a
la i
4 00
AD A
Ġdes enes
Ġator ga
Ġpor tant
a k
Ġmad ril
w er
ĠC ort
ĠVol un
Ġtra jecte
Ġcontempor ani
Ġs int
Ġar tic
Ġdemost ren
C ol
ĠIndepend Ã¨ncia
Ġbal cÃ³
Ġmens uals
Ġg reix
ĠprÃ² r
ĠB ut
Ġimp ed
Ġestat uts
Ġcostu ms
extre ma
ĠPolÃŃ tiques
Ã± ez
ĠÃº tils
A v
ĠCar re
eb a
i ments
ĠD onar
Ġdesenvolup ant
Ġpin tar
trac ciÃ³
Ġutilitz ada
Ġ5 9
ros s
Ġfil Ã²sof
end er
Ġamen aces
ri Ã³
Ġfarmac Ã¨u
ĠCo vid
ag Ã¨ncia
Ġtel ec
Ġf isi
Ġestad ÃŃstiques
indi vid
f t
C al
Ġf ia
Ġestabli ment
cion ant
Ġrell otge
Ġsum at
Ġprop ici
us uaris
ĠL ec
Ġcerim Ã²nia
Ġcuri Ã³s
ing o
ins erciÃ³
Ġatrac tiu
ĠC od
Ã ļ
P P
... ,
emp at
Ġconv ic
Ġfres c
ro v
anomen ada
ent endrÃł
Ġtre p
Ġdescob ri
mes es
Ġ198 7
Ġsusp endre
Ġta x
Ġexp edient
ĠPDe CAT
j i
Ġs at
Ã§ Ãł
Ġliquid aciÃ³
ĠSeg arra
Ġl in
ui da
ur gia
Ġter rat
Ġemb ar
ĠJ ames
Ġll istat
Ġvol ums
ĠRep res
it Ã²ria
ĠNo guera
Ġconv Ã©
Ġret ribuciÃ³
en carregat
al tat
Ġre posiciÃ³
ĠL oc
Ġrec ta
Ġinter ns
ĠZap atero
Ġna z
Ġrecoman able
Ġmotiv aciÃ³
A ques
Ġportu gu
Ãłn quing
Ġpresen tats
ĠA ir
Ġrelacion ar
5 7
ĠnecessÃłria ment
Ġem marc
Ã²r nia
ocalip si
ener aciÃ³
es tu
Ġpla u
Ġaconsegu int
Ġarrib em
Ġpertany en
Ġpres tar
EU iA
ciÃ³ s
ĠA par
Ġmed icaments
ĠCiutad ana
ess ora
Ġmodi ficat
Ġrecord en
Ġest el
Ġd up
Ġam iga
el ements
Ġguer res
itx ell
ĠBre tanya
Ġa tes
ĠFor c
ĠEs pai
Ġdi ta
d in
Ġll ur
esc oles
Ġres cat
per Ã²
in fer
op e
Ġcom odi
Ġa prenentatge
pres siÃ³
Ġajud at
Ġrebut jat
H orta
Ġprogra mat
Ġloc alitats
Ġpren en
Ġpl ural
T T
ĠM ot
d Ãłria
Ġrespec tu
Ġs umen
e mbre
ĠM und
Ġtraves sa
Ġca mes
ĠagrÃŃc oles
Ġcor da
Ġsig nes
ocas iÃ³
Ġex ecuciÃ³
Ġf Ã²rum
ĠmÃ²d uls
Ġcamp anar
Ġpresump te
id aciÃ³
ass ump
Ġcons ecutiu
pl u
Ġrecol lides
In formaciÃ³
ofer eix
Ġconsider em
Ġconc lÃ²s
C I
Ġg an
Ġguard Ã³
ĠI gnasi
ĠPolit Ã¨cnica
ĠautonÃ²m ic
P V
Ġqueda va
B I
ĠCal if
Ġfran ja
ĠÃ¨ poques
Ġfes tivals
Ġ5 7
O D
Ġconf inament
Ġin tu
Ġjug ada
ĠacadÃ¨m ics
ĠP av
H isenda
Ġdiver tida
ga fa
Ġacab ada
o y
oportun itats
Ã¨ miques
Ġem et
Ġmot ors
5 2
ĠVir g
Ġparlamen taris
Ġcri tica
per quÃ¨
Ġign or
Ġfor at
ER S
egu ts
he im
re ia
Ãłl isis
Ã©n en
Ã¼ l
w ork
Ġinvesti gar
Ġdes prÃ¨s
Ġdesper tar
Ġcristi ana
erm erc
l or
Ġsolid ari
Ġpriva citat
Ġde tecciÃ³
Ġcircums tÃłncia
Ġfit xa
Ġdes a
ab tes
Ġbomb arde
ĠCons id
Ġconc ed
b Ã³
Ġf rus
ÃŃssi mes
Ġaccep tat
Ġsetman al
IC A
ĠClar a
Ġsec rets
Ġtar ra
Ġadequ ades
Ġs ons
tr ar
Ġdemana va
ted ra
Ġa ustr
cri t
ĠM edia
les a
Ġsan cion
ĠConcre tament
Obs ervatori
Op iniÃ³
adequ aciÃ³
Ġconcre tar
Or den
Ġproduc tor
Ġes teu
ĠU PF
integra ciÃ³
ci ts
Ġcent r
ĠRub ÃŃ
av ent
Ġno bles
Ġservid or
Ġurban itz
Ã¯ ns
Ġrela tiu
Ã² bia
Ġxin Ã¨s
Ġsemb lants
ĠhistÃ² riques
Ġins tant
ĠSol idaritat
Ġfor tes
Ġestal vi
Ġdoctor at
Ġenc Ãłrrec
Ġguany ant
Ġcent enari
Ġconclou re
Ġacab arÃł
n als
Ġb ossa
Ġferro car
ĠDoc umentaciÃ³
ĠMer itxell
Ãłm ens
ĠMol ins
Ġaprof ita
Ġest endre
Ġceleb ren
Ġin evi
er as
Ġbas c
Ġcor por
ing res
Ġri era
Ġesp on
Ġinform Ãłtica
Ġ olÃŃmp
ges ia
ĠM ich
Ġrecup erat
Ġconvoc ada
A fers
ĠX i
Ġport em
Ġaliment Ãłria
c Ãł
Ġc ed
Ġconstant ment
ĠcÃ²m ode
Ġcon quer
Ġvinc ulaciÃ³
ĠB uen
ĠF ort
Ġdescob erta
Ġcontrib uciÃ³
ĠJ on
5 3
at Ã²ria
Ġpreocup a
ĠResp ons
u di
Ġde is
os ex
P ar
Ġtrobar em
ĠÃģ ngel
ĠDipu tats
Ġdim issiÃ³
Ġvis c
guin es
ens eny
ha el
ĠLle tres
Ġdirig ides
Ġ198 2
Ġrellev Ãłncia
Ġm Ãłs
Ġblanc s
legi ats
ĠCom erci
Ġde ien
Ġsepar ar
Ġ rics
Ġha guessin
Ġinc omp
Ġpublic ades
Ġre trat
ĠDu es
mÃł tics
Ġm Ãłn
Ġsitu ades
20 19
Ġcerc le
un i
Ġacc essos
om eu
Ġobli gaciÃ³
Ġjus ta
ti ficat
Ġad mÃ¨s
Ġcompon ent
ĠPal af
Ġindi quen
Ġnacional istes
Or questra
ĠGuardi ola
ĠV illa
r ons
ĠT all
Ġcient ÃŃfiques
ĠS ta
ex tinciÃ³
Ġcreu ar
ĠMus ic
encar reg
hau rien
Ġefec tivament
n oms
ĠautomÃł ticament
Ġcorre dor
Ġcad ira
Ġesca par
M B
ĠMil Ãł
it Ã³s
Ġtari fes
lle u
a pa
Ġfol k
20 20
IC V
Ġllic enci
Ġress Ã²
im enta
ĠA N
ĠS Ãłn
Ġin noc
rari es
ĠelÃ¨c trics
C A
Ġexemp lar
Ġsucce ir
ĠDes ta
ĠprÃ²xim es
Ġnucle ar
ĠOb jecte
Ġdestr uir
Ġpla ca
Ġbr ut
u ar
5 4
ĠR ad
Ġprec ari
ons o
Ġtr entena
ĠE D
Ġmus ulm
Ġsal tar
ĠautÃ¨n tic
Ġac Ãºs
Ġru mb
Ġvui tanta
a plic
Ã§ o
ĠIn form
B aix
Ġ198 8
Ġex tern
on alment
Ġplu ges
Ġrob ot
Ġfrag ments
ĠW e
Ġsalari als
apro xim
Ġ5 3
Ġlid erat
Ġtreball em
Ġvolun tari
Ġend ur
li p
Ġguard ar
Ġproduc cions
apro f
Ġpan car
Ġterror isme
ĠC ient
Ġcob ert
e ficÃłcia
ĠprÃłc tic
Ġexplic ant
es ter
ator gament
ĠA da
Ġcommem oraciÃ³
Ġroman dre
Ġrepe teix
ÃŃc ules
ins cri
ĠReg iÃ³
p in
Ġpresid it
al liberament
Ġdesapar eix
ic e
9 2
arr el
Ġperspec tives
ĠdesplaÃ§ aments
ost re
Ġapro vaciÃ³
ĠS Ã³c
ran si
h al
ĠSÃłn chez
tiner ari
Ġexplic aciÃ³
ropol itÃł
g ons
ac k
Ġav al
ĠF la
Ġg ala
r uc
Ġt emÃłtiques
Ġentre ga
Ġfas cin
Ġ7 8
ot e
Ã² ces
ng els
Ġ197 7
ARC EL
inf ra
Ġb ord
ent r
cion istes
Ġ198 5
Ġm ari
-- ,
Ã² loga
Ġt omÃł
ĠH am
5 1
Ãł p
Ġenten em
Ġpren ent
cion ista
Ã²m ens
Ġsupervi vÃ¨ncia
Ġidenti fica
Ġdescomp tat
Ġcomple xa
id at
Ġ196 0
Ġcoincid eix
j aments
un id
ĠÃŃntegra ment
and ia
Es tany
Ġcontra st
ĠPar k
Ġloc alitzaciÃ³
Ġlliure ment
Ġres ca
Ġas semblea
Ġsuper vis
s car
s et
Ġter Ã§
esta di
Ġadre Ã§ada
ES CO
ĠgÃ¨n eres
Ġdes esper
on ga
ĠRepublic ana
Ġlec tures
Ġnarra tiva
ven da
. Â»
Ġsen cer
Ġhoritz on
Ġmis sa
Ġmar gin
Ġexper t
eg ada
Ġv ells
Ġge ogrÃłfica
AL L
Ġsab or
Ġden Ãºncies
ĠCas as
Ġpromo guda
Ġag ent
Os ona
Ġgaud eix
Ġinform Ãłtics
Ġxi quets
Ġpreveu re
Ġfinanc ers
umen ges
Ġfortal esa
5 6
Ġverm ella
ĠMor eno
em marca
ĠV iu
ĠDel egaciÃ³
ud Ã¨ncia
Ġ198 3
S T
Ġmarc ada
Ġcompar tida
tra da
Ġp esc
ell ers
ĠAl t
Ġmagn ÃŃfica
Ã³ ra
ĠplÃłn ols
Ġcomplement Ãłries
Ġtrac tats
ĠavanÃ§ ada
Ġen via
Ġport Ãł
ib er
Ġvincul ada
ic at
c les
Ġent Ã¨s
oli da
rac cions
Ġpresenta cions
Ġperd ent
Ġestim ar
ingres sos
oc at
Ġcomun itÃłria
Ġcerti ficats
Ġcas c
ad op
Ġinvol uc
ad ura
Ġval u
Ġ7 2
ra eli
odi versitat
ĠSocial ista
en tat
Ġcavall s
Ġpor teria
Ġqu er
Ġorganitz ades
Ġsug geri
Ġc oure
us k
Ġcre adors
Ġacud ir
Ġdol Ã§
se ud
ci da
inclou re
Ġexpl ÃŃci
Ġam ants
ĠQu er
ob tenir
om at
Ġesp osa
arca cions
Ġdetec tat
Ġes g
ens es
Ġvesti ts
Ġrevol ta
Ġinter iors
Ġad vers
Ġre tal
r all
Ġv Ã©nen
ec tes
ĠC ob
utilitz en
Ġin ex
Ġrealitz aran
Ġcontemp lar
Ġreb uda
Ġen carregar
Ġdes mun
ĠRegid oria
ĠH en
Ġsimp li
Ġden sitat
Ex ecutiu
Ġex teriors
ĠCub a
Ġplan tar
Ġcritic ar
Ġengan x
Ġconven cional
ra va
Ġa mar
Ġcorrec ciÃ³
Ġll una
ĠAlbert o
Ġseg res
Ġllarg s
Ġfitx ers
ĠAl ba
ĠestratÃ¨g ica
Ġestric tament
titz at
Ġsen tim
l lament
le tisme
Ġemprened ors
Ġfra u
c la
ĠT inc
Ġconcep ciÃ³
Ø §
im on
ĠGe orge
Ġcarb oni
Ġc h
Ġordin adors
Ġinter loc
Ġconsum idor
ĠE ug
di m
ĠPro duc
Ġimplemen taciÃ³
Ġconsidera ble
ĠPP C
arr Ã²s
ĠeconÃ²mica ment
Ġconf id
Ġ9 00
ĠC GT
im e
Ġl ent
ĠLle Ã³
Ġh ol
ĠTari fa
er ats
Ġgra var
urban itzaciÃ³
ĠTo ur
Ġal imentaciÃ³
Ġsupos en
p Ãłs
Ġs ona
ĠPon Ã¨ncia
Ġavan tatge
Ġliber al
u alitats
Ġsup ressiÃ³
Ġtal la
Ex Ã¨rcit
ĠN ec
r Ã³s
Ġren Ãºncia
Ġa pa
Ġaut Ã²ct
Ġreg als
vis me
Ġcont ent
ed Ã¨ncia
Ġtor rent
nom Ã©s
voc aciÃ³
ĠCas tells
Ġg at
Ġno tar
Ġpropos en
Ġdol Ã§a
.... ....
Ġvaria ble
Ġmob iliari
Ġdeix i
ĠMont juÃ¯c
vi Ãł
terna tiva
Ġprocla mar
Ġsup ermerc
Ġreligi oses
Ġcompr Ã¨n
Ġvulnera bles
Ġpresid ents
ĠAmb iental
Ġp Ã¨l
Ġplantej ament
Ġconjun ts
es i
ĠG aran
f ort
Ġdestac ades
ON U
L le
Ġdeb ut
Ġdescob riment
h y
ve us
Ġtras pass
m ades
Ġg la
Ġcomun es
Ġpropa ganda
av entura
Ã² tics
ĠO ri
ex emp
ĠFin ances
ĠC rea
Ġver dures
Ġn Ã©
Ġbenefici ari
Ġt on
Ġt oler
ĠF ru
H otel
ĠF oto
ol ina
Ġpen es
ĠE ul
d an
ad olesc
Ġevid Ã¨ncia
Ġmagn ÃŃfic
h omenatge
Ġpa gesos
ĠMitj anÃ§ant
Ġmes tra
ĠRec tor
ĠAudiovis uals
ARCEL ONA
imp ar
Es cal
P a
ĠPro vin
Ġcapital isme
Ġpresentar an
Ġaclar ir
ĠMarg ari
ĠM Ã²nica
lec tuals
il itzar
Ġ ðŁ
ĠmÃłxim s
Ġesc ons
ĠA h
ĠMat eu
ĠP ost
Ġpatr onal
valu aciÃ³
Ġindisp ensable
Ġimp er
Ġinter canvi
Ġpac tar
n cia
Ġsor tint
Ġneu tr
b at
apar ell
acc essibilitat
Ġsignifica tiva
ĠR ig
Ġfigu ren
ĠMol let
ci ent
Ġtecn olÃ²gics
ĠT hom
Ġb il
gu ers
or questra
Ġmon itor
Ġreb rÃł
as tr
Ãł cid
Ġadi ent
Ġrepresen tat
Ġacab i
ĠCard ona
H abitatge
ĠA y
en carrega
Ġpor ts
ap ocalipsi
Ġconf ron
avor its
Ġsis ena
Â ¿
Ġm ossos
ĠSÃŃn dic
ĠDi vers
Ġrecap taciÃ³
Ġrecicl atge
er ola
el d
Ġpl en
Ġdes b
m ona
Ġr osa
Ġaband onat
is ca
Qu an
ad missiÃ³
Ġconsolid at
van gel
Ġcas al
Ġju guen
Ġama gar
Ġc itat
pos at
Ġsac erd
ĠG ro
ĠAli mentaciÃ³
Ġmitj anes
Ġne ur
Ġvege tals
Ġco ca
qu ins
Ġargu ment
exp ansiÃ³
Ġcandi data
Ġaprofund ir
ĠcentÃŃ metres
Ġproteg it
Es per
inc esa
tr ina
ĠV II
C D
nec ess
ĠM estre
Ġdes fer
L E
Ġpecu liar
Ġsist emÃłtica
Ġreivindica cions
Ġll urs
Ġsemes tre
Ġtera pÃ¨u
rib le
Ġ197 6
s h
ĠBar ris
Ġesc or
Ġcomun itari
au diÃ¨ncia
ĠAr ran
ĠDi ego
ĠPre gun
Ġac orda
ig en
nes t
Ġprim Ãłries
tan es
Ġperson alitats
Ġaccessi ble
on er
ĠPD F
Ġp and
Ġrequis it
sion ista
Ã§ ant
Ġreb uts
Ã² mbia
Ġaf ron
Ġcrea tiu
Ġtarra gon
Ġpa p
Ġleg ÃŃtim
Ġjun tes
indo ws
ĠespecÃŃfica ment
u its
Ġconcurs os
ĠMi reia
tat es
ĠelÃ¨c triques
âĢĶ ,
ertes a
Ġrecull en
til l
acredi taciÃ³
s obre
Ġexpl otaciÃ³
oc ols
en z
Ġjo guines
Ġcons erven
Ġse ca
egu es
Ġvaria bles
Ġrefer it
Ġrefer ir
Ġte Ã²rica
ĠSu Ã¨cia
ĠCiutad ella
Ġprofun dament
assa ig
Ġri vals
Ġsignifica tiu
ĠtÃºn el
Ġagra daria
Ġar bre
Ġtin guÃ©
Qu e
Ġb ull
ĠCon trac
Ġofici na
Ġre tra
e w
ĠautÃ¨n tica
Ġbicicle tes
ĠNav arra
ĠLa ia
ill as
Ġfron tal
Ġsu fra
Ġe ficÃłcia
Ġr um
rat ges
Ġav ÃŃs
Ġassass inat
gu r
man n
gu st
Ġdocumen tals
ĠRam Ã³n
Ġque ixa
acompany ament
Ġdesigual tats
lustra ciÃ³
ĠOl ot
Ġh el
Ġdirec trius
Ġadop tat
Ġtrami tar
Ġra cons
Ġinici als
Ġorganitz en
ĠMill or
b ona
Ġmob les
te ga
Ġre tor
Ġvess ants
Ġfemin ista
Ġn eta
ru gell
ĠEsper em
! "
Ġproduc tivitat
ro gen
al d
Ġvi vien
Ġvi ta
Ġameric Ãł
Ġins erciÃ³
Ġdescon egut
An na
ĠÃ ī
Ġem iss
ĠPri orat
Ġra cÃ³
Ġap el
direc tor
V ol
ro g
ION S
Ġmonar quia
ĠEs portiu
Ġdiss abtes
ĠAn dre
Ġtorn s
Ġestr ena
lau di
que z
Ġr uÃ¯
Ã¡ r
Ġredu eix
oti ps
Es portiu
ĠPac o
ic k
Ġb egudes
Ġcant Ã³
Ġb orsa
Ġapar ell
c ra
ĠCon eixement
9 3
Ġt est
if e
qu Ã¨s
Ġass ab
Ġconf ess
ĠprovÃŃn cies
Ġlluit es
Ġcal gui
Ġan irem
ĠEs tudis
hab itaciÃ³
ĠC ro
Ġ18 0
Ġexplica va
Ġcoher Ã¨ncia
ĠN ob
ĠCom pl
Ġclo enda
g rup
Ġpers ecuciÃ³
Ã¨l ix
Ġfre da
Ġdec ora
O V
and ro
ĠN arc
Ġcompl ements
ri z
ĠConsell er
ta blement
Ġexperimen tar
Ġrespec tives
a gaf
Ġcal ma
id o
ĠSecre tari
ĠGarri ga
vin guts
Ġes qui
Ġint Ã¨rp
Ġtraves s
Ġlli ur
Ġanim ar
Ġ197 5
ig ma
p od
Ġen der
ompl ir
h ero
Ġcom icis
ĠE c
Ġdiscurs os
Ġmediter rÃłnia
Ġbu its
Ġv arem
Ġenreg ist
Ġinc endis
Ġdon aran
ĠfreqÃ¼ ent
espec tador
Ġver te
ren a
Ġval ent
ĠH ola
Ġinstitu cionals
ĠmÃ¨ri ts
Ġ6 6
h Ãłb
Ġassoci ades
Ġmot o
ĠDi jous
Ar gentina
Ġdi umenges
Ġfin ques
amen a
ĠtÃ¨x til
ĠM osc
Ġgen i
Ġmes urar
Ġinforma tius
Ġbenefici Ãłries
u le
eix es
xa ca
ari o
Ġta p
Ġide ologia
Ġf Ã²s
Ġc ist
Ġfla men
Ġca va
Ġcat or
ar tic
Ġcre ativa
ĠCoordin adora
ĠJo ana
pl an
Ġcli queu
ĠG reg
Ġpresen cial
def els
Ġ 00
Ġsus cep
cion isme
y e
Ġedi ficacions
ĠRib es
8 4
ĠCated ral
Ġpil ar
Ġpen et
Ġajud ant
ones os
ub e
inici ar
Ġpaci Ã¨ncia
Ġadequ ats
emp rened
Ġcas ti
Ġpa quet
Ġm ulta
S e
Ġdist Ãłncies
Ġtrac ti
Ġson ora
ĠCom par
Ġoc ells
Ġmet re
ĠcÃłr regues
ul ls
ĠReg i
Ġconf ia
l ents
Ġn ed
empor ada
Ġinter acciÃ³
Ġes ter
m ÃŃ
Ġcent rada
Ġconeix ia
v ents
ĠA tenciÃ³
Ġex ten
Ġespeci alitats
ÃŃssi ms
Ġaplic ant
Ġcont ents
h istori
Ġesp l
vis ible
ĠJ uny
Ġdeclar a
Ġmin oria
Ġagra Ã¯t
Ġrec rea
Ġa us
Ġta bac
Ġreligi osos
on ers
Ġsen der
Ġsimb ol
u tor
land Ã¨s
Ġrenova bles
Ġdec re
ĠPon ent
ti ran
ĠD al
Ġdivid ir
ĠTot hom
ad ministra
Ġimp rovis
Ġfav orables
ĠB loc
Ġmerc antil
lici tants
ti ons
Ġca utel
Ġlim itaciÃ³
Ġvari ant
Ãłr bit
ur gÃ¨ncia
l via
Ġg ana
ĠMic hael
Ġenvol ta
Ġcon ec
ad en
Ġp uny
Ġpreten en
eny es
Ġmus c
ĠEm ili
dic te
Ġd avall
ac omi
ĠfÃŃs ics
loc aciÃ³
ai res
Ġmor tals
Ġc Ã¨n
Ġh ar
ĠH el
Ġver b
Ġtin guem
Ġcol umnes
Ġb ars
esta va
ĠP ag
Ġllibrer ia
Ġlli gat
Ġmin istres
Ġcastell ana
Ġpais atg
ĠVic ente
ci taciÃ³
Ġform alitzar
f ord
Ġcomp licitat
ÃŃ lies
aprofi tament
Ġpil ots
Ġc eller
ĠfreqÃ¼ ents
ixamp le
ĠS is
ĠP asc
m is
es tes
Ġvet ll
Ġautor itat
ĠCon trol
ĠB ou
Ġmin or
Ġdinam itzaciÃ³
ĠAl onso
utilitz aciÃ³
Ġsis Ã¨
ĠD O
tr uir
Ġec olÃ²gic
Ġvers os
Ã ĥ
Ġtal s
I E
Ġad vocats
Ġespiri tual
Ġdispu ta
Ġcon questa
Ġelec ciÃ³
ĠCha mp
ĠRam aderia
ĠX ile
Ġperman Ã¨ncia
ĠCatal anes
b u
Ġsan itÃłries
Ġregu len
Ġclassi ficar
Ġna us
ĠcomenÃ§ Ãł
Ġmolt ÃŃssim
Ġmediamb iental
on ent
Ġpac ÃŃfica
ĠnÃºvol s
labor ador
Ġ198 1
ĠB ARCELONA
bl ir
ĠEspeci al
obs ervaciÃ³
Ġparticular ment
en via
Ġarrib ada
Ã² metre
Ġdisf ru
t n
idi oma
ĠInd Ãºstria
Ġaleg ria
mon ia
ĠComp anys
ĠNarc ÃŃs
ĠV el
espÃ¨ cie
Ġpreven tiva
on ari
ĠNo ve
Ġran g
ĠPre venciÃ³
Ġpen itenci
Ġ8 8
ĠF i
Ġcorre gir
av is
Ġubic ada
Ġcon vent
Ġtas t
Ġneg at
Ġcapi tals
Ġind isc
Ġsor tirÃł
AM PA
ĠD o
Ġpres sa
ad ÃŃs
ĠT elec
w ay
Ġdeix arÃł
Ġtor res
Ġdedic ats
ĠM ig
an al
Ġb ranca
Ġdes ert
c hi
li ga
lan des
Ġmin erals
ĠRe voluciÃ³
vell es
ÃŃ as
Ġcar ril
tu m
Ġcad enes
ĠIm atge
Ġsacri fici
ĠpolÃŃtica ment
ĠOb s
op i
Ġurbanitz able
Ġconc edit
aix ec
Ġac ollit
e ja
Ġb ale
ĠV iny
Ġcon ducciÃ³
ĠcapÃ§al era
Ġvinc les
Ġsuper visiÃ³
Ġest Ã¨tica
Ġcog noms
ci li
a us
Ġass et
l Ã²
Ġdeix o
en tista
que i
ash ington
ĠCal des
ĠcomenÃ§a va
ĠÃĴ mnium
Ġ11 4
Ġr Ãłnquing
em magatzem
ĠV ox
Ġban ca
a h
ric ul
as tia
Ġprogra mar
Ġgas os
Ġhi per
Ġrob atoris
u ega
Ġprot ocols
Ġtri partit
eb ra
icia tiva
Ġfru ites
Ġmen tida
Ġper p
ĠM AR
Ġtroba ven
ĠAr nau
Ġmon itors
Ġbar reres
ĠTerc era
Ġcon tenir
Ġdin Ãłmiques
rit z
Ġprovin cial
Ġmun di
Ġfab ri
y d
t us
Ġvideoj ocs
os tic
elim inaciÃ³
Ġimpos at
ĠSup ort
Ġfres ca
Ãłn iques
op er
G C
Ġb osses
Ġordin ari
Ġmantin drÃł
Ġmec Ãłnica
k m
ide es
assass inat
Ġcoordin adora
ĠM ul
Ġbl at
Ã² dia
rem ta
Ġdona cions
Ġconduc tes
Ġdisf ress
In vestigaciÃ³
ĠN eus
Ġso us
id entitat
Ġsot met
escol ar
ĠÃĢ ngels
ĠA ten
bi ol
Ġaplic at
ajud ar
ĠUR V
ĠmÃ¨ri t
urr Ã¨ncia
c lar
at ra
Ġdi Ãłriament
ĠChar les
P D
Ġcor al
organitz ar
Ġc Ãłs
Ġdepen en
ĠDomÃ¨n ech
ĠL ES
Ġpublici tari
Ġvin ya
ar tistes
Ġcatal og
Ġpac tes
Ġaven Ã§os
Ġdistin ciÃ³
ĠSeg re
Ġ9 9
ĠH abitatge
Ġcap tar
Ġap orten
G u
V al
] ,
Ġapro va
Ġimpuls ada
aleg ria
ĠR ES
Ġtransc urs
Ġrealitat s
Ġbran ques
lo qui
ĠVi da
Ġdesob ediÃ¨ncia
Ġprot ec
Ġcer e
Ġincom pa
Ġ6 3
Ġfren ar
entre teniment
M C
ĠAd ministraciÃ³
lustra cions
Ġcre ador
Ġ11 5
Ġdistrib u
Ġadqui rit
Ġrela tius
ac triu
M S
fre d
ĠForm a
Ġrec al
Ġter t
avan tatge
esc rit
Ġelim inat
Ġacol li
Ġint ents
laÃ§ ament
Ġb ec
Ġacus acions
ta di
Ġadjun t
Ġes glÃ©sies
Ġsepar at
Ġja ciment
Ġrebut ja
Ġsal ud
Ġmeu a
ĠMan lleu
ur b
ad em
Ġan ant
Ġdig ne
ĠQu ÃŃm
Ġen va
ĠVi ena
Ġgen Ã¨tica
Ġautor itzat
ĠSo vint
Ġasc ens
C ons
ĠDel ta
Ġcompleix in
Ġrec tificaciÃ³
ĠCol Ã²mbia
Ġre pl
us ar
ho w
I AL
Ġfaci l
Ġconcedi da
Ġrestr ing
Ġgui es
d Ã¨ncia
ĠCastell defels
ĠsuperfÃŃ cies
ĠUr ban
ĠH oll
Ġdistin gir
Ġtra duir
ĠprÃ²r roga
Ġfer it
Ġfactura ciÃ³
un ts
Ġtras torns
ĠTecn ologia
Ġ9 2
ĠI ceta
Ġrec re
Ġlimita da
ĠBor rÃłs
Ġre estructuraciÃ³
I O
Ġdismin uir
Ġdec or
Ġex istÃ¨ncia
Ġsub ter
ex tra
Ġpl enes
Ġpu ra
Ġti ra
Ġreme i
Ġcondi cionat
ĠT it
Ġmas car
ment era
Ġmassi va
Ġresul tant
ÃŃ b
Ġaj orn
ĠGovern aciÃ³
ĠUnivers itÃłria
ent o
ĠVer d
ori da
Ġdeix ava
mb urg
Ġx ines
ĠtÃŃp ic
ĠMari o
d ant
qu an
Ġcri ts
Ġencarreg ats
Ġcompar ar
Ġdedi quen
Ġcol Ã²nia
Ġtel emÃłtica
oc on
Ġpu jat
ĠSegu rament
Ag rupaciÃ³
Ġtra g
ĠW i
ĠÃ¨ mf
argu ment
Ġapar egut
Ġvertic al
Ġmascul ina
ĠC ir
ob il
Ġmal es
ĠProjec tes
Ġimpor ta
Ġin tr
k ar
Ġsatisf ac
ella ment
M I
Ġis raeli
fici als
ĠOr g
Ġd ents
ĠR ab
ess Ã¨ncia
Ġproced Ã¨ncia
Ġenem ics
ĠPas tor
Ġr end
Ġnaveg ant
Ġdirec tiu
ĠS ER
Ġestrang era
Ġprec edents
Ġes tant
Ġan alitza
Ġvoc als
AN A
ĠEsc olar
Ġbol ets
Ġrestric cions
A mp
Ġflo ta
ur siÃ³
p reu
oc h
Ġcontrac tat
Ġafeg int
ĠM is
Ġtip ologia
7 00
ri tas
Ġlleug er
Ġdefens en
Ġderi vada
Ġextre ms
Ġen questa
Ġband eres
Ġpar roquial
ĠCalif Ã²rnia
gu arda
Ġb or
Ġsat Ã¨l
ĠMonts eny
ĠG emma
Ġquin zena
OR T
ĠfaÃ§ anes
ĠD alt
Ġcur ts
ÃŃx ols
egu i
Ġpromot or
Ġc ort
un iÃ³
ĠCan vi
er ussa
ĠPalaf rugell
Ġdol ent
Ġlid erar
Ġabs orb
Ġfa ma
Ġcon reu
ĠW il
Ġrequeri ments
Ġ( ...)
Ġm exic
v ard
ex amen
Ġaplica bles
o z
9 7
ĠS elec
Ġconnex ions
ran es
m ens
ĠE bre
Ġidi oma
Ġll ogar
Ġcamin ant
Ġo i
Ġmusulm ans
Ġad metre
ĠD eb
U s
Ġimp ulsa
Ġelec tr
Ġvinc le
Ġven ut
Ġen ergies
Ġsitu en
Ġcomplic ada
Ġavent ures
ust os
k ov
ĠG eg
Ġin capacitat
Ġconsta tar
Ġg rega
Ġespectac ulars
Ġc ors
Ġpre ju
Ġalterna tiu
Ġinc ons
Ġdetall ada
Ġret rib
ix en
ĠA P
que ologia
Ġc ass
drom e
b Ã©
in era
g Ãłria
Ġdef en
Ġpass ades
ap s
ĠVirg ili
Ġregal ar
Ġpos ava
f ran
ÃŃn dex
* *
Ġpropor cional
Ġapro pi
fer ent
Ġfi res
ĠR io
Ġinter nes
! )
ĠMosc ou
Ġcom tat
Ġinver tir
w in
eg Ã¼
ĠAn im
Ġdes fil
Ġpla ques
Ġepis odi
Ġsec retaria
Ġarros seg
Ġac ollida
tur at
ol or
ĠDia gonal
Ġgesti ons
ma g
ĠTerc er
ĠS agrada
G E
Ġcom arcals
Ġgen ial
Ġn acions
Ġpres es
ĠV ull
ĠCon eix
ĠGu ÃŃxols
Ġconstitu Ã¯t
pia ciÃ³
ĠBart omeu
er ror
Ġfe bles
Ġind Ãºstries
Ġdesn ivell
ĠJut jat
Ġestat unid
ĠE va
Ġincid Ã¨ncies
ĠP rats
ĠH ab
Ġorganitz ats
Ġteix its
ut Ãłria
Ġ194 0
Ġi o
Ġmul tim
Ġtu tor
Ġconcent rar
Ġtren cat
ĠW ashington
Ġri ca
Ġesc oll
Ġreb ran
er ada
Ġ Ãłn
Ġmagn itud
Ġagaf at
fi quem
ĠBor ges
F E
H a
qu ill
Ġconsider ats
leg als
Ãºr cia
Ã©s sim
Ġpuntu als
Ġadre Ã§ades
Ġmal estar
an et
ra q
gu erra
ĠN u
mble es
Ġinaugu ral
Ġpes ar
Ġsal va
Ġsa vi
ĠK e
Ġins isteix
ĠVer ge
Ã±o z
b us
ĠMau ri
Ġcul p
ĠPro pi
Ġrecord em
Ġan Ã¨cd
Ġro ques
Ġdirig its
Ġpros per
qu isi
ĠN atura
Ġdeman em
A I
ĠS ur
Ġd ans
Ġh ui
Ġp seud
uc s
ĠCo rea
ĠdiÃł metre
Ġc Ãºp
Ġestudi at
ĠH otel
ĠS anc
Ġf Ã©u
Ġimp edeix
Ġ ema
fic arÃł
ĠG od
Ġind icacions
ĠBa y
Ġrecons trucciÃ³
199 0
ĠtelÃ¨ fons
ĠOber ta
agrup ament
Aques t
ell at
Ġex Ã¨rcit
ĠO pen
Ġprev al
ĠD isc
s al
z Ã³n
Ġac triu
Ġconform e
Ġrecla men
Ġau di
Ġurb anes
isti rÃł
Ġreac cions
Ġri d
ĠEsp ort
ĠE quip
Ġobli gada
Ġpre dic
Ġgui ada
tan er
ĠMol ina
Ġexpos a
Ġderro tar
Ġpens aments
Ġnom enar
met ratge
ĠÃ¨mf asi
us sions
ĠRe dac
Ãłs tima
ĠS ac
ĠH oms
ĠjurÃŃdic s
Ãłr mac
Ġseny alitzaciÃ³
Ġtrep itj
Ġcor on
Ġproduc tiu
ĠBisb al
Ġex terna
Ġesper anÃ§a
Ġregid oria
c ats
ĠB au
por taciÃ³
ĠD emÃł
Ġarrib ava
ur Ã³
Ġfen Ã²mens
Ġvis uals
ĠL an
ĠS au
Ġfanta s
Ġb eure
ĠTÃ¨cn ic
Ġt um
ĠPasc ual
Ġca mb
ap p
ĠOb jec
Ġresp ost
im es
ĠplÃłn ol
Ġa Ã§Ã²
Ġdesigual tat
ĠÃģlvar ez
Ġdi versi
an is
Ġsin Ã²nim
Ġlit res
ĠMa ciÃł
Ġk g
am istat
Ġapro vades
onal d
Ġcontes tar
ĠMoll erussa
Ġ utilitat
m eres
Ġactu en
Ġsot mÃ¨s
Ġvege tal
Ġfili al
Ġfuncion en
ĠBon et
Ġh omen
ĠR uta
Ġcurs ar
ĠRos er
ĠC ass
Ġc ig
Ġcons tants
am o
Ġd Ã©
ar bre
Ġtradi cionalment
em i
Ġfid els
Ġquil os
Ġpo Ã¨tica
ol id
dic o
En ric
ĠC uix
Ġselec cionar
lle ts
Ġcomplex os
l Ã¨tic
impor tant
oc Ã²pia
tr onÃ²m
Ġinf in
ĠElec toral
Ġin esper
Ġb y
Ġe ficiÃ¨ncia
tim s
Ġclar s
Ġmalal t
... "
Ġcatal anisme
ang le
ĠVi ol
ĠMu Ã±oz
Ġtret ze
ĠFil osofia
9 6
Ġquar antena
ĠveÃ¯ na
Ġoport Ãº
Ġrequeri ment
ĠB adia
Ġdis capa
Ġtrip le
ert o
Ġc up
iss in
Ġactu at
f ix
p is
Ġart ÃŃstics
Ġpartid aris
ĠT ren
ĠAv ÃŃs
ĠD ina
ĠE gipte
Ġv Ã¨ncer
Ġexpres sions
b ili
ĠCÃŃv ic
ĠH ong
Ġ <
ĠCor al
on arÃł
ur Ãłs
ĠForc adell
Ġre men
ĠAn tic
Ġcri dat
Ġcor reus
Ġcab ell
Ġpresenta va
Ġmediter rani
Ġmonu ments
Ġmagist rat
Ġsur ti
oc ul
Ġav or
en ginyeria
Ġferrocar ril
ĠPor tal
Ġaux iliar
ig h
si qui
Ġpreci sa
Ġfin alitza
Ġde via
ĠG Ã¨n
Ġrup tura
Ġvol ar
Ġdra mat
Ġassist encial
Ġtur Ã³
Ġ Î
Ġexpl otacions
ĠÃºn iques
j am
u ment
Ġp ra
Ġdedic ades
Ġprote gida
Ġmar ÃŃtim
ĠPe ter
Ġinteg ritat
h im
Ġsem inari
ĠLliber tat
Ġl ot
Ġlli gada
Ġrep Ãłs
Ġcom etre
al ies
id ad
ĠC reus
inter net
Ġatemp tats
Ġedit orials
ĠGran ada
ĠEs tan
Ġinf o
rid s
En titats
Ġgir ar
ci cl
Ġres ident
Ġ6 7
sion istes
ac or
Ġabs Ã¨ncia
ĠT eix
Ġp ale
ĠF ront
Ġapun ten
erra des
Ġutilitz ades
Ġdescon eix
Ġal tament
J a
ĠP N
Ã² riques
IC S
ĠMont cada
Ġver ds
Ġpresent em
Ġf ina
Ġam able
Ġpa gat
Ġpon Ã¨ncia
Ġman us
el ement
equip s
gent ÃŃ
Ġpre ve
ĠsÃŃn tesi
ĠIr landa
Ġactu alitzaciÃ³
li Ãł
ex tensiÃ³
Ġpa tin
Ġcar t
li quin
ĠUd L
Ġvi al
Ġec les
ta g
ta rem
T ot
g adors
Ġc Ã¨
Ġocup en
Ġapos tar
Ġassum eix
ens ar
Ġitiner ari
Ġquali ficar
Ġbot Ã³
Ġcos m
ĠB and
ari es
Ġderi var
Ġt Ã²x
li quem
si es
ĠCont empor
il ats
Ġaten ent
escol ars
O bra
ul li
ĠcomenÃ§ aran
Ã²ces i
us es
ab ora
Ġidenti ficat
Ġajudar eu
Ġcad Ãł
ĠS tar
-- --
ĠCor ona
Ġjap onÃ¨s
e k
amena Ã§a
Ġredac tar
ĠG Ã¼
Ġar re
ĠVilad ec
olÃ²g icament
Ġrus sa
Ġ19 50
Ġprodu eixi
espÃ¨ cies
int el
ĠMe mbre
ĠGav Ãł
Ġequ ilibri
Ġins pecciÃ³
Ġcompens ar
Ġdestac ada
ĠcÃ² pies
ĠP O
tra ciÃ³
ci ta
P la
Ġdivers a
ĠÃ Ī
199 7
r Ã²s
quebisb e
Ar quitec
Ġlli urat
Ġaspir ants
Ġre iter
Ġex amin
Ġsost Ã©
Ġestruc turals
es tic
Ġblan ques
y right
ĠS ad
Ġar res
ĠProf essor
Ġrec ti
ĠW indows
Ġober tures
Ġprote Ã¯nes
or o
ĠMunicip is
ĠT ER
ma z
Ġfelici tar
Ġcelebra cions
ĠVe Ã¯ns
ĠB an
ĠU S
Ġtranspar ent
en questa
Ġsimp les
il lament
Ġcat Ã²lica
od o
Ġfil os
Ġcre mar
ĠEspor tiva
acus aciÃ³
ĠEn rique
ĠPlat ja
c n
Ġ196 8
Ġpronunci ar
qu eria
Ġla va
Ġexpl orar
oni al
Ġenf ons
l ari
Ġbel ga
asset jament
pro f
ĠcÃ²mp ut
ĠRich ard
ol at
Ġsocio econÃ²m
Ġan tel
Ġ197 4
Ġ193 1
ĠCons ervatori
ĠConf ederaciÃ³
ĠHern Ã¡ndez
ĠMun tanya
Ġpas tÃŃs
Ġinaugu rat
Ġesc alf
ĠAl cal
Ġresid Ã¨ncies
ĠCoopera tiva
ar ticles
Ġa ter
ad is
Ġsals a
Ġco va
ĠB CN
ĠSec tor
Ġve urÃł
m ed
el li
Ġinno vador
Ġsensi ble
Ġremod elaciÃ³
om ot
ĠDemocrÃł tica
Ġpand Ã¨mia
p ur
Ġcons orci
Ġseleccion ats
Ġbaix at
Ġro dal
i tinerari
ĠGal ÃŃcia
qu ers
tra s
Ġges tor
ĠFre der
Ġven c
Ġimm ensa
Ġdispu tat
ĠCul turals
Ġrepro du
and er
Ġdon in
Ã²r dia
Ġmin i
al ia
ĠA ustrÃłlia
u k
Ġajud arÃł
ub i
Ġde ro
Ġconfir men
Ġsen tia
ĠCAT AL
Ġcami ons
ons ella
Ġnarra ciÃ³
Ġllui tant
Ãº b
H onor
Ġfant Ãłstica
Ġabs ur
Ġflex ibilitat
Ġ Ð
incorpor ar
Ġ3 50
si onar
rec ciÃ³
Ġsob te
Ġcomprom etre
Ġpar teix
ĠC ri
Ġbi om
O PA
rob a
9 1
Ġcons istent
Ġpi anista
Ġmat ernitat
Ġgust os
ĠOc upaciÃ³
ĠBa talla
ita da
Ġop tat
ver es
Ġc orn
Ġsatisf et
Ġclar edat
ĠSergi o
ĠlÃ²g ic
ĠT rin
ĠDen om
Ġfonamental ment
te x
minist rar
Ġfil es
Ġfib ra
Ġprofession alitat
Ġpac tat
Ġexc Ã©s
Ġdeb Ã²
Ġpatr ons
Ġimpression ant
ĠThom as
en viament
AM ENT
ba ma
ho ol
Ġan dal
Ġcin ta
Ġdel in
alar ma
Ġde grad
Ġdot zena
Ġtele vis
ĠAs segu
Ġdiscu tir
ĠB ig
ĠTen en
Ġal ine
Ġantec edents
Ġcr isis
Ġtaul er
Ġ6 1
Ġp ou
Ġllei da
ĠSÃŃ lvia
Ġdip Ã²sits
ti ci
em o
ĠC AS
Ġexc los
ti quen
ĠfÃ³rm ules
Ġindemn itzaciÃ³
Ġquir Ãºr
Ġcob ertes
ĠMa x
Ġcer eb
ĠEl ls
enÃ§ Ãł
Ġdu el
Ġcrim inal
el eg
Ġtrac ten
ĠH as
Ġexter ns
Ġsupos adament
f am
v ÃŃn
g ics
od ia
Ġdes de
Ġitali ans
Ġacostu ma
Ġcu idar
pid esa
Ġac onsell
Ġpass es
Ġdem and
Ġpa ella
ir al
Ġdiscre p
Ġrecord ant
Ġd Ã©u
olÃŃ tic
ĠProvin cial
Ġnete jar
c lo
ĠC un
Ġfinal istes
ca u
ta gram
Ġimm un
men tari
Ġprom esa
ĠCru z
ĠLit eratura
Ġ19 30
Ġen dar
Un iÃ³
Ġama ga
Ġper f
enf e
Ġcar den
Ġapro vats
Ġv os
Ġemp rendre
Ġagres sions
Ġp Ãłr
Ġqued ant
Ġperme tia
ĠPod en
Ġcant onada
Ġcon ca
ĠContin u
pi ta
Ġge ografia
Ġsec torial
la ga
Ġfar ina
s o
Ġindic aciÃ³
anim al
Ġinclo urÃł
ĠLl una
Ġdicta men
ĠO NG
ĠCÃł ritas
co i
Ġpon ts
ĠWillia m
Ġg r
Ġdu ent
Es tiu
ĠB et
d oc
Ġexig Ã¨ncies
ĠDep or
I gual
Ġd otacions
ĠIn teg
Ġgrec s
Ġt ÃŃ
am ics
Ġadscri t
en em
Ġcicl istes
her Ã¨ncia
Ġsaluda bles
Ġs ul
ĠP ub
Ġe va
Ġinvestig adora
ĠCirc uit
du a
Ġpertin ents
Ġbru tal
v arÃł
ad res
Ġo est
ĠEs trat
Ġinter romp
ÃŃ ac
Ġprecari etat
Emp res
Ġpermet ran
Ġali ats
Ġdavant er
ĠVerda guer
Ġgaud it
Ġbi odiversitat
ĠSec und
Ġdob les
Ġc edit
Ġacc ent
Ġpart ÃŃcules
Ġvo re
Ġcomplement Ãłria
Ġviv Ã¨ncies
Ġcompany es
ĠD alÃŃ
cid entals
autop ista
exp ediciÃ³
ĠN et
Ġposi tives
Ġpag Ã¨s
orden ades
Ġestal viar
Ġcompati ble
Ġcomp anya
ĠAl c
Ġmil er
Ġex Ãłmens
Ġab as
Ġlle vant
Ġsetman als
Ġpass Ãł
Ġfol re
ĠprÃ©stec s
Ġdi vi
in fec
Ġsent Ã¨ncies
Ġ14 0
Ġdemost raciÃ³
ro don
Ġpl ur
Ġmoder ns
ĠF ill
Ġpromo cions
v ille
ta ria
h ort
Ġnega tius
qui da
Ġ194 5
hi p
cion ades
ĠBes Ã²s
ti en
ĠH isenda
Ġbut xaca
Ġfabric ants
ĠSecre tÃłria
Ġcol on
Ġconsidera va
ĠSindic at
AM B
ĠÃĢ lex
ĠHom e
Ġcomp osta
z er
Ġaut oma
Ġball s
Ġjug adores
d era
Ġexerc eix
s oci
ex hib
Ġvaria cions
Ġa fer
Ġpau tes
Ġbanc Ãłria
Ġ197 3
Ãłt ria
Ġcommem orar
Ġsubven ciona
Ġcess ament
. '
Ġ19 20
Ġpol l
ĠMont blanc
er em
ĠHist Ã²ric
ĠCor respon
Ġflu x
M P
ã ģ
Ġde talla
Ġcal ef
Ġgra vat
Ġpresump tes
ĠP eti
Ġf Ãłrmac
m edia
Ġtra Ã¯
Ġsol ars
ĠS ort
ĠCor re
Ġpos tura
Ġdistrib uÃ¯
Ġrepublic ana
ab ona
ĠMa j
Ġdesitj a
Ġes b
ĠC P
ad jun
histori ador
Ġdeleg acions
ĠgrÃłfic s
Ġconsell eria
Ġantel aciÃ³
b aix
ĠD ill
Ġper if
Ġdomin ant
ĠautÃ²n om
Ġretall ada
Ġproteg its
actu alitzaciÃ³
ĠN ivell
Ġrecap tar
interess at
Ġext ens
Ġcomen cem
Ġallar gar
Ġmat x
le gat
ĠEul Ãłlia
Ġfun dat
asc o
segu retat
au g
Â °
inc lo
Ġdismin u
ĠNorm alitzaciÃ³
Ġllum in
ĠGener als
Ġqualitat s
an iversari
ĠS I
autob Ãºs
Ġsupos o
ĠM anten
ĠEs cri
at emp
ĠFor mentera
Ġp ica
ĠLe on
V D
ĠV ols
Ġson or
Ġsoci alment
ĠautonÃ²m iques
ros oft
Ãłn d
Ġincre Ã¯ble
Ġtreballa va
que ig
t ent
elec tricitat
ĠCompany ia
Ġcor rup
ĠPe tit
Ġcorpor al
Ġcomb inar
Ġan Ãłlisis
ĠCom a
ĠG ri
Ġinteg ren
Ġsalv atge
c ules
Ġjuvenil s
ĠllanÃ§ at
Ġarren car
h is
Ġva por
Ġec olÃ²gics
Ġpass ats
Ġadqui reix
ĠNob el
ĠfÃł cils
en giny
Ġfutbol ista
Ġcog ni
Ġreit erat
Ġno ble
du car
it eu
ĠOr tega
Ġsigni ficar
9 4
ĠD eci
bil itzar
Ġsubstitu Ã¯t
voc ada
m any
Ġt Ã²p
un ciÃ³
ĠCal ella
ĠM onestir
Ġimp ac
ran d
ĠA ju
Ġperill Ã³s
Ġra cional
Ġprof it
ad met
Ġem ig
Ġc eba
ĠS ra
Ġmo ts
Ġrid ÃŃc
Ġcamp anes
T ER
ĠN ingÃº
Ġexha us
Ġinf la
ĠF eli
ĠautomÃł tica
ĠI X
Ġvulnera bilitat
or able
Ġvaria ciÃ³
pro jecte
inten tar
omb raries
ina va
Ġat letes
ĠF Ã¨lix
Ġconc eb
b en
ĠCuix art
Ġprohib eix
ĠT ro
Ġdivid it
m ons
! .
Ġcre en
Ġsignat ures
Ġd retes
Ġcoher ent
mig raciÃ³
Ġmili tant
Ġap la
ĠTrÃł nsit
Ġplani ficar
Ġcos tats
ĠR ull
Ġapor tat
p rim
ĠMet ropolitana
ident ment
ÃŃc ola
l let
Ġpro venen
Ġcre ia
Ġimpor ts
rÃŃ tica
Ġapos tat
Ġpost res
Ġtanc ades
Ġfeix isme
Ġimm er
Ã¨ri t
r ol
ĠLle g
Ġassoci ada
? ",
Ġentren aments
ĠA la
Ġsemif inals
Ġver des
Ġinvas iÃ³
Ġl Ãł
In novaciÃ³
ĠE li
ĠprÃ¨ vies
p lau
Ġv ota
Ġdisc os
ĠUN ESCO
labora cions
ĠTrac tat
g all
ĠOr den
ĠRo y
ma jor
Ġret roc
Ġexha ure
ed ora
Ġpen jat
ĠN asc
Ġatribu eix
ĠSub s
oli va
Ġbenefici ar
Ġen du
ĠSi mp
Ġcirc uits
Ġbesti ar
ĠquÃŃm ics
c omp
Ġdispos em
ĠQuÃŃm ica
ĠDist ricte
Ġte ories
Ġaux iliars
om e
Ġun it
Ġh ones
Ġbla va
Ġrob ar
Ġcad ires
ĠA ires
op tim
ĠSegu int
ĠMarc h
or ament
Ġdefec te
Ġmod e
Ġexter nes
ĠdemocrÃł tics
ow n
Ġdeu en
Ġexperimen tal
ba o
Ġameric ana
ti Ã³
w eb
Ġavi ons
Ġdom inar
Ġ11 0
ĠQu ir
Ġxin esa
adap tar
ĠR enfe
Ġesta des
Ġcap es
itu ds
Ġtras pÃłs
Ã¨s tia
og overn
ĠP C
ĠCastell ar
ĠagrÃł ria
ar res
Ġsegur s
ca ments
tr Ã³
Ġespera va
Ġpres ta
ĠC L
Ġra Ã§a
Ġpen siÃ³
Ġinstitu t
o C
ci nes
Ġvisi bles
ric tes
Ġset ge
Ġlleg eix
Ġra Ã¯m
no va
Ġingress ar
ĠMod el
ĠMo viment
8 3
Ġitiner aris
Ġmes a
Ġen lles
Ġcom Ã¨s
Ġfra gment
Ġib n
S ab
ĠDis posar
H C
Ġliter aris
enti a
Ġapar tar
Ġcontribu eix
Ġsot er
ĠBla ck
ra u
organitz a
est Ã©n
Ġam istat
ĠAdministra tiva
Ġpresen tant
ĠDenom inaciÃ³
com un
ej ada
Ġ( +
Ġpatrimoni al
ĠG ib
Ġapar entment
especi al
ĠB elles
om ar
Ġinnov adores
ĠD an
Ġnoti ficat
vi al
Ġcaus at
ent ÃŃ
gra ma
Ġmu tu
ĠR as
ĠÂ ¡
ĠC B
Ġespa cial
Ġca ble
Ġdin astia
ĠMich el
Ġ12 5
Ġimprescindi bles
ĠF uster
Ġreperc ussiÃ³
R IA
itz Ã³
ĠRoss ellÃ³
im atge
oc es
Ġn Ã²m
ĠterÃł pia
Ġcator ze
e ina
ab ord
Ġpres idi
x iv
ĠF Ãł
ud ir
Ġenca min
Ġre ta
tori als
hom es
Ġesquer re
Ġesti guÃ©s
na m
ĠCerc le
ass at
Ġcr uÃ¯
umen at
Ġag roal
ga m
ĠAn dalusia
ĠestÃłndard s
t ols
Ġes ment
Ġme tall
ja ja
Ġmost rant
Ġ11 6
Ġbomb a
ĠCa vall
Ġtras torn
Ġdisc ul
tany es
Ġext ensa
ĠCas tro
ÃĪ NC
Ġmet Ãł
Ġfal ten
ĠprÃłc tics
Ġacab ant
Ġimpossi bilitat
p ed
8 6
Ġfic ar
at mosfera
Ġh isp
Ã¯ en
an istes
Ġsig ne
Ġp all
Ġrespec tant
Ġcompleix i
Ġso fer
ĠB ach
Ã¨n ior
ĠquilÃ² metre
inclou en
Ġpromot ors
ĠMod ern
ĠN ati
ĠL GT
Ġcoincid eixen
ec te
ĠG remi
li e
Ġcombusti ble
Ġref res
Ġhoritzon tal
Ġ7 6
ti o
Ġins trucciÃ³
k in
Ġprac tica
Ġse tena
Ġexc lusiu
199 4
ti z
Ġmol Ã¨sties
Ġide als
Ġvol d
Ġesc oc
Ġatura des
An glaterra
Ġrepresen tats
Ġins istir
Ġ13 0
Ġ197 2
Ġint enten
ĠAra gÃ³
ĠÃł cid
Ġperfec ciÃ³
Ġref re
Ġaut onom
n ies
Ġprohib ir
Ġincre mentat
ĠRipoll Ã¨s
on ze
Ġcos tes
Ġestrang eres
z quez
.. ...
ĠUn i
ĠIn tro
int ent
es te
Ġtruc ades
Ġpsic ologia
a Ã¯
c ent
avi Ã³
ĠR ot
Ġcre us
Ãłl bum
Ġdeix eu
Ġgra pat
Ġar ma
ĠM Ãºrcia
arr y
ÃĴ mnium
Ġmeri di
f ab
Ġlle us
Ġre vi
am i
ÃŃa ca
Ġprodu int
ĠhÃłbil s
Ġestruc tural
Ġcontr ola
assum ir
acc el
ĠE u
al erta
Ġcre di
Ġven Ã§
Is rael
Ġtele f
Ġarquitect Ã²nic
Ġp ist
ĠDill uns
Ġmural la
ĠlingÃ¼ ÃŃstics
par t
Ġconc urrÃ¨ncia
Ġmus ul
Ġespeci alitat
Ġderi vat
Ġp ins
l ador
Ġn eb
Ãłr qu
Ġcalc ular
ĠMitj Ãł
Ġhom og
Ġm ite
Ġdeu tes
ĠRegi onal
fer Ã¨ncies
ĠPsic ologia
Ġg a
Ġsup eraciÃ³
Ġpu jant
Ġperju dicis
M on
eti queta
Ġpa guen
ĠC Ãłn
Ġfar Ã©
Ġn in
Ġra dia
ĠescÃ¨n iques
Aix Ã²
Ġmil it
Ã± as
Ġsobiran istes
ĠMo vistar
Ġestre ta
Ġjug arÃł
ĠConc ert
Ġparticip in
Ġexperimen tat
Ġre us
ass ada
al Ã§a
Ġcompos icions
Ġsorg eix
j arÃł
Ġx er
M a
Ġcla ve
ĠPressup ostos
Ġbrom a
Ġsup rimir
Ġdisp ers
Ġprogressiva ment
Ġsub mar
omet ria
Ġtraves sar
tÃŃ m
Ġcam iÃ³
ine da
Ġtecn olÃ²giques
Ġelabor ats
ĠR Ã¨gim
ĠCalaf ell
de vila
ĠCre aciÃ³
Ġconci liaciÃ³
ĠcÃºp ula
Ġinquietud s
8 7
Ġbar ranc
Ġ10 1
ĠveÃ¯ nat
ON G
ĠInterna tional
] [
ĠS uc
ac er
Ġcal Ã§
M an
Ġinter ro
Ġparticipar Ãł
Ġex trac
ĠPic asso
vel liment
inc endis
Ġcab ells
er re
Ġmillor at
Ġrebu des
Ġavis at
Oc tubre
ĠCar naval
EC T
ĠEr nest
Ġallot jament
Ġind is
Ġindic ant
Ġcon g
ã ĥ
tes is
Ġro ton
Ġregi onals
Ġdesg rÃłcia
ob lida
Ġpertany ent
lÃłn tic
ul tar
on istes
Ġdesesti mat
ĠBaix os
ar re
on em
imp eri
Ġmed alles
C as
os ca
Ġenreg istra
Ġperd Ã³
Ġf reg
qu illa
ĠsÃ² lida
Ġpass em
Ġdesaf ia
Ġre eix
Ġdes pres
ĠEsper o
no ti
Ġtur ÃŃstiques
Ġbit llets
ĠResid us
Ġgra vaciÃ³
Ġmad ures
ĠChamp ions
Ġpen als
ĠDef in
Ġfac ulta
inter romp
Ġconsum ir
Ġdesc Ãłrrega
cis ta
orig inal
Ġexpl osiÃ³
Ġbar rera
Ġescol tat
M E
Ġtelec omunicacions
F A
ĠlingÃ¼ ÃŃstiques
Ġcic lista
Ġab usos
Ġm ull
Ġafir men
ET A
Ġarquitec tura
pi ques
ĠCas ado
Ġcar d
Ġdo tat
V all
Ġtermin al
Ġprojec tar
ad at
r Ã²p
Ġcap tura
ĠIns tal
8 2
direc ciÃ³
Ġtransc orregut
Ġent rarÃł
Ġnor anta
ĠT ib
edi ment
' :
Ġexcep cionals
Ġ196 9
Ġsingular s
Ġin necess
Ġin du
ĠP is
ra m
Ġval idesa
Ġtitu lada
us alem
Ġguard ons
A ro
Ġplant egen
Ġex ag
ĠE C
Ġcomb inat
Ġind ÃŃg
Ġen vas
Ġalliber ar
eg i
Ġras tre
instru ment
Ġob se
Ġjo vent
anes a
c eb
Ġinterna cionalitzaciÃ³
Ġsot mesos
Ġaut op
omun itat
in forma
ĠEl ena
Ġull eres
acc ent
ren e
Ġves tu
Ġco ordenades
l on
T O
Ġcamin ada
ĠCa pa
veu re
Ġmillor ant
ĠTrib utÃłria
em an
Ġdiss oluciÃ³
Ġimpos iciÃ³
Ġprogram ades
Ġemp rar
Ġportugu Ã¨s
ĠmÃ¨ dics
Ġacc ed
Ġvin yes
ĠNor uega
ĠPen al
E ixample
Ġdibuix ar
Ġan Ãł
Ġnorma tives
Ġmen ciÃ³
Ġfot ogrÃłfic
Ġbi ografia
t Ã²nic
Al c
a er
Ġnad Ã³
Ġ193 7
Ġex istir
Ġx ut
Ġsupos arÃł
Ġos cil
f ora
Ġvac ants
am Ã¨rica
ĠÃłrab s
j Ãł
ĠV eu
Ġ0 9
ĠSo vi
Ġv it
Al z
Ġdesitj os
Ġcompor taments
Ġpro vat
Ġci tar
C o
enci aciÃ³
aix ement
Ġllen Ã§ar
A ula
il d
Ġrom Ãłnica
rer o
Ġor questra
ĠVic tÃ²ria
Ġanomen ades
ĠBe at
amb aix
Ġnaz is
ic Ã²p
enc anta
ac osta
ĠVen Ã¨cia
h on
Ġtrob i
Ġrepro duir
ĠT ir
s Ãł
Ġconc ession
Ġp sÃŃ
emmagatzem atge
Ġoper adors
Ġlici taciÃ³
ell ar
Ġpar ado
Ġsem i
Ġpantal les
infra estructures
Ġnorm als
Ġconsider in
Ġraona ble
t witter
Ġgai res
dem ocrÃł
o pos
ĠSol Ã©
inform ar
Ġla b
Ġenvol tat
Ġsorpres es
ril la
Y A
Ġcap it
ĠA ran
ran is
Ġec olog
al o
men gol
d Ã³
ĠB eren
itu al
198 9
ĠH u
Ġprodu Ã¯da
ĠDina marca
Ġcos tar
escol tar
Ġpressupost Ãłries
Ġbas ades
di cional
Ġsor tia
ĠS af
ĠsÃ² ls
ĠPav ellÃ³
ĠÃłnim a
ĠGlob al
Ġpa tates
Ġimplic ar
Ġconf usiÃ³
abs tenciÃ³
esc la
anunci s
Ġcontrib uÃ¯t
IS T
ĠC all
Ġamb ul
Ġcomodi tat
Ġll og
isc op
Ġreserv ar
Ġtele visi
Ġmanc ances
y ar
Ġminim itzar
ĠAf eg
hab i
Ġ7 1
Ġacab ats
Ġadre Ã§ar
g ran
Ġent rant
especi alitat
os tal
Ġcre ences
Ġdic cionari
Ġmir all
Ġassign atura
Ġmar ro
f o
Ġcar tera
Ġinten cions
Ġanti guitat
ci di
Ġenc an
ot t
Ġman res
amp li
ĠVen eÃ§
Ġinnov adora
Ġpres sions
tari en
ĠFed eral
Ġll anÃ§a
Ġamb aix
Ġtal ls
ĠA ri
198 5
ĠEx posiciÃ³
ĠCar bon
Ġescri tes
Ġcredi bilitat
en ll
afeg eix
se x
ĠES O
ro id
ĠM oss
Ġav anÃ§ant
Ġcalef acciÃ³
Ġperson alitzat
ĠRe ina
Ġapren ent
Ġdem oc
ĠDom ingo
ĠP es
ĠMo z
Ġfan g
ĠMic rosoft
Ġimmob les
Ġcomand ant
si gn
Ġp ulm
ĠB ag
Ġtal lat
Ġhab ili
Ġ196 7
. ),
ĠrÃł bia
ĠÃłmplia ment
ĠpedagÃ²g ica
Ġecles i
Ġconserv ador
AR I
ĠQ U
lig ents
ĠcÃł mp
ÃĢ sia
ĠTi pus
Ġtrag Ã¨dia
Ġbas ats
ĠMus ical
Ġg ot
Ġde pressiÃ³
Ġmilit Ãłncia
Ġ6 9
Ġar cs
j ac
vent ura
Â ¡
Ãłg ina
Ġpr incesa
Ġhe ter
Ġgol f
ĠCiutad ania
era ble
ĠS ir
ĠEx ecutiu
Ġnorm alitzaciÃ³
erm an
Ġ7 7
ĠR ac
Ġrob ots
Ġacredi tar
Ġex istia
ĠB alles
Ġvisu alitzar
ĠVolun tariat
Ġ193 8
ĠDim ecres
ĠseqÃ¼ Ã¨ncia
clo a
ida ment
En ergia
ĠE fec
n ing
ĠC A
Ġexhaure ix
ĠBaix a
Ġmulti discipl
truc tor
Ġcu inar
n t
Ġpos eu
Ġtemp esta
Ġv on
Ġavis ar
ĠS um
ĠAn g
h en
Ġcal ent
ĠUniversi tats
ĠC han
Ġdist rictes
Ġrecon eixen
ici pi
Ġ8 4
Ġreg nat
ĠEdi cions
ibliot ec
ĠclÃłus ules
ĠA B
t ots
z u
si er
Ġdesc rit
Ind Ãºstria
v il
Ġaplic ada
Ġ0 1
Ġarquitec tes
ass eny
Ġ8 7
met ratges
Ġde fici
ad ona
la g
Ġcri des
Ġesmen es
amp lada
ĠEsta tal
Ġo ci
Ġord enat
ĠAdministra cions
ĠC liment
tin y
ano par
Ġre prendre
ĠJ imÃ©nez
Ġob ertura
eg al
ĠBil bao
ĠSer rat
ĠJer usalem
ĠA lacant
Ġconte x
Ġhipot ec
tan i
Ġpitj ors
ĠI si
gan ts
ĠVeneÃ§ uela
Ġal ien
Ġmot os
ĠEn ginyeria
Ġtrob in
Ġclaus tre
Ġp als
ĠEs cal
Ġapar cament
Ġdona ven
Ġxic ot
Ġclassi ficats
En ginyeria
R ES
ĠP il
ĠCoordin aciÃ³
ĠImp ort
enci alment
es ports
Ġ1 000
Ġcri atures
Ġsubrat lla
Ġa gafa
Ġinspir at
apor tar
Ġrom Ãłnic
ĠT ab
Ġimm ers
ĠPar la
Ġat mos
ĠtÃŃp ica
Igual tat
Ġdivid eix
Ġid Ã¨n
Ġconsider ades
g aran
Ġdup lic
A questa
Ġg in
Ġb er
Ġves tir
ĠÃ© rem
ransi ciÃ³
ĠAs semblea
ÃŃ o
Ġcontr Ãłria
Ġs anta
Ġsubscri t
Ġtr in
ĠTur ull
f et
u tat
t op
ori taris
Ġconver teixen
equip aments
Ġat urats
agra den
ĠSosten ible
P h
Ġacab ava
Ġven til
Ġtra duÃ¯t
ĠMon cloa
Ġbi o
Ġbarcelon ins
C S
T en
Ġdefin eixen
ri e
Ġna taciÃ³
ĠCor b
arrib a
Ġqued in
Ġdesign aciÃ³
ĠSc hool
Ġfor Ã§ar
Ġaut oc
ĠRo da
Ġfals a
Ġac tivar
Ġful ls
Ġfur gon
Ġpror ro
Ġocup ats
ĠB arcel
ab as
Ġp tes
Ġretir at
Ġs es
pl ec
esc ultura
ĠestÃł vem
ĠgratuÃ¯ tes
Ġconstitu Ã¯da
Ġnoti ficar
Ġrecolz ament
Ġtomb a
Ġta u
ĠJ ord
Ġdarrera ment
ab onar
Ġsent enciat
amp le
ofer eixen
Ġurg ents
Ãī S
Ġdispar ar
Ġ Ø
c ula
Ġam igues
Ġp edi
en viar
at ri
t le
di f
c Ã©s
8 1
rar ia
ĠViladec ans
O riol
Ġdoc tora
identi ficaciÃ³
e vid
Ġanterior itat
ĠCop yright
ĠA ur
g ents
Ġcomple xes
el o
ĠPro p
ĠB ord
Ġgaud int
Ġd ors
ĠSub scri
Ġag enda
ĠE dicte
ĠG andia
Ġp neu
ci ar
Ġgui ades
Ġ7 3
Ġdes astre
Ġr endes
In ventari
n ers
ri des
c ans
ĠCon dicions
Ġmem Ã²ries
Ġdi Ãłries
fic ants
Ġun ilateral
Ġllibrer ies
Ġpre inscripciÃ³
Ġat urat
Ġ193 4
Ġnorma tiu
ven a
Ġretal lar
Ġfam osos
Ġam fit
ama gar
Ġeleg ant
plic at
ĠVil ar
Ġincid ents
or ra
Ġevol ucion
ÃŃ lica
on ge
ter dam
Ġtrasll ada
ĠL im
Ġtitu lacions
ĠCom enÃ§a
Ġdi lig
Ġfilos Ã²
ĠE conomia
Ġincl Ãºs
reg lar
ĠlliÃ§ Ã³
Ġen gl
ĠJa zz
Ġca ta
ĠMar Ã§
Ġdic tar
ĠBor rell
ĠES T
A renys
ĠGarri gues
lici tats
Ġdifer encia
Ġsuggeri ments
I raq
ĠS tre
Ġpres ervaciÃ³
Ġa erop
escrip tora
Ġb is
Ġencom an
u li
Ġalimen taris
ci r
ĠPuig cer
Ġfort una
ĠC AR
Ġinc ertesa
Ġparticipa tiva
ĠRom ero
ĠR E
Ar ts
ĠCol ls
ĠSeg on
ĠNove mbre
g Ãł
ĠEstat ut
Ġdelim itaciÃ³
Ġfona ment
Ġtren cament
exper ts
man ent
Ġperson alitzada
Ġacum ula
ĠhipÃ² tesi
ĠComp tes
ot ja
Ġpos tal
ĠB arra
Ġpropos iciÃ³
ĠQu art
Ġintervin gut
. :
ar ri
Ġjusti ficada
Ġ( '
ec k
ĠMol ÃŃ
lle tÃŃ
ĠF avorits
ĠV III
ĠOrg Ãłnica
Ġpreten ia
ĠP rÃłc
Ġinterp retat
aprofi tar
ĠBuen os
ĠParti ci
ĠPro posta
Ġqued aran
Ġpesc adors
Ġcas ualitat
emp ara
ĠRoc k
Ġi ron
Ġemp ren
Ġres tarÃł
Ġrod atge
Ġ197 1
n orm
ol let
Ġpl enari
Ġeti que
Ġcomun i
ĠCon ten
Ġactu ant
Ġsin o
v ina
Ġdi mi
Ġconvid em
Ġcri t
Ġdeb utar
ĠMar ÃŃtim
ĠCan et
Ġges pa
ĠV ar
Ġdesp ro
Ġfot ogrÃłfica
Ġb eren
Ġsubsidi Ãłries
Ġvalenci anes
f l
ra cions
ĠE X
ac tiva
ĠpÃłr quing
o va
rim adas
Ġar xiu
ĠMin istres
Ġembl emÃłtics
Ġper di
Ġner vis
Ġdelin qÃ¼
arc h
em iss
fin anÃ§
estudi ar
em enta
Ġdiss enys
Ġselec cionat
ĠEs ports
Ġasse qui
Ġpla y
Ġcomp rat
Ġterror ista
Ġsecund ari
Ġcal enta
Ġpon ents
Ãł x
Ġestim ada
Qu Ã¨
Ġdespla Ã§at
ĠRe vista
ĠResta urant
ĠSel ecciÃ³
Ġasse mblees
ĠLle gir
Ġdecid eixen
Ġt rem
Ġautor itzar
Ġfeix ista
op Ã¨dia
assol ir
Ġbar ro
Ġdesenvolup ada
Ġmot oci
Ġdepend ents
ĠC inc
ĠJo han
Ġ8 2
Ġam an
Ġprepar ada
aix a
Ġesca mp
Ġob tÃ©
ĠP els
Ġgerm anes
apro var
Ġca fe
Ġdoc trina
obli gat
Ġreac cionar
Ġassump te
is tats
j andro
Ġatura da
assegu ranÃ§a
ell ada
ĠBalles ter
tu alitat
Ġimp eri
ĠNo ta
ĠF emen
ĠT ard
Ġcomiss aria
Ġmen uts
ĠperiÃ²dica ment
Ġbale ar
enc Ãłrrec
Ġdefens es
Ġna zi
AD N
ĠPal es
Ġreivindic at
g ma
in versions
ĠLec tura
Ãłs s
Ġpedag ogia
cion en
Ġsof t
Ġcompr Ã¨s
Ġt ort
om an
Ġrecom ano
Ġconfir maciÃ³
Ġrit mes
Ġob ten
ĠtomÃł quet
ĠK i
Ġset ze
Ġaconsegu eixen
y wood
ĠAl biol
Ġautor a
Ġter rible
Ġimplemen tar
ĠC ur
Ġc ites
Ġhistori adors
ĠMont g
ĠTrans port
Ġinscri t
ĠExc ur
ĠFreder ic
Ġpass aran
Ġ193 3
ĠMund o
dipu tat
pe ti
Ġdescar ta
ĠC hi
Ġporta ven
Ġsenc era
Ġrec er
Ġtorna va
Ġrevel a
Ġquad rat
Ġres istir
s is
Ġser iÃ³s
tic o
ĠI ber
Ġmor f
ĠMargari da
rim es
Un iversitat
jud ica
objec tes
Ġtari fa
Ġ7 4
Ġindi cis
Ġlleug era
Ġlla Ã§os
ĠMa h
Ġin Ãº
Ġfor ats
Ġmen tals
Ġprojec cions
Ġmig rat
ĠB osc
ins titu
ĠPublic at
Ġcompar a
Ġcob ra
Ġmer eixen
Ġactu alitzar
H e
ec os
es por
es tany
Ġan o
labor adores
Ġdesign at
Ġsup rim
Ġextra escolars
Ġadver teix
ĠEv identment
ĠMon te
Ġrecom anar
ĠLla gos
or Ã§a
ĠPer Ãº
Ġrepor tatges
Ġjo ies
Ġafeg im
Ġent er
Ġel emen
ĠD in
âĢ ²
id el
Ġcompro vaciÃ³
Ġab oc
ĠA mat
Ġges tors
esti m
l ing
Ġmin eral
ĠPR ESS
Ġrec ur
ĠCal a
Ġlog ÃŃstica
Ġtransc orre
ĠAn Ãłlisi
Ġreun irÃł
exper iÃ¨ncies
ĠestratÃ¨g ics
ja ven
ĠLl uc
p iga
Ġat ur
Ã± ola
r Ã¡
Ġh igiene
Ġcir urgia
Ġag reu
Ġinvers ors
Ġblog s
l Ãłmic
Ġcab al
ĠS istemes
ĠmÃłxim es
Ġsignifica tius
Ġsenz illament
ĠSecund Ãłria
Ã¨ tua
Ġflex ible
Ġobli dat
d ra
eb ron
Orden aciÃ³
ĠhistÃ²rica ment
Ġcons ten
en vi
ir re
Ġamp le
an ual
ĠDis pos
Ġves tÃŃ
ir ats
Ġmer da
eri Ãł
Ġescri vint
E ivissa
re gaciÃ³
Ġseri osament
Ġconcentra cions
Ġemerg ents
Ġfos ca
Ġmundi als
ĠEx p
Ġsegu its
Ġfi la
ĠH ip
Ġdiagn ostic
gen cat
ĠGreg ori
Ġte Ã²ric
Ġfal la
ad s
exc usa
itz ador
o rem
ĠOrganitz aciÃ³
ĠLle vant
ĠAn y
an na
Ġqual ita
ĠSanta mar
ĠTor ro
ĠArquitec tÃ²nic
Ġan eu
Ġester e
ĠmÃł gic
atura da
Ġcontrol at
Ġbloque ig
Ġaproxim aciÃ³
Ġjap onesa
Ġcompeti tiva
Ġg ats
Ġob vi
ad hesiÃ³
ĠG ol
Ġ196 2
av alu
Ġelabor aciÃ³
uster itat
Ġj er
ĠB lu
Ġestad ÃŃstica
Ġconstru int
Ġx en
ĠD ansa
Ġimplic ades
te xt
ĠP enya
Ġameric ans
Ġpost grau
d ul
d ell
ĠdidÃłc tica
ĠgratuÃ¯ ts
Ġfil ms
Ġenfor tir
Ġpar cials
Ġsab ates
ĠSan tan
ĠEsc Ã²cia
ag ent
ĠManc omunitat
r Ã¨m
Ġant rop
ul tes
Ġcas ament
T ube
Ġforma va
Ġcal en
nex iÃ³
Ġcog nom
Ġdefens ant
ĠBr un
Ġproduc tora
Ġadequ adament
i us
Ġhist oria
Ġacompany ament
Ġaug mentant
Ġmedi Ãłtica
se ts
ĠC V
ĠJu liol
? )
Ġenvi ant
cra Ã¯na
Ġpresid ir
ĠÃĢ sia
Ġret rans
ĠS all
Ġten sions
M Ã©s
Ġ Ã²b
ad Ã³
Ã¨ri ques
Ġcon gressos
Ã² metres
Ġan alÃŃ
Ġregu lat
ĠUd G
Ġb uro
Ġpassar ia
Ġhid rÃł
... ),
Ġmet ropolitÃł
Ġser em
Ġadver tir
ĠfÃłb riques
o par
ĠRedac ciÃ³
Ġre val
Ġre afir
Ġac la
Ġro ig
af rontar
Ġdi gna
ĠY o
Au tor
ĠHor ari
Ġdesp legar
ĠJ ug
Es tem
ĠTen ia
u ga
ĠcruÃ¯ lla
M ad
in as
Ġag Ã¨ncies
Ġre tr
Ġsupos ada
f an
Ġrepres a
Ġcinqu antena
Ġv ents
Ġimplan tar
Ġde voluciÃ³
Ġsor prÃ¨s
Ġexc usa
Ġtro f
Ġmodern ista
iÃ³ dico
Ġespeci alitzades
Ġfit xes
Ġra p
Ġ11 2
Ġprodu eixin
ĠTer min
ĠautonÃ²m ica
ĠV ig
Ġperdu da
us en
ĠOli va
ĠV iv
ĠÃ¨ tica
Ġe pid
Ġjo ia
Ġdiscapa citats
Ã¡ zquez
Ã ĩ
fÃŃ cie
Ġadi ents
Ġliter Ãłries
Ġpens ada
Ġdescans ar
n ess
Ġcar am
Ġsig na
ar ma
ĠB iblioteques
loc at
Ġangles os
Ġcr Ã²niques
olÃŃ tica
Ġconcent rat
Ġbarcelon ina
Ġexpos en
Ġterc eres
Ġmor ta
Ġacus a
ins trucciÃ³
ĠTen ir
tÃłn yer
ĠMon ta
si ls
Ġconfigu rar
Ġcad u
elim inar
interpre taciÃ³
ĠInc lou
Ġtrob ant
Ġedi tar
Ġestran ya
ĠPla y
gna cio
Ġsup ortar
f at
Ġbur gesia
Ġform igÃ³
estre ta
duc tors
ac le
Ġra j
z an
ĠâĨ ĳ
ĠRa Ã¼l
at ro
Ġf usi
Ġgiron ins
Ġcer tament
rob i
Ġfot ografi
h ad
Ġguard onat
ĠSem inari
ĠMob ile
Ġcor respons
Ġarrib in
fi la
Ġm ides
d isc
Ġsig les
p ol
u ament
Ġpresen ti
Ġol or
Ġdetermin ant
ĠF ores
at ria
Ã £
atemp tat
Ġtrob arÃł
er ector
Ġcere als
Ġprotagon itzat
voca cia
Ġgu ar
Ã² via
ID A
Ġin tim
Ġfabric ant
ĠTS JC
rid ge
Ã¯ s
ĠPor ts
Ġigual ad
ug o
ĠLlagos tera
Ġdic tador
ĠIn terior
Ġsab ent
Ġinsu ficient
Ġtra mesa
assegu rar
ĠPasqu al
I EC
Ġprom et
Ġsorg it
ĠPasqu a
E di
Ġcanvi en
Ġof en
Ġres tants
vangel i
Ġtas tar
ĠcÃŃv ic
ĠB erg
Ġocup ada
Ġcorrespon dÃ¨ncia
Ġcrim s
ĠV ent
ul les
Ġemp at
seg ons
ĠCor om
Ġr on
Ġna tal
ĠPen seu
trÃ²n ica
ĠM y
ĠI ma
end or
ĠYou Tube
Ġobserva cions
Ġr oses
Ġarquitec te
ĠS ic
Ġcul tius
A f
is es
Ġta b
Ġten nis
ĠmÃ¨ diques
Ġfund adors
Ġsucc essor
Ġa ran
Ġb eguda
Ġinstr umental
Ġfabri car
Ġconfi ar
emb arÃłs
Ġtoca va
ĠdÃ¨ ci
Ġpreju dicis
ĠB ill
Ġentre gar
Ġprovoc ant
Ġlegi tim
ĠS y
Ġusu Ãłries
ĠQu ar
Ġpin ta
Ġ193 2
vin gut
Ġcap taciÃ³
Ġlle u
Ġform alment
tu be
Ġoc cidentals
ĠC Ã²r
Ġpos in
ĠIn di
Ġc ellers
Ġex iliats
Ġinteress ar
Ġdur an
Ġper den
Ġp siqui
Ġven ien
Ã¡ rez
ĠÃĢ ustria
Ġcomen ci
ĠmÃł gica
Ġpresump tament
w an
acus at
ĠEmpres arial
Ġdos i
Ġconvic ciÃ³
Ġpass ap
Ġincapa Ã§
br inar
Ġindef ini
Ġno tari
mit h
Ġveg i
ĠPed ra
assump te
r ista
Ġpresidi da
Ġdis tan
Ġdu ia
is tint
Ġdi vor
ĠW est
er ina
ĠM ana
Ġsup eren
Ġre pos
ĠR us
ĠPuigcer dÃł
Ġcon re
ĠPob let
Ġre emp
ĠM Ã¡
Ġemp ortar
Ġexcur sions
Ġdon Ãł
roba blement
Ġac tives
ev als
Ġv otacions
au x
f arra
ĠClÃŃn ic
ĠL og
ĠF eu
Ġdesc entr
ĠA V
Ġpropi etÃłria
Ġres ten
Ġca Ã§
ĠcÃ¨ le
qu isme
Ġinten si
ĠP era
Ġin timitat
Ãł tiva
Ġsucc essiÃ³
ĠT ransiciÃ³
Ġparad igma
ĠV et
og s
Ġco vid
Ġdes via
ĠD VD
Ġmo tiva
Ġapro p
u z
Ġacomi adar
Ġb ola
ĠFam ÃŃlies
ĠLu xe
Ġatrac tius
ĠDim arts
emprened oria
g essa
Ġinf racciÃ³
ĠsÃ² lid
Ġten dres
Ġag lu
ĠI ES
Ġadjudic at
Ġavi Ã³
Ġobserv at
Ġpro visiÃ³
Ġmon op
Ġaix Ã³
Ġendar rer
Ãºr gia
ĠFin al
Ġreno vat
Ġpa timent
Ġdiv uit
Ġlegi timitat
Ġinf raccions
Ġterror istes
Ġtren c
ĠBÃłs quet
Ġha guÃ©
OR M
Ġ ?
g le
ĠAr gentina
s empre
lo w
Ġapor tant
Ġrecol zar
Ġcompeti tiu
on ya
Ġrespon en
Ġescoll its
Ġcal aix
Ġmol Ã¨c
ĠH isp
Ġfor Ã§
Ġass istent
Ġr ar
Ġprom eses
Ġoportun es
Ġevi tant
ici tat
Ġrepar tits
ex cepciÃ³
Ġp enya
Ġaf ortun
Ġmar atÃ³
Ġpol ic
ĠOs car
labor en
em ociÃ³
ĠLa porta
ic ot
i ona
Ġra u
Ġfal lida
ĠRecord em
Ġencarreg ada
ĠUnivers al
Ġnom bres
Ġesmen tar
pre taciÃ³
Ġfer ida
Ġelec tes
Ġcre dit
I r
Ã¨ rics
ĠS Ã¡
Ġra pidesa
an or
Ġconnec ta
ER A
Ġterrat rÃ¨m
t om
Ð °
Ġmal auradament
Ġ196 4
obs erva
Ġcarden al
ĠI sa
d eix
ĠE p
Ġper tÃłnyer
ĠLe a
Ġcondemn ar
Ġfals es
Ġde tencions
Ġal b
ĠTra s
esc alf
ĠVa tic
B OE
Ġrealitz in
imp lan
ĠIb Ã¨rica
Ġb es
Ġcons egÃ¼
st Ãºries
Ġincorpor ant
Ġo x
Ġ196 6
Ġsimb Ã²lic
am ora
Ġprefer it
Ġadqui rits
Ġsos tingut
Ġamb ien
Ġinc lusi
ĠS es
Ġaixec at
Ġautob usos
ĠPer iÃ³dico
Ġun its
Ġc odis
ĠBut lletÃŃ
ĠB ab
ĠAr rimadas
Ġinvi taciÃ³
Ġ194 8
estr Ã¨s
ĠS eria
ac ho
Ġdirec cions
Ġpol ival
ĠSegu idament
S om
ĠPar itÃłria
ec o
IN G
Ġinter venen
C P
Ġper ll
Ġo di
E A
ti gi
ri ll
ĠK en
Ġro c
ĠdemocrÃł tiques
Ġreconegu des
ĠInstitu cionals
Ġcan tants
Ġsubs tÃłncia
Ġmol ÃŃ
Ġtoc ant
Ġampli at
ĠIn tel
Ġau diÃ¨ncia
Ġnorm alitzat
Ġvin gui
ĠSi gui
ĠCad asc
Ġextre ma
ĠV entura
ĠCas tel
Ġgas tar
ĠB ank
Ġconver siÃ³
giny ers
est el
ĠcÃ²n sol
ĠGÃ¼ ell
Ã² liques
ĠPar t
Ġadap tada
ĠB ul
ĠTecn ologies
si etat
ĠF ron
hor itzÃ³
u tes
Ġestr enat
Ġedit or
Ġmedi Ãłtic
Ã¨ re
Ġex ist
af iciÃ³
Ġexecu tivitat
ĠN ar
Ġtr istes
Ġan alitz
ĠEn ten
Ð ¾
Ġpa gues
ĠInter venciÃ³
Ġll its
Ġdetermina cions
A lex
Ġret ro
ĠB anda
Ġvul guis
ĠSan g
au tors
Ġinvesti ga
mÃł tiques
Ġbit llet
ĠCap ella
ĠBarcelon Ã¨s
ĠsÃł piga
H ebron
ĠCal drÃł
di ta
ĠAr xiu
Ġg ab
Ġso ts
EUR OPA
ĠCon Ã¨ixer
ĠEsp inosa
Ġestran ger
Ġc all
tic ul
ĠRod ri
Ġcaus ant
ĠAngel es
ĠS tan
ĠP lus
cab ulari
Ġpresen tin
ĠContac te
ĠCer tificat
Ġ196 5
Ġprocess Ã³
ar ques
ĠD uc
Ġsucce eix
apro ven
Ġvari ar
Ġquer ella
Ġenc orat
ĠMan acor
Ġcomp tava
Ġinter medi
Ġ9 6
ĠV erg
ine a
plu gues
Ġmodern itat
ĠF ri
Ġglob als
ĠagrÃł ries
Ġ16 0
Ġfl ora
ĠgastronÃ²m ica
Ġexper iment
ĠP ia
ur en
ĠCa pital
Ġintro duÃ¯t
Ġgran ja
Ġobstac les
Ġap lega
assign aciÃ³
Ġacompany ant
Ġobtin guda
ĠL et
Ġmar ina
ĠMÃł laga
Ġte ulada
Ġaix o
aconsegu eix
ĠC rida
Ġ8 1
Ġconf ondre
Ġprov oquen
Ġdestac ant
ĠB ir
Ġvia ble
Ġtorn aran
Ġmodern itzaciÃ³
vol ta
Ġmatis os
b as
ĠCÃł tedra
Ġgarant eixi
Ġprol on
Ġapreci ar
Ġb uc
Ġescol lida
Ãłn ies
Ġacum ulat
ĠsimultÃłnia ment
s eria
ĠSal am
Ġtempor alment
ĠRe agrupament
Ġb rin
Ġimmobili Ãłria
Ġaccep taciÃ³
ĠSovi Ã¨tica
Ġfeix istes
Ġy ou
uti ble
Ġrela ciona
ĠcomenÃ§ aments
Ġsol es
ĠCl ot
ĠPat ri
Ġbat lle
Ġfidel itat
lo ca
Ġjusti ficat
ĠImp uls
tad ores
ĠSan z
es bor
em et
Ġdefens ors
Ġagra den
Ġpre ca
Ġterra sses
Ġconven cionals
Ġmac ro
Ġprotagon itzada
Ġmis Ã¨ria
Ġmar ges
Ġ ost
enci alitat
ta ta
Ġes car
Ġobri rÃł
Ġres tant
ĠU OC
ĠIn iciativa
O l
ĠEl is
men a
ĠIn forma
Ġfranc eses
Ġrus sos
ĠGran d
ĠH au
Ġll Ãłg
Ġdeleg ada
acredi tar
nes tol
mad ura
ĠdifÃŃcil ment
ĠFil m
av ana
Ġens enyament
Ġsor prÃ¨n
Ġcob rament
hab ilitat
efectu ar
Ġdec ad
Ġpre ferÃ¨ncia
Ġgaud eixen
ĠP reu
exc Ã©s
ĠJus sÃł
ÃŃ d
Ġjut jar
exig Ã¨ncia
ĠNorm alment
ĠSolid Ãłria
Ġcristi Ãł
alem any
Ġ8 9
C an
Ġmal e
Ġ196 3
mp es
Ġviol aciÃ³
es morzar
Ġdi l
Av ui
Ġmor tal
Ġrepl ant
Ġllic enciat
Ġsegu ia
fe Ã³
Ġdeg Ãł
Ġ19 29
ĠM ons
Ġpag ant
ep is
Ġad ult
ĠCons trucciÃ³
Ã¯ ta
ĠJ oc
Ġimp osa
m ill
ĠP un
? ".
Ġco ix
Ġirregular itats
Ġrequeri da
Ġan al
Ġfed eracions
ri ana
ĠG ala
Ġsosten ibles
ĠcÃłl culs
ĠNati onal
Ġoc orre
Ġpop ul
nestol tes
ĠÃŃn tim
es pi
Ġmasc l
Ġactu arÃł
Ġsant uari
erra ment
Ġin jec
Es tadÃŃstica
Ġcontrol ada
ĠSol Ãł
ĠC ot
fi gu
Ġcon dueix
Ġll adres
Ġrecla mant
esdeveni ments
Ġconvi ure
Ġtoler Ãłncia
ass ocia
Ġfam ilia
h ara
Ġdu res
Ġk il
ĠCat eg
er ant
Ġp Ãłtria
Ãį S
Ġassass inats
ĠP ineda
Ġinevi table
ĠLabor al
con trac
Ġpopular itat
ut ela
l ular
Ġvol ant
Ġcarrer es
Ġg rip
Ġcontamin ants
ĠdÃ© us
Ġcontinu em
Ġimpar tir
Ġmadures a
Ġinfl uir
Ġsem inaris
Ġselec tiva
Ġacab em
Ġp Ã²s
k istan
ĠTim es
ĠQue da
Ġprefer Ã¨ncies
ĠProfessi onals
Ġarrib Ãł
ĠApro vaciÃ³
ĠVis ita
ur y
Ġlid era
ĠPro vÃŃn
Ġextrem adament
Ġcompro vat
Ġcirc ula
Ġexpos ats
ĠRad io
Ġeva cu
E du
Ġprivi legis
Ġtan ques
Ġurban ÃŃstics
tiny ent
Ġsob ren
Ġpost guerra
ĠAlg Ãº
Ġrecoll its
ĠvestÃŃ bul
co ver
Ġorden ances
AG A
Ġins pi
ĠsÃŃn drome
ĠS Ã©
Ġju eu
Ġpres tat
ĠMun icipi
ĠI rene
Ġ9 4
L e
Ġconsens u
Ã²x id
individ u
dici al
Ġ7 9
ĠZ ar
C amp
ell ades
vi ol
Ġimplic at
ĠÃĢ frica
Ġgovern ants
ĠJosep h
Ġnecessi tava
Ġmul tes
Ġmen tides
oli fer
Ġd roga
ĠD er
Ġtorn ant
Ġsepar ats
ĠRobert o
Ġ17 0
ĠCh risti
Ġb reus
ĠGu in
vocat Ã²ria
ĠLlar ena
oss at
Ġverte b
ver t
Ġconsta ta
Ġbisb es
l ics
Ġcim era
Ġur gÃ¨ncia
ĠUnivers ity
ĠBeren guer
ĠMem orial
Ġun itÃłria
Ġcre acions
Ġsecund aris
Ġvin drÃł
ĠX Ãłtiva
Ġfun cionals
Ġcan Ã³
Ġpertin enÃ§a
la p
ol ib
Ġ194 4
Ġalum nat
ĠTreball adors
Ġpar lo
Ġ19 18
ĠMas ia
Ġtrans ports
itz i
ĠCom ÃŃn
Ġrepresen tada
Ġextre ure
ĠvoluntÃłria ment
v inc
ĠCurs a
aplic arÃł
ĠD it
Ġlabor atoris
Ġassign at
g ado
Ġt x
Ġactiv istes
Ġent esa
ĠAlfons o
ĠCent er
Ġtram Ã¨s
Ġpob lat
Ġfil s
Ãłp ols
Ġprefer entment
j an
m il
Ġcondemn ats
ĠE ivissa
Ġcons ig
Ġcl andes
Ġindivid ualment
Ġdi versiÃ³
Ġteat res
Ġfi anÃ§a
ar tes
Ġseguir an
Ġpub liquen
Ġaf any
ass oli
Ġconc essions
ĠS ci
Ġsinc er
x en
Ġr ostre
ots er
Ġtele fonia
Ġen gres
Ġg Ã²tic
Ġcr uel
C IÃĵ
Ġcomp ostos
ag ressiÃ³
Ġdeix in
an ul
ill s
Ġdi ges
est Ã¨tica
Ġpantal ons
ot ges
ĠR y
di men
Ġel o
ĠQu ed
Ġres tar
Ġmobil itzar
Ġo posar
ĠE M
Ġfar mÃłcia
Ġnom es
ĠC G
Ġvestu ari
Ġsub ordin
Ġesta bilitat
Ġglob us
Ġconc edeix
Ġconsci enciar
I X
Ġgener ant
Ġcivil itzaciÃ³
Ġroton da
ĠI gnacio
ĠD ur
Ġcoordin at
Ġvari ants
Ġne vera
Ġcorpora tiva
Ġre met
ĠcÃ²m ics
Ġcol lita
Ġtel a
Ġdistin tiu
P od
Ġentren ament
Un iversitats
Ġveri fiquem
Ġaconsegu ÃŃ
Ġaler tat
ĠG an
ĠSant os
g Ã¨ncies
s ub
ĠM Ã©
Ġmat emÃłtica
ĠEs glÃ©sia
tiv o
An d
exp ulsiÃ³
Ġautor itzats
len ou
Ġob rers
ga i
Ġpot encials
tan o
Ġsegu eixi
Ġcr om
Ġ11 7
Ġgesti onat
Ġcomple tat
Ġtes is
Ġcop ro
heim er
Ġemp la
Ġsol em
Ġob rint
in ven
Ġtron c
ĠR onda
ĠMan if
Ġaug men
ies portiu
m l
et Ã¨ncia
Ġ3 60
Ġrebaix a
Ġcord es
Ġrespec ta
ĠclÃłus ula
Ġnaveg ar
I m
v asc
ĠAc tivitat
Ġdefini da
d eu
Ġtruc ada
al isme
ĠRom eva
Ġb ella
Ġtrob aran
acter is
ĠRecord eu
Ġ tat
Ġfanta sia
Es taciÃ³
Ġassegu rant
Ġmultim Ã¨dia
Ġpis cines
Ġc il
gu eres
Ġdetermin en
eb rer
ĠSegu ra
Ġca ma
ĠB orn
ĠSup oso
ĠO ficina
of Ã²bia
Ġadolesc ent
Em ergÃ¨ncies
Ġurg Ã¨ncies
or ant
nis tia
ĠEs truc
Ġj erar
ĠMes tres
Ġb ret
Ġhom olog
ĠP AR
Ġpor ti
Ġpr osa
ot ecn
g eria
Ġtrans itÃ²ria
199 3
ĠPS M
b ita
organitz en
ĠGai rebÃ©
ĠSob irÃł
Ġsosp ites
PS OE
on o
expos icions
Ġemp ar
Ġteat rals
Ġdeci siu
Ġtra duccions
Ġban queta
ost Ã¨
ĠPa eria
Ġpan or
Ġdesign ar
Ġemp itj
par aciÃ³
qu atre
Ġhom osex
ĠCarrer as
ĠCan Ãłries
Ġcinemat ogrÃłfica
Ġam ant
ĠMarc o
ĠConten ciosa
Ġprodu Ã¯ts
Ġfun er
ĠA dre
Alcal de
Ġenf ocament
ĠMat emÃłtiques
qu istes
Ġper n
Ġseu re
Ã²l it
Ġcorrespon guin
ĠXi quets
ĠMar k
Ġrevel ar
Ġ195 6
Ã²m ica
ant elaciÃ³
Ġresta ura
Ġl enta
Ġap od
Ġagu antar
Ġ9 8
Ãłn dez
Ġreb ent
Ġsoft ware
ĠEdit orial
Ġdifer enciar
en orm
Ġconfron taciÃ³
ĠO t
Ġapar egu
ĠO f
ĠvÃł lida
im o
Ġp ant
Ġcol pe
Ġxines os
ĠLla tina
ĠC any
Ġreg eneraciÃ³
ÃĪNC IA
ĠFer rocar
z en
j ador
Ã ¢
Ġc is
Ġconf luÃ¨ncia
ĠTol edo
y ons
Ġcaracter ÃŃstic
Ġmon umental
ĠN ostra
Ġpar at
Ġenfron taments
ĠGre en
Ġconserv at
ĠcontÃŃn uament
urn ÃŃ
Ġtranscend Ã¨ncia
Ġpl anes
Ã¨r sia
imm oble
ĠFeli pe
el es
Ġeng egar
Ġma quill
ot era
em ergÃ¨ncies
Ġassocia tiu
Ġman uals
ĠAr m
Ġresid uals
ĠA renys
Ġ9 7
Ġ17 14
Ġexpor tacions
ĠB ass
esc al
h r
z ona
Ġve i
ĠMont b
Ġb anys
Ġprobl emÃłtiques
Ġemp len
Ġprotagon itzar
Ãłu tic
on et
Ġmedi evals
il y
Ġpres ons
Ġcomun ista
Ġagra di
Ġb ag
Ġpon Ã¨ncies
Ġpsic olÃ²gic
ĠFo ix
ĠPod er
ĠP ad
Ġpa quets
ĠTo tal
Ġci visme
h tt
Ġtrans forma
199 6
Ġconsidera cions
Ġimp erial
des c
Ġprob abilitat
ĠPO UM
E quip
fic ador
Ã³n ica
Ġn os
Ġcerca vila
Ġhum itat
Ġs onar
Ġcompos itors
Ġcarb Ã³
Ġtit elles
habi tants
ĠMar xa
Ġprocla maciÃ³
Ġfeli Ã§os
Ġmat erna
Ġpu guis
Ġinterpreta cions
Ġpos aran
Ġinfant esa
ĠÃ²p tica
Ġreform ar
Ġper pe
ĠZ el
Ġhomen at
ai da
ĠPl ans
ĠIns tituciÃ³
Ġvi b
ĠO bama
ll en
Ġdestin acions
Ġpr olifer
Ġv era
Ġon ada
Ã¨r bia
Ġequival ents
ral ada
Ġpresid eix
ĠSobre tot
Ġ8 6
ĠSad urnÃŃ
fer es
Ġcons ecuciÃ³
c ha
Ġg om
Ġexig it
Ġorien tada
Ġpion er
eng any
ĠAc adÃ¨mia
Ġgl Ã²ria
Ġw ith
Ġcomplemen tar
f und
ĠPublic ar
e duca
rim a
Ġmoder nes
Ġpoll astre
Ġsatisf ets
Ġmediamb ientals
Ġca os
Ġterres tre
Ġcompta bilitat
ĠPales tina
elabor ar
l Ã©
Ġexcur siÃ³
ĠSols onÃ¨s
Ġvor eres
IN A
ĠMar ÃŃn
ĠFil ologia
tu re
Ġins tÃłncies
Ġpic t
Ġinteg rats
Ġal tern
Ġpreocup acions
Ġradic als
Ġvisi tis
Ġsocial isme
ĠEx teriors
Ġalter acions
in ars
Ġama gat
Ġla men
Ġf ans
Ġrebaix ar
ĠLuxe mburg
it Ã¨s
Ġver bal
Ġatrac tiva
Ġassum it
Ġa Ã¨ria
indi quen
ĠU b
Ġgaran tit
Ãłr dies
visi bles
tiv isme
Ġfor tament
Ġfes tivitat
ĠFin lÃłndia
inici arÃł
Ġprec edent
Ġrecoman aciÃ³
ĠDiu en
agrup aciÃ³
s at
ĠT OT
Ġmar quen
Ġ195 7
Ġvolun tÃłries
Ġimp actes
ĠfÃ²s sils
Ġrealitz i
al titud
Ġesp at
et nam
> <
Ġnervi Ã³s
Ġsimpa titz
unda cions
ac ol
enem ic
Ġta xi
legi at
Ġcapital ista
Ġcab uda
all era
mir all
Ġentren ar
er an
ac tius
ĠMar s
accep tar
Ġf essin
ĠDi pl
Ġestr is
Ġllin dar
Ġta pa
m ers
Ġartes ans
Ġcons olida
esc o
ĠÃĢ rea
Ġac onsella
as tres
ĠPar lem
ĠD ES
Ġviol ÃŃ
Ġhistori ador
Ġsemb lat
Ġfunda cions
ĠP aula
ĠLli bres
ĠfÃŃs icament
ĠfinanÃ§ at
Ġinnov adors
Ġdescend ents
Ã¨ iem
Ġper qu
k es
ĠR omÃł
Ġdeterior ament
ÃŃ tima
Ġcom es
Ġpos o
Ġtros sos
Ġramad eria
ci tar
Ġnost Ãłl
Ġagaf ant
Ġcoincid it
Ġabund ant
AL S
ĠJo h
Ã©n ia
ĠQu ins
ĠcÃłs tig
Ġresul ten
Ġconsider ant
Ġreserv at
Ġacus ar
ĠP ell
Ġin grÃ©s
Ġresta urar
Ġcrim in
ord e
ĠEsc oles
IN E
er ades
Ġco titz
ĠRes erva
Ġde ra
fic e
ĠSantan der
is tic
ĠPe dag
ĠVatic Ãł
ĠBi ologia
Ġtor tu
Ġbomb es
Ġdi Ã²cesi
dre ta
ĠSim Ã³
Ġmenys pre
Ġinscri tes
Ġfer en
ĠB assa
ĠBale ar
Ġvesp rada
Ġconfec ciÃ³
espera va
Ġenten en
Ġnasc uda
lo v
ĠPob lenou
Ġdescar tar
Ãłrbit re
or y
Ġnecess ites
op eracions
ĠconvenÃ§ uts
Ġprefer ent
ĠpsÃŃ qu
Ġ194 1
Ġmonar ca
Ġin interromp
ĠAra gonÃ¨s
Ġqueda ven
Ġmass ÃŃs
Ġdomin is
Ġcom iat
ĠNa taciÃ³
Ġnega tives
Ġdes prÃ¨n
Ġ ossos
Ġan tica
d as
tin i
em s
arc ar
Ġex tres
Ġmallor quÃŃ
h asta
Ġarque olÃ²gic
in it
Ġimpu gn
im s
s Ã³n
Ġpermet ria
ĠquÃŃm ic
par ta
ĠÃ²p era
Ġd rac
Ġreg ir
T a
Ġacostu mats
Ġemp rat
Ġvi ola
Ġanim at
Ġelabor ada
ĠCu ri
ĠSegu eix
Ġtrob es
ĠMitj ana
ĠNeg oci
l emen
a partament
ĠL en
Ġll Ãłstima
in eria
m ob
ĠPremi Ãł
Ġsenzill es
ej ant
Ġprogress ista
ĠCh ac
gi o
til lo
Ġmal vers
Ġdegrad aciÃ³
D D
Ġin e
Ãł frica
Ġbas ant
Empres es
Ġa eri
ĠN Ãłpols
Ġn Ã²r
Ġfos cor
Ġfemin isme
aband onament
Ġac ad
Ġparlar Ãł
ob lit
dal ena
iscop al
Ġma ma
Ġacostu men
Ġenri qu
Ġveu reu
Ġdenunci en
E E
A le
Ġpot es
ĠBi el
ĠGu er
re cia
ex tracciÃ³
ĠCom enc
Ġ195 9
" ...
Ġdibuix ant
Ġdese qu
or gull
Ġben edic
Ġmon edes
Ãºn ior
Ġcust Ã²dia
Ġp ad
lec tives
ric k
Ġmod erat
ĠT un
Ġenc anta
Ġliter alment
Ġgu arn
Ġdes mant
Ġdispu tarÃł
j Ã³n
Ġcoordin ada
Ġoc ci
ĠR eix
Ġpres cripcions
ex cep
ĠâĨ Ĵ
de a
Ġpres um
Ġcur tes
ĠintÃ¨rp rets
Ġimmer siÃ³
Ġvide oc
ĠU l
equi val
O ri
T arra
ĠHoll ywood
lex iÃ³
Ġedit ors
esc alada
Ġesde ven
ĠPens o
Ġpin tat
Ġtur c
pro piaciÃ³
il itzaciÃ³
ĠPrincip al
rÃł ria
Ġforma ven
ĠÃł pats
Ġa tesa
ĠG is
Ġmetod ologies
Ã£ o
ĠSha k
ĠH all
Ġbaix ant
ĠVal encia
Ġreci tal
Ġest Ã¨s
aut Ã¨n
te jar
hor abona
Ġdeix e
Ġcristi anisme
Escal a
Ġf ocs
ĠPa is
ĠSeg riÃł
Ġt ol
Ġvirtu ts
ĠgratuÃ¯ tament
Ġderro tes
Ġnota bles
Ġdefec tes
ĠP AS
fi quin
ĠJard ÃŃ
ĠO R
Ġsard anes
g iÃ³s
Ġdeci di
ĠW al
ĠCa min
ĠPr ÃŃncep
ĠS ex
Ġcre mat
Ġvor era
Ġcomprom esa
Ġs ospita
ĠK ing
eu tament
ab Ãºs
Ġass al
Mad rid
Ġdes acord
se mb
F P
Ã¨m ic
Ġp Ã¨
Ġespl Ã¨n
as es
i ro
G A
ingÃ¼ e
d ades
Ġra cisme
ix ar
ĠM Ãłr
ing er
ĠVil assar
Ġpancar ta
Ġdispos arÃł
ĠC IU
ĠPeriod istes
Ġactiv ista
tar isme
Ġpos ats
Ġsa ga
afeg ir
Ġsen ador
ĠBarcel Ã³
Ġconstru eix
ĠJos e
Ġro dar
Ġpronunci at
integ rar
Ġfeb le
Ġamp la
Ġconfid encialitat
Ġcas ol
aband onar
Ġsuscep tibles
Ġvo cabulari
Ġexcep cions
ad olid
ĠNec ess
ĠFer ro
ĠOb ra
v ist
Ġmin es
Ġprotes tar
mp l
Ġba tal
hab ita
Ġco ta
Ġdisfru tar
ĠT MB
Ġplur alitat
Ġvari ada
Ġexerci t
Ġglob alitzaciÃ³
Ġca val
Ġarren ca
Ġadscri ts
Ġca mbres
b all
Ġinforma tives
Ġcontr ar
Ġmani obra
Ġburo c
ĠE ren
w ell
ĠV ÃŃ
ĠPR O
con tin
og en
Ġins er
ĠperiÃ² dic
ĠD onald
Ġcompl ementa
ĠNicol au
Ġa ca
f em
ĠTorn eig
ã Ĥ
Ã© c
Ġinform em
Ġcontr aris
ĠTorro ella
ĠâĤ¬ .
ĠCla us
Ġvis iten
min ent
Ġgran dÃłria
ĠtÃŃp ics
B ank
rec at
Ġenem ic
Ġpat ron
ĠAn em
am ic
ĠÃł gil
ĠIn vesti
ĠLGT BI
ort h
Ġcontinu aran
ĠB urg
acc edir
Ġsuper ant
b el
enfron tament
in ess
Ġmantin gui
Ġmen Ãºs
ĠNo ves
Ġdetermin i
Ġorien tar
Ġlleg endes
Ġmaj Ãºs
C i
Ġregist rats
ĠBlanc o
AN S
Emp Ãºries
ĠAlex andre
Ġperill osos
ĠL oren
Ġparla ments
Per Ã²
ol c
Ġab aix
L iga
Ġcos tan
itor is
inf luÃ¨ncia
ĠHol anda
Ġselec cions
organ ismes
Ġhum il
Ġmo tivar
Ã± Ã©
b os
lici tada
Ġliber als
Ġbal cons
Ġsign ants
r Ã¨
Ġte Ã²rics
ĠTor ellÃ³
v ul
s or
ĠF ilip
Ã²m ic
Ġreun eixen
ĠCarbon ell
ci ans
tin guda
Ġv ela
ĠQuir ze
Ġsegui rem
ĠEconÃ²m ic
Ġvic e
v egeu
Ġpreocup ar
Ġactu alitzada
ĠJun tament
Ġ194 2
Ġdes pren
Ġnecessi tar
ĠridÃŃc ul
f Ã¨rica
Ġe h
ĠPu blica
Ġreg nes
Ġinici ada
ĠGir on
Ġllarg ada
Ġin habilitaciÃ³
ĠN eu
ĠPep e
Ġpressupos tari
in os
Ġcomp u
rÃł cies
ac ompanya
en siÃ³
Ġempres onats
ĠQu ines
Ġobtin gudes
ĠAm eric
Ġtancar Ãł
Ġne olib
ĠComun icar
Ġescul tures
Ġap unt
and Ã¨s
ĠRib as
Ġfranqu istes
Ġ19 17
Ġproced eix
Ġp oma
Ã¨ tera
Ã² drom
ĠaÃ¯ llat
ĠG reu
âĤ¬ .
C ap
Ġb ud
ĠcarÃłcter s
ĠAss essor
Ġcar rils
tor at
Ġsab ien
Ġ194 7
Ġdinam itzar
Ġ195 8
ĠCastell b
Ġ ut
Ġpermet ent
agaf ar
ĠG es
E X
Ġinfec ciÃ³
Ġrecorda va
ĠJ udit
Ġplan tilles
Ġactu alitzat
Ġtex tura
Ġsignifica tives
Ġ195 5
Ġrat olÃŃ
, ,
ĠCN T
ĠFel ici
end ent
ĠPer manent
Ġaix i
impuls ar
Ġcons ti
Ġpres oners
Ġverm elles
Ġcautel ar
uc k
L L
UN T
Ġenginy er
Ġex amen
ĠM ans
Ġprovin ent
Ġen con
Ġesc and
ĠDal ma
Ġmen talitat
Ġcompar tim
eb le
Ġflamen c
ĠfÃłrmac s
\ '
Ġdes titu
Ġveri ficar
ent esa
Ġhor Ãłria
Ġhaure u
Ġemo ciÃ³
Ġescrip tora
Ġplantej aments
ĠRaf el
Ġrib a
Ġpil otes
ĠMet ges
ĠAle jandro
Ġful la
Ġag ricul
ĠRos ell
" "
tad o
Ġdescon eguda
ĠEduca tiva
al ba
Ġus at
ĠAm or
Ġvac ant
ĠRod alies
ĠT ord
Ġreserv ats
Ġconquer ir
Ġcab dal
ĠI P
Ġide olÃ²gica
Ġconsecu tius
adolesc Ã¨ncia
Ġsensi bles
ĠM ec
al iment
Ġdi etes
Ġp Ã²l
lar Ãł
be tis
Ġpreocup ant
Ġdavall ada
ĠCab rera
ĠlliÃ§ ons
par Ã¨ncia
ĠF reix
Ġdem Ã©s
ti litat
ĠdomÃ¨s tic
id Ã³
ĠnÃ²m ina
ĠApro fi
Ġrevolucion ari
hes ter
Ġf Ã²r
Ġb rossa
ĠMag n
Ġsosp it
Ġmul tin
ĠPro ducciÃ³
ĠTre mp
Ġcan ad
an alitzar
ex plicaciÃ³
Ġpot ents
ob ert
ĠveÃ¯ nal
Ġ196 1
TIC A
Ġpass in
gl ada
abs ol
Ġa udit
Ġradia ciÃ³
qui ta
Ã¯ r
id er
Ġsemb l
Ġnoctur na
ms terdam
Ġru tina
Ġagrup acions
gu ai
Ġvi tals
Ġpun x
Ġve ieu
Ġadre Ã§ats
h at
Ġp ors
ĠDivers os
esc riu
Ġ194 3
ĠCat Ãłleg
Ġge omÃ¨
ĠNeg re
ĠPi erre
M IN
ĠH avia
Ġgra ti
Ġcontex tu
Ġmus e
exc edÃ¨ncia
ĠcÃ²m oda
aut omÃ²bil
ĠSe at
l ina
ĠK han
Ġport o
ĠProc Ã©s
ip Ã¨
Ġro de
ĠB ob
ĠMunicip als
Ġx ip
ĠLabor atori
Ġefectu at
Ġpion era
A A
ĠProgra mes
ĠR ou
Ġex ili
Ġocup ant
aut ogovern
Ġrecons truir
Ġvol ÃŃem
Ġpro ven
s ki
Ġcamp ionats
cion aris
Ġrepresenta tives
ĠEs tr
ep ciÃ³
Ġcontinu Ã¯
ĠS OC
enll umenat
ĠhidrÃł ul
Ġan omena
Ġassab entar
Ġdos is
ĠA fers
ig ra
ĠN aciÃ³
bl ia
isti en
Ġgui onista
ar bres
fi anÃ§a
aut oc
Ġali anÃ§a
ĠGir onÃ¨s
f s
Ġinc Ã²m
Ġabs trac
Ġsusp Ã¨s
Ġtrans m
Ġau la
ga va
Ġacompany ades
ĠGu any
Ġan alitzat
Ġintu Ã¯
Ġr ug
Ġviol enta
Ġlog otip
Ġcamp ions
Ġaf iciÃ³
Ġperill s
Ġcomplemen taris
Amp osta
Ġn ar
Ġdes gra
Ġprote Ã¯na
Ġ195 4
ĠSindic atura
Ġequi par
Ġacad Ã¨miques
ĠprÃ² leg
N AC
ĠT op
Ġpl orar
Ġcontempor anis
ĠPi quÃ©
Ġaplic ades
k u
l adors
Ġb og
Ġpl Ãł
Ġdisseny ada
Ġescla tar
Ġestren ada
Ġmajor itari
vi da
Ġmen ja
Ġpren gui
ĠC and
Ġen de
ci ments
it Ã©
ĠLa Liga
ul o
i ficar
Ġveri ficaciÃ³
ĠclÃłs siques
Ġsavi esa
ĠComun ista
ilia ciÃ³
Ġnad ons
Ãł via
ĠMed alla
S er
eg as
Ġserv eixi
ĠmÃºlti ple
ĠM iss
j al
Ġpa viment
que jar
Ġdesenvolup arÃł
Ġsub hasta
b anc
Ġpres cripciÃ³
Ġcur ric
imp res
hu ana
Ġmagist rats
Ġexc lou
Ġcamp ana
Ġloc alitzat
Ġcol onial
Ã Ĥ
Ġconveni Ã¨ncia
ĠBor ja
ĠFem inista
Ġbru ta
in Ãłries
no w
orta ble
ĠCom en
ic als
r s
Ġdefens or
Ġtert Ãºlia
ĠCiu dad
Ġadap tats
Ġcompon en
Ġculp able
Ġ9 1
Ġpropos ades
Ġrendi bilitat
d ona
ĠestratÃ¨ giques
Ġdes vet
u ig
Ġsum ant
Ġproced irÃł
go ixa
Ġpo table
Ġcar p
Ġfot ocÃ²pia
Ġofici s
Ġar xiv
Ã¨s ia
Ġindic ats
Ġform als
Ġmenys preu
ÃŃ eu
AC A
Ġg rossa
Ġag rari
Ġad mir
ĠavanÃ§ ats
e ia
Ġres segu
Ġetc Ã¨tera
Ġdra mÃłtica
Ġmir en
Ġlli gats
ĠPlan ificaciÃ³
at zar
ĠB io
Ġderi ven
l ers
ĠES P
ĠBus quets
ĠVI H
r um
est os
d ob
Ġconsta tat
Ġvincul ant
ĠP aris
ici osa
Ġar b
Ġgimn Ãłs
Ġdans es
U I
G S
R es
Ġg amb
ĠS Ãł
ica go
Ġincor rec
Ġfacil iten
ur isme
Ġmagatzem s
Ġd urs
Ġdes allot
Ġdes en
Ġaf iliats
espectac les
tes sin
noti cies
AT S
Ġdetall en
a ci
ĠSu Ã¡rez
ĠpedagÃ²g ic
end Ã¨ncia
Ġcerc les
Ã ģ
Ġsec s
ĠÃ¨ tn
Ġvirtu als
Ġberen ar
Ġargu mentat
ĠCons tan
Ġarque olÃ²giques
ĠBert ran
Ġi a
Ġavis a
Ġrecorre guts
Ġtin gueu
Ġreal ista
Ġpre dis
Ġ19 14
Ġator gada
ĠM and
Ġcontradic cions
OR D
Ġele vats
int urÃ³
Ãº per
Ġporta des
Ã± os
li vi
Ġsin te
Ġgest os
T I
ora cions
Ġvi ven
Ġcomun istes
Ġedi fica
Ġdes ocup
Ġcorpora cions
d ellas
Ġpassap ort
Ġde vas
al li
t z
Ġvuit ena
Ġt ril
Ġaf lu
esp e
ĠVal entÃŃ
Ass ociacions
Ġdom ina
Ġmou en
Ġpot esta
ĠTen int
Ġmur alles
Ġescol ta
Ġposse eix
Ġpar atge
Ġdec eb
Ġbi ologia
ĠDes embre
Ġin vent
Ġsot mesa
ed eu
Ġpropos ada
Ġdig nes
Ġins tat
ĠP L
Ġcre ats
Ġprocla mat
icÃ²p ter
Ġdeman arÃł
ĠS EM
Ġdu resa
S a
esc ul
Ġinflu Ã¨ncies
Ġter m
le a
Autor itat
Ġsex ualitat
Ġ19 19
Ġset Ã¨
Ġrecer ques
z ina
Ġal e
Ġad quisi
Ġsamar retes
ĠTra ducciÃ³
Ġcan alla
Ġnucle ars
Ġap legar
si ler
Ġunivers itÃłries
Ġpod ÃŃem
Ġeti quetes
ĠRi us
Ġferrovi ari
AR A
Ġrom and
j ana
oc ador
Ġcar trÃ³
Ġap laudi
ĠparrÃ² quies
Ġsaf ata
Ġneu ro
Ġcelebrar an
I l
ol ins
Ġgener ositat
ĠSal es
ĠCal vo
Ġargu menta
ri em
Ġdestin arÃł
g Ã¨n
Ġactiv at
ĠV erm
ĠTV E
incor pora
Ġentusias me
Ġaspira cions
Ġesta rem
ĠDemocrÃł tic
ĠUn ida
Ġexecu tat
ĠVall adolid
Ġx ef
Ġtornar em
ĠCat erina
Ġpresump ta
exc ursiÃ³
Ġmari huana
or er
Ġcarre us
Ġprocess ament
z y
Ġguany en
Ġcompati bles
Ġt rien
inc en
ĠK o
Ġcontinu ades
Ġpar tint
Ġpu ga
Ġam ate
ĠEsp ec
ĠC I
ĠK m
Ġdesitj at
ĠMoz art
ĠOr gan
enorm e
ĠT emp
Ġpatrimoni als
Ġs ana
?? ?
Ġservid ors
x ador
Ġ0 2
Ġne ts
Ġ4 50
Ġna cion
roc k
ĠPrim avera
Ġbo ira
ĠVol ta
Ġmarx at
Ġval entia
Ġenseny a
Ġre ver
r elaciÃ³
Ġexecu tiva
Ġpartid ari
Ġober tament
Ġdir Ã©
ĠPri vada
ĠOlÃŃmp ic
Ġcompl int
essi m
Ġsubrat llar
Ã©n dez
ĠRoy al
Ġta pes
Ġdi vis
Ġme tal
aud itori
Ġm eg
Ġenc ert
ap ole
Ġdep ura
ĠEx ecu
ĠAl em
Ġpod ent
Ġsan ejament
ĠF lo
Ġdeclar ada
Ġdesenvolup ats
Ġprecep tes
Ġcri atura
m ics
Ġdi guin
Ġautor itzada
Ġsensibil itzar
Sal ut
Ġorden aciÃ³
acum ulaciÃ³
Ãł rem
Ġalcal dessa
Ġb Ã¨l
Ġ( -
Ġtranspor tar
ĠF ED
Ġagra Ã¯ment
Ġf rÃł
Ġcavall er
fer ents
Ġrom anes
ab a
ana va
Ġlluny Ãł
ĠLeg is
ĠencapÃ§al ada
Ġadmi ra
ĠSub direcciÃ³
alg Ãº
l ula
Ġcre m
Ġpremi ats
Ġpat ologies
ĠEdu ardo
Ġve ien
Ġexper iments
ĠruÃ¯ nes
aÃ¯ llament
ec ular
jun t
di dat
ess es
ĠContin ua
f eix
ĠperÃŃ metre
Ġavant pass
Ġinterna cionalment
Ġperman ents
Ġp ira
Ġav inguda
se a
ĠN Ãº
ag n
ĠGreu ges
ĠMill ora
Ġimmob iliari
Ġco titzaciÃ³
Ġcompar tint
Ġsacerd ot
Ġfutbol istes
ĠRecord o
Ġincen tivar
d als
Ġfer mesa
Ġcont rov
Ġci ti
met lla
d y
Ġdub tar
Ã² tiques
Ġdefin its
re tari
Ġmeravell Ã³s
ĠT es
ed itor
Ġb ibliotec
des prÃ©s
ĠSi erra
Ġintercan viar
le ge
Ġima gina
Ġmor talitat
Ġalimen tar
os an
ĠJurÃŃ dica
Ġtransfer Ã¨ncies
e Ãł
Ġimpuls ors
Ġextraordin aris
ĠColl b
ĠqÃ¼esti onar
Ġinclo Ã¯a
Ġp imes
Ġbiom assa
l Ã¨r
ĠD et
cipi ent
ĠNo ti
E dat
uta cions
i tius
Ġtrac tant
Ġb ess
ĠOs ona
aplica cions
Ġper tor
estr al
I ran
Ġnatur alment
ĠC rim
ÃŃc ula
ĠRip ollet
Ġ Ã²
ÃŃ cit
Ġcomp orten
ĠStre et
ĠHum anitat
Ġcontras enya
ĠComerci al
ins pec
Ġcor reg
Ġcontext os
Ġinteg rant
ĠRes um
Ġefec tives
Ġer ig
Inter Ã¨s
eg ra
ĠtindrÃł s
Ġrecep tor
Ġ194 6
Ġpsic olÃ²gica
ĠMar y
Ġmant ega
Ġeduc adors
en reg
especi alitzaciÃ³
ĠÂ °
ĠindÃŃg enes
ĠEsp riu
ĠLlic enciat
ad ults
Ġher bes
Ġm osa
Ġtra ductor
Ġcer tesa
Ġor na
Ġ193 5
ĠAb ril
x of
Ġgra tis
Ġdivi dida
ĠAqu ella
Ġa qui
Ġesta bles
Ġmalvers aciÃ³
Ġrep utaciÃ³
ĠLl ob
Ġgal eries
Ġreta ule
investi dura
Ġtamb e
Ġanti gament
os au
Ġcuri osa
a usteritat
ĠH arry
Ġsa gra
v ari
Ġsus ten
imp ostos
ĠSim fÃ²nica
ver gon
ĠCan als
ĠAnd roid
vers a
estr en
Ġdi la
ĠD ÃŃ
Ġlla vis
ĠGl Ã²ria
ho quei
dio vasc
Ġresul ti
Ġestim ular
Ġcoincid Ã¨ncia
Ġviol ents
ĠJ Ãºlia
gent ona
Ġz o
Ġcap turar
ress or
Ġ12 2
Ġcontribu eixen
Ġs ants
exerci r
ES A
Ġtar ann
ĠprÃ²pia ment
ĠPl anta
Ġequilib rada
ĠpolÃŃ gons
Ġob e
Ġsemb li
ĠInterna cionals
Ġrela ta
Ġevid ents
ĠEu recat
ĠM ix
lan desa
Ġmas ies
Ġm ina
Ġamb ients
ĠVal oraciÃ³
Ġv enci
Ġcirc um
ti d
ĠD A
ĠD if
ĠR AC
9 00
ĠAz nar
Ġha ja
Ġob rer
Ġvall s
ĠL isb
Ġcal Ã§at
Ġm ites
N A
ÃŃ ria
ĠNasc ut
co h
en velliment
ĠEL S
Ġn Ãł
Ġam ist
Ġau gu
Ġtu tors
Ġpro gen
ĠAl fred
Ġtra dueix
Ġema ils
Ġass en
Ġx il
Ġpin z
Ġferrovi Ãłria
ĠCas es
ent rades
gre gaciÃ³
Ġexp ansiÃ³
ĠM ach
ĠMÃ¨ diques
Ġrenunci arem
Ð µ
I lla
Ġver tad
Ġag ressiÃ³
t rans
Ġass isteix
ĠÃ¨ tic
ĠN Ãºm
Ġemb arcacions
ĠautomÃł tic
Ġindign aciÃ³
Ġafir maciÃ³
Ġgra ms
Ġro taciÃ³
Ġcompta bil
Ġderro tat
Ġcot Ã³
Ġ {
ĠLl uÃ¯
Ġsign ada
ĠTÃ¨cn ics
Ġprojec ten
Ġdut xa
Ġar reglar
Ġates es
at endre
ĠSer rano
ĠV id
AGA UR
Ġac ta
let xa
ĠMal auradament
ĠGu inea
Ġtall ada
ĠCub elles
Ġin ves
ci des
fi eld
Ġbus cat
o ia
Ġinven tar
Ġportar an
ĠN Ãłstic
Ġgreu ment
al b
Ġv elles
Ġpre ciÃ³s
Ġva u
est em
Ġpertany ents
Ġtorn Ãł
Ġimp rimir
Ġpol ar
Ġvuln eraciÃ³
Ġposar em
Ġgener ada
Ġenorm es
Ġdec urs
ĠLou is
i ana
pi da
ĠAr c
Ġ0 7
ĠOp era
ĠC ano
Ġamp olles
ĠP ou
Ġvost Ã¨s
ĠFe ia
ĠS S
Ġsenzill s
Ġcol omb
Ġposici onar
ĠIns tagram
Ġproporcion en
Ġse quera
ĠSal v
Ġmi rem
Ġaccessi bles
Ġdivul ga
Ġcomp ag
Ġfu gida
Ġdefici Ã¨ncies
ĠF P
h in
v ed
Ġ19 00
Ġcas at
ĠRes ultats
199 1
Ġatribu cions
ĠPN B
V I
l ela
itz arÃł
Ġqualifica cions
Ġpresen cials
ĠGran ados
Ġnutri ciÃ³
os fera
ĠÃĴ scar
ĠB ÃŃ
f ac
at racciÃ³
atre v
ĠlÃº dica
Ġfinalitz arÃł
ar bit
gi ble
Ġexig ent
el Ã¨c
Ġdef ensiva
h op
ĠLoc als
Ġbar res
mb arra
di gi
Ġpremi at
Ġpassa ven
ons eller
ĠG or
Ġescrip tura
ĠPro ven
ĠFot ografia
Ġc end
Ġre trats
Ġestableix i
j aran
ĠP oll
si vitat
Ġdispos ava
Ġpreve ia
ĠP allar
Ġsob irÃł
Ġre vocaciÃ³
' )
car is
v im
Ġes brinar
ĠAnt on
Ġcomp ondre
Ġta par
In fer
Ġconv o
Ġrefor Ã§a
ĠMag dalena
ĠJuli o
Ġperpe tu
avor ir
catal Ãł
E dit
Ġprec ÃŃs
Ġto vall
Ġtorn in
Ġcor atge
Ġ !
Ġco finanÃ§
esc ollir
Ġelec tors
ĠHer rera
ĠaÃ¯ll ada
Ġpo Ã¨tic
Ġemo cionant
Ġdis si
G B
ĠqÃ¼esti ona
Ġfron ter
ĠBB VA
Ġb orb
Ġredu int
ec ologia
ĠClÃŃn ica
ĠâĢ ĭ
Ġcreu er
all en
H o
ĠCon vocatÃ²ria
Ġprofun des
Ġpl om
Ġconvoc ats
Ġel abora
Ġpre mat
Ġinver tit
bar jo
Ġtristes a
Ġsuperior itat
qu ines
ĠEs tava
Ġpron uncia
per aciÃ³
Ãł cies
titz ada
Ġevent ual
C iu
Ġcom andes
Ġmultin acional
Ġmira des
Ġtop Ã²nim
ĠCo incid
ĠCh rist
Arquitec tura
g h
Ġrequer ir
Ġbra siler
ĠMontg rÃŃ
Ġenc ant
ĠMor era
Ġve uran
Ġsofer t
ĠAp ple
ĠC lau
r ing
ag ents
Ġsubministra ments
Ġenf oc
Ġpar li
Ġcam isa
Ġen la
estr ella
Ġdoc toral
Ġclave guera
ĠEspa Ã±ola
ĠJx SÃŃ
Ġva ca
Ġcatal anista
ĠPen ÃŃnsula
R o
Ġcoron el
ÃŃ miques
ĠS w
Ġpersegu ir
at letisme
Ġper se
Ġpu rament
Ġrepar ar
ĠLe o
ĠFl orida
Ġreflec tir
Ġimpar teix
ĠÃłnim s
el it
ĠCom peti
ob erta
Ġllen Ã§
m ell
R ec
Am ics
Ġrelig ions
mon d
Ġar gentÃŃ
Ġcim s
cul tural
Ġe ducar
ĠJoh ns
inter essos
ĠS mith
assegu rances
Ġramad eres
S eg
Ġestabl int
diovis ual
ar o
Ġcicl isme
op ia
Ġob rera
ĠIgual tat
ĠI lla
ord ina
Ġ19 23
eg r
Ġju eva
ĠGu im
V ID
Ġsenti mental
Ð ¸
tu alment
Ġtarann Ãł
Ġampli ant
Ġp ala
ĠS ans
Ġl ar
ud ia
Ġ ones
ĠExcur sionista
Ġin oblida
Ġcastell era
ĠMus eus
Ġgall ec
Ġesc ultura
fici s
Ġgu Ãłrdies
H er
Ġor ques
ĠcÃ²n ju
ĠE usk
ĠO bli
emp a
Ã¨s ar
Ġpublic Ãł
Ġcamp ament
Ġretre t
Ġperc entatges
ĠEn desa
ĠK h
ĠRic ardo
Ã¨ lia
p as
ad qui
oc l
Ġdin Ãłmic
Ġprepar en
Ġescol tant
Ġ19 24
end ins
Ġb acteris
ĠB of
Ġmix ta
Ġper ru
Ġv ar
bo x
ĠDesta ca
Ġja ciments
Ġcu es
ĠT ex
ita liÃł
Ġexp ediciÃ³
ĠTarra dellas
Ġimp ost
Ġindefini da
Ġb Ãłndol
Ġagrup a
Ġmes cla
b ums
ĠF isi
Ġgo ig
ĠTall ers
p ic
s eca
Ġlla mp
Ġcreix en
ĠEntre vista
ir Ã©
on aris
ed Ã²nia
autob usos
w i
Ġprom etre
Ġdepend rÃł
Ġdesn onaments
ys tem
Ġapar taments
Ġcon d
Ġma il
ĠO bert
Ġa pr
Ġr Ãºs
ĠPer cep
Ġcar ro
Ġveri tables
Ġreper cu
Ġen ver
ĠB uch
Ġexpos ades
Ġdisc on
Ġconsidera blement
Ġ19 28
el le
Ġpil es
ĠHen ry
Ġcereb ral
rec es
s una
Ġtele fÃ²nica
ĠF an
Ġautob Ãºs
assoli ment
ĠTord era
ĠMar x
Ġ194 9
ĠBo ix
Ġdesper ta
Ġdeci dida
Ġres pira
ĠColls erola
Ġes mor
ĠG esti
198 7
ĠSall ent
Ġin her
Ġl entament
ĠI van
ĠC up
ĠP op
ĠEx tra
Ġpu guen
f u
Ġta c
ost res
de mbarra
Ġvari at
Ġdiss et
Ġdonar ia
Ġest ones
A vinguda
Ġcar ros
Ġconstr uÃ¯ts
Ġacum ular
ĠM asc
essi onal
Ġelec tro
encarreg ada
Ġal cohol
Ġsubstitu eix
ĠCons tant
es ten
ob tÃ©
ĠBas es
Ãłm ics
Ġassenyal en
Vol em
Ġtrib us
Ġcomun itaris
la us
Ġb Ãºs
Ġadequ ar
Ġtrob alla
Ġquali ficats
ĠC eller
Ġdocumen tat
ar te
ĠmÃº tua
ĠLabor als
Ġobse qui
Ġajus tar
Ġfacili tats
p ica
t reball
ĠL ac
ĠIn vestigaciÃ³
Ġvalora cions
Ġpos tu
Ġconsci enciaciÃ³
ĠEs ter
enfron ta
di ana
Ġpar lants
Ġmasc les
Ġimm ens
al et
Ġcon Ã©ixer
Ġins piraciÃ³
Ġgener alitzada
E d
Ġb ÃŃ
Ġad onat
per ceb
Ġfu ga
Ġen ve
Ġsubstan cial
Ġm issions
ĠM os
Ġenvol ten
Ġi ll
Ġeix e
An dalusia
Ġsubscri ure
mig rants
Ġco efici
Ġsucce Ã¯t
p ri
Ġfum ar
e duc
Ġde pre
Ġma ta
Ġafec tin
ĠS oc
Ġempres onat
ĠE qu
ĠsÃ² lids
p eses
Ġesp erat
ĠEdi ciÃ³
Ãłu tica
umen tals
ex ca
fici entment
ĠPo esia
un di
ĠA igÃ¼es
ĠacÃºs tica
Ġdigital itzaciÃ³
ĠG olf
Ġad ulta
Ġpin tors
ins pecciÃ³
Ġconserv adors
Ġess Ã¨ncia
Ex posiciÃ³
ĠCD R
ĠM assa
ĠF lu
Ġac urada
Ġrepeti ciÃ³
Ġgro cs
Ġam o
Ġendins ar
enf ons
ĠconsegÃ¼ ent
y r
Ġverm ells
ĠDemocrÃł cia
ver de
Ġsec torials
ĠPac ÃŃfic
m ot
t he
Ġperill osa
Ġapren entatges
ĠS T
Ġcapa citaciÃ³
inf antil
Ġcom tes
ĠMonts ant
Ġdel ta
Ġ195 2
Ġenginy ers
ĠJ ub
lu a
Ġqu Ã©
Ġdesitj ar
Ġofer iran
ĠDar rera
Ġa igu
Ġre habili
Ġautor itzacions
og Ã¨n
Ġsupos aria
cri ts
Ġsin istre
emiss ora
ĠL or
Ġb ou
ol anda
ĠSab em
Ġbar at
Ġb atre
P E
Ġpoder Ã³s
Ġecos istemes
ĠB ec
alum ini
H ostal
p ides
Ġb uida
Ġs Ã¨nior
tiv aciÃ³
Ġcap gir
Ġtransform acions
Ġbisb at
ac tiu
Ġaerop orts
ĠH il
O pen
Ġconnec tat
P al
Ġsec reta
Ph one
ta tius
ĠmÃº tu
ur recciÃ³
ras mus
f alt
ĠO rient
Ġdispos ada
Ġrodal ies
Ġremun tar
F i
Ġm itges
Ġc iment
Ġir respons
htt p
ĠG allar
enci ada
PS C
Ġf ri
Ġn ata
Ġasse gut
Ġsoci ol
Ġpertin ent
Ġreb els
Ġallot jar
Ġar ru
ĠIsi dre
ĠLea gue
si ma
ĠU ll
Ġar mats
Ġestre t
Ġblaug ranes
Ġinter discipl
Ġom bres
ĠmÃŃ ting
emple at
d ena
ĠRa imon
ĠC anÃ§
ĠSic ÃŃlia
c ologia
et te
vi als
ĠTari fes
or f
ĠF res
e jo
Ġopera tius
Ġbar reg
ĠTrans parÃ¨ncia
Or feÃ³
ĠTecn olÃ²gic
ĠCal vet
ĠH ora
esc lat
Ġconvoc ades
Ġdel ib
Ġgra s
ĠT ai
Ġpresti giÃ³s
OM S
Ġevi ta
ĠllÃłg rimes
ari b
al Ã§
ĠG rec
Ġpres cin
Ġe ficients
Ġp orn
Ġra m
rÃł nies
Ġconnec ten
ĠInici alment
epis odi
Ġtar des
Se para
eix a
Ġorigin alment
Ġbanc Ãłries
sobre tot
Ġme talls
Ġad hes
al ternativa
Ġporta veus
Ġconcer tades
At lÃ¨tic
lel es
ĠRib ag
Ġcomplemen tari
Ġacompany en
Ġexp on
Ġorden ada
Ġprior itzar
Ġele vades
Ġcob ren
Ġaleg re
U AB
ĠCol lege
exhib iciÃ³
re ma
Ġe tern
Ġesper ances
Ġpre co
ĠMa Ã³
Ġinter posat
f oc
Ġdescon eguts
et y
ĠB olÃŃ
ĠDEL S
Ġa jun
Ġrepar tit
Ġacredi ti
vit ge
Ġinj usti
E ix
Ġformular is
Ã «
Ġver ge
Ġprovisi onals
ĠH orts
Ġparad ÃŃs
ĠF oc
Ġdistrib uÃ¯ts
Ġalluny at
Ġinjus tÃŃcia
Ġdes tru
ĠI v
Ġre vertir
ĠIdenti ficaciÃ³
ura ment
idi omes
ĠMes ures
Ġpin ya
ĠP it
Ġhid ro
Ġsugger eix
Ġobli dem
Ġtri gar
istra ment
ĠCas ino
Ãłs tro
Ġgol ej
ĠMe teor
Ġguany Ãł
, [
Ġpatrocin i
ĠFl ors
Ġdimi tir
x illa
ĠP robablement
na cional
Ġsa pi
Ġacredi tativa
ĠM Ã³ra
Ġquedar ia
AS A
an ge
Ġtor tura
ĠOri gin
i on
Ġfrac tura
Ãłnd ols
h eu
ep id
Ġoptim itzar
ĠMas car
Ġ tim
ĠMon ti
ĠSand ra
ĠGe ografia
Ġes tes
di u
Ġdisseny ador
Ġdespatx os
ĠLisb oa
Ã¨n yer
Ġprefer eix
a fer
Ġboni ficaciÃ³
Ġform atges
Ġf arien
en du
up a
Ġma mÃŃ
Ġren om
Ã¨r cits
ĠCamp anya
or ella
an za
audi ta
Ġconv oquen
Ġre bl
Ġg roga
Ġfac ebook
ĠV ers
ĠRe y
ma i
ĠC ec
quip Ã¨dia
han d
Ġreg eix
ĠRom ania
ĠVic epres
ĠmÃŃ tic
Ġmotoci cle
ir s
t ran
ĠAjuntament s
Ġmeteor olÃ²giques
Ġdispos in
ĠRe alment
Ġsubven cionada
c era
Ġpr ud
V a
Ġautonom ies
Ġan gl
Ġorien tat
ĠF en
ĠMerc edes
Ġdes ocupaciÃ³
ass ament
Ġju dicis
Ġpossi bili
Ġrum ors
Ġar mat
enf rontar
Ġexac ta
Ġdem Ã²crates
Ġllibre t
Ġmotiv at
ĠC oc
Ġexig eixen
ĠcadÃł ver
esc an
Ġrecor rer
ĠLa ie
Ġf Ã¨r
ĠDia man
Ġsupermerc ats
Ġpart ÃŃ
ĠOrganitz a
Ġexclos os
Ġsingular itat
ĠCon tr
Ġconsider arÃł
Ġf lau
Ġ0 3
Ġs ir
ĠTorre dembarra
ĠM oto
ĠP rades
es tats
Ġcontra dicciÃ³
Ġemp eny
ĠrÃłpid s
Ġretrob ar
Ġcar diovasc
ĠMontb ui
Ġsi guen
exper imentaciÃ³
i va
Ġatemp tat
Ġ195 3
ĠPerp Ã¨tua
Ġv Ãłries
ĠF R
Ġsob tada
obri rÃł
ĠT Ãł
Ġannex os
ĠM AT
Ġc ria
Ġdia betis
Ġhere us
Ġescap ada
Ġs ing
ĠCom te
Û Į
ess is
tor o
ĠQ UE
Ġnomb rosa
Ġl ic
Ġcre gut
Ġt utela
ĠInf Ãłncia
Ġpasse jada
Ġassist encials
k en
Ġdin er
ĠIns pecciÃ³
ĠavanÃ§ ades
ĠFl ores
Ġh ort
l ad
ab onament
Ġcoopera tiu
v ins
Ġin ci
AS S
Ġcl ari
ĠSim on
es pl
ĠChac Ã³n
at ch
Ġpre gÃłria
Ã²g ica
Ġdramat urg
Ġorganitz ant
Ġoptim ista
Ġdifer encial
Ġval er
Ġper t
ĠT ens
Ġv ed
ren as
Us uari
ĠF E
Ġresca tar
um an
Ġincid ir
Ġdemost rant
ac cidents
en cies
Es tats
Ġtitu lats
ĠvÃł lid
ĠM eri
ingÃ¼ isme
Ġcompor tarÃł
Ġdi visions
Ġdesenvolup ades
ĠP ur
Ġve urÃłs
ĠA gÃ¨ncia
Ø§ Ù
Ġentren adors
ĠRepres en
ĠcÃ²m odes
Ġregular ment
Ġrelle us
Ġap ost
A eroport
C am
ĠRec la
ĠPap e
enc on
Ġdesa perceb
f el
leg ant
ĠN au
Ġpass atge
Ġassegu ranÃ§a
Ġsupermerc at
Ġ19 22
Ġfix ats
Ġcaracter itzat
ĠBell vitge
Ġk ur
C h
Ãłb rica
Ġline al
ĠInteg ral
j as
d ent
ĠF als
ĠPercep tor
G ran
Ġtransform at
or ren
ĠC AM
ĠSantamar ÃŃa
c osa
Ġpot estat
Ġdemoc ra
espe are
Ġsobre pass
ĠMet ro
Ġpl o
Ġpar l
Ġconf ort
omp li
ĠGin ebra
Ġmadril eny
fic ciÃ³
ĠW ar
ĠanÃ¨cd otes
re f
acol liment
Ġcondi cion
Ġcomp uta
Ġcons ag
g ener
Ġcre ades
Ġvetll ada
Ġlle gu
c entes
Ġsol dat
Ġgu ix
ĠP Ãłgina
! ".
ens is
te ts
ej os
Ġfin alitzada
ĠBar b
Ġadap tant
ĠFun ciÃ³
Sab adell
Ġan tis
Ġapar iciÃ³
ĠG PS
teri es
D IC
Ġmir at
Ġtreball arÃł
if a
olog y
Ġex hau
omple ix
ĠRib Ã³
ĠDalma u
ÃŃ l
Ġ08 00
Ġsub m
Ġseg regaciÃ³
Ġsimb Ã²lica
Ġpriva titzaciÃ³
IR PF
Ġlim i
198 1
Ġdescob rint
ĠC Ã¨sar
Ġconver tirÃł
Ã© l
Ġcon vin
ri ga
Ġompl ert
Ġ20 21
ĠPressup ost
Ġsancion ador
qu eres
ĠDi es
Ġinvestig ats
ĠCu ina
orden ament
ĠM A
ĠcÃłn on
Ġfres cos
ĠPag Ã¨s
Ġof ensiva
ĠS ep
Ġjuga va
Ġe gip
Ġenfron tament
agu lla
Ġconsecu tiva
Ġcris tal
Ġbo icot
aqu el
Ġfeb re
Ġto x
Ġgab inet
er ols
ĠLl ista
ĠsÃł pi
tar s
Ġpropos ats
ĠPropi etat
Ġra mbla
ĠcÃłmp ing
ĠDomÃ¨n ec
Ġacolli dor
Ġes tesa
Ġg oma
ani taris
ĠRom an
ĠMin istre
g els
Ġseri osa
, "
Ġf ruc
pos icions
ĠB TT
amb dÃ³s
Ġenvol tada
z ano
ga ta
er Ã³
ĠT am
ok s
ĠDiaman ka
Ġsobiran isme
Ġr ols
Ġim minent
lici ti
Ġbar roc
ĠGrup s
inform Ãłtica
Ġexig its
M ont
ur ana
Ġinc o
ard s
Ġfes tiva
ĠCl assi
Ġac udit
Ġtribut Ãłria
Ġri tual
____ ____
lus trat
ĠBarcelon eta
an gel
Ġfitx ar
b ella
Ġmanip ular
Ġexca vacions
ĠAl lÃ²
ĠSan itÃłria
ĠMir alles
Ġmusc ular
ĠAl lÃŃ
Ġmon jos
Ġmostra va
Ġla mentar
ĠFon tan
ĠK ong
afec taciÃ³
Ġafec tarÃł
ri o
Ġcons istia
ĠCar nestoltes
f ron
ĠcÃ¨le bre
Ġmotiv ada
Ġdilig Ã¨ncies
activ aciÃ³
cis tes
tre madura
incre mentar
Ġf rat
Ġfix es
ĠMass ana
Ġpreco Ã§
Ġvisu alitzaciÃ³
Ã¨ dies
Ġaf ores
Ġvideoj oc
om ociÃ³
ĠF ora
Ġpl Ãłstiques
Ġrecuper ant
ĠProvÃŃn cia
Ġvis ti
Ġremun ta
u ments
Ġre utilitzaciÃ³
ĠFran ques
ĠComp ta
Ġcontribu cions
Ġatrib uir
Ġinc ompliment
id ora
establ ert
m erc
ĠCab all
ĠQuin tana
D C
ĠDesc obreix
ĠQuer alt
ĠA S
Ġlla vor
ĠVer ds
Ġesdevin guÃ©
ajus tar
ĠEstrat Ã¨g
Ġre integra
ĠRes ulta
ĠHum an
ment en
ĠCrea tive
g et
ĠIn forme
ĠI de
Ġbar alla
Ġemp enta
Ġtr omp
Ġtribut Ãłries
ĠCons ells
Ġbar ret
Ġlegisla tives
ĠS pa
Ġedi ficaciÃ³
Ã§ ala
Ġpor tin
ĠH eu
ĠB ac
Ġreflec teixen
Ġcor ren
Ġinspir ar
Ġdescar tat
Ġbrill ants
ab at
Ġca uen
Ġali at
Ġor elles
ĠSuc c
Ġp Ãł
T e
ĠI B
ro ver
ĠS uny
Ġcompl icacions
Ġtin guessin
Ġdescon nec
Ġtr ista
ĠBar n
Ġeleg its
avanÃ§ ar
ĠT as
Ġtele visions
Ġestre tament
Ġdura ciÃ³
" ?
Ġgra va
Ġdivor ci
ĠFern Ãłndez
ver d
Ġfir mes
ĠCerv antes
es cap
per es
Ġregu lars
Ġalterna tius
Ġpr el
v ora
ĠCom mons
Ġgovern ant
ĠEn erg
Ġentre vis
Ġar ris
Ġesta di
Ġcompor tat
Ġdecre tar
Ġi ra
ĠTol osa
at Ã²ries
ĠTres or
Ġprior itari
ĠCar lo
Ġpl Ãłstics
o is
fic s
Ġfitx atge
ins on
ĠmÃł r
Ġllengu atges
Ġv aris
! ",
Ġprofessi ons
Ġsan cionar
Ġh ÃŃb
Ġconsid ero
Ġescla us
ĠA valuaciÃ³
Ġreal isme
ĠAg ents
s ega
Ġfomen ta
ĠE TA
Ġnoti ficacions
Ġexhib iciÃ³
ĠmÃłs ters
i an
Ġpesse bre
Ġher eu
Ġb adia
pres ident
Ġmascar illas
ĠBar ca
Ġsof Ãł
Ġes tÃŃm
Ġ195 1
mun icip
incid ent
ĠCol Ã²nia
Ġdesfil ada
Ġvisti plau
Ġsepar ades
Un itat
Ġdenom inat
es quadra
Ġpat ologia
ĠOr tiz
ĠfotÃ²graf s
Ġfrac ciÃ³
ĠlÃº diques
avant guarda
ĠBas e
Ġbarre jar
on ges
Ġiron ia
d ada
Ġdi guem
un iversitats
Ġgra vats
ĠmÃº siques
ĠRel aciÃ³
Ã¯ bles
edi tar
Ġpin tades
Ġvac un
Ġcat Ãłstro
ĠBre xit
ĠH erm
ĠcÃ²mp lic
un itats
ĠR eno
Ġdu ta
ĠSegu iment
Ġimpos ades
Ġdecad Ã¨ncia
Ġsubs titut
ocup a
Ġsof istic
Ġp adr
ĠRam os
OR S
Ġgal Ãłx
edic te
ĠC lo
Ġboni ques
Ġara g
Ġproteg ides
Ġresid encials
elec cions
ĠFin anc
Ġlimita des
A igÃ¼es
Ġexpl otar
ÃĢ ustria
a jar
Ġprim ordi
Ġlli gar
Ġamb iciÃ³s
ĠCar ras
ĠEs tar
Ġdol Ã§os
ĠCad ÃŃ
Ġconcre ciÃ³
Ġvis ions
Ġdir Ãł
G M
Ġp ebre
Ġanar quista
Ġsup lement
ugu et
ĠIn ten
Ġgiron ina
ĠV ostÃ¨
Ġpl ec
Ġpreven tives
Ġconstitu ent
on Ãłncia
ĠW ood
ĠdiÃłleg s
Ġlab orables
Ġs p
ĠFÃł bre
Ġ ]
h l
ĠVal le
ĠMonts iÃł
o ficial
Ġent errat
Ġbar b
ru guai
ĠIS O
am et
Ġcon ju
Ġapar tament
Ġveter ans
Ġmi queta
rÃł bia
Ġcre enÃ§a
Ġsol ucion
Ġapar caments
ĠB rossa
Ġgener ats
ĠCat Ã²lica
int o
Ġproc urar
EN D
ĠmetÃł fora
Ġbatal les
ĠCard edeu
Ġsol vÃ¨ncia
ĠCas anova
ĠA leg
ĠCar acter
le gues
Ġperc ussiÃ³
p unt
on isme
Ġt ocs
ĠB Ãłr
Ġpen seu
Es tadi
ĠG ali
EN S
per o
gu ina
Ġic ona
ĠC resp
Ġ19 10
ĠSalam anca
Ġcom o
ĠEmpres es
Ġmoss Ã¨n
Ġt Ãł
ot ÃŃcies
ĠCap devila
y Ã³
Ġca f
Ġren aix
ĠCaixa Bank
labor ant
labor adora
Ġsop rano
ĠD ay
d els
ĠD rac
Ġaproxim ada
ĠF ita
Ġins ectes
Ġajud in
americ anes
ĠShak espeare
g ement
Ġgen oci
ox igen
vi vÃ¨ncia
ins piraciÃ³
ĠCre iem
ĠLoren zo
ĠGo ya
Ġcorrec tes
Ġcist ella
ES C
Ġbas cos
iss eny
Ġmol l
Ġcaracter ÃŃstics
Ġpreocup at
Ġdub t
Ġculmin ar
du la
vi ta
Ġoc ell
Lle ida
Ġrecoman at
Ġin visible
Ġress altat
Ġme mb
Ġele var
Ġfurgon eta
at ers
Ġdific ulta
Ġan iria
ĠF it
ĠG usta
Ġcine asta
Ġsuposa va
Ġmeridi onal
ĠSard enya
Ġpap all
ĠB L
on do
rque z
ve i
acos tu
er ro
tu t
instru ments
Ġw i
Ġmanifes ten
ĠM ini
m itj
ĠP ren
hab itual
ĠÃ²b viament
ĠPro t
ĠG ard
es itat
pres s
Ġsatisfac tÃ²ria
Ġex tin
Ġlli mona
Ġven j
ĠRec up
ĠM ia
ĠPh ilip
Ġrend ir
Ġsetman ari
Ġespon tÃłnia
Ġingress at
ac orda
AC IONS
im i
eri als
Ġparticip Ãł
ĠApro f
Ġcass ola
p Ãł
Ġdol ents
Ġalimen tari
Ġsalud ar
ric e
Ġvalor arÃł
ĠAM B
ĠencapÃ§al at
ĠBl og
hos tal
li ps
Ġpe atge
Ġesc ull
ĠCal ders
ĠAc tiva
Ġpoder osos
ĠMon tes
Ġcaracter itzen
Ġvig ilar
ĠAu gust
Ġal ber
ĠFor Ã§a
Ġparlar em
ke y
Ġcerc ant
Ġsimpatitz ants
ĠEn titats
pec tiva
Ġpens es
ĠM it
ĠMar gar
Ġindirec ta
os ar
Ġ19 25
Ġred ist
Ġprecipi tacions
cin g
ĠArrib a
incid Ã¨ncia
acomi adament
ap un
ĠAr mengol
ĠCh icago
Ġdesit gin
Ġhom Ã²nim
Ġquad rada
intro duir
escolar itzaciÃ³
ex propiaciÃ³
ĠAc te
Ã§o is
ĠD J
ĠPu j
Ġde tri
ent usias
Ġev itat
Ġelec tricitat
ĠP uc
ĠIn Ã©s
Ġpersegu eix
Ġperdu ts
ĠVic ens
ĠDefin iciÃ³
ri ons
Ġar omÃł
Ġon ades
ĠS tudi
Ġem ergÃ¨ncies
ĠC H
Vall Ã¨s
X X
ec able
Ġarr Ã²s
Ġre vÃ©s
G ener
Ġren tar
e tar
Ġfran ges
Ġprevis ible
Ġconvi uen
Ġdomici lis
Ġnasc uts
ol t
Ġ19 26
ĠGÃ¨n ere
Ġconstr uÃ¯
l era
ĠM ort
Ġindic ada
A ju
ĠF M
ĠM Ã²
ed ad
Ġmor o
Ġt emÃłtics
Ġsac se
Ġmar ins
Ġtin guis
amp liar
Ġtri an
ĠAnt Ã²nia
Ġprior itÃłria
ĠMÃ¡ rquez
Ġc any
ER T
Ġcontin guda
ĠFranc esa
Ġat rop
Ġconsolid ada
Ġs mart
Ġtram via
aug mentar
Ġmar bre
h ard
Ġidenti ficats
i onar
ĠSegu im
tac les
ĠMun ic
' Â«
Ġaf luÃ¨ncia
Ġplan etes
Ġtranquil s
Ġse di
fi cia
ĠEn ergia
Ġarrib aven
lap se
ro ig
leg ir
ĠRa y
ĠF ent
ho ven
Ġcon reus
Ġsu ec
Ġpregun to
ĠPodem os
ĠMas nou
Ġincom pren
Ġllin da
Ġindemn itzacions
Ġres piraciÃ³
ĠtÃ¨r mica
Ġp Ã¨s
Ġmitjan it
Ġcal Ã§ada
odi citat
Ġsel va
Ġrepresen tava
y ol
ĠC is
Ġmot xilla
es fera
si onat
ĠElis abet
Ġacredi tat
ĠV inc
Ġ0 6
Ġlac tÃłncia
ĠMon toro
odi es
Ġp esa
all uny
Ġcons ist
Ġmal bara
Ġdeman o
p ens
Ġimpar tit
Ġdep endre
le da
evid Ã¨ncia
Ġcastell ers
Ap p
ĠcÃŃv ica
T ots
ĠB ella
Ġnutri ents
N osaltres
Ġservir an
ĠR ACC
fec tes
ĠV ac
Ġproc ura
Ġmig rants
Ġprop erament
at z
Ġt utel
ĠEx cel
Ġco hes
li o
Ġcontund Ã¨ncia
ĠC y
Ġ2 20
Ġa fers
Ġr al
Ġconform ar
Ġf ec
Ġcas als
Ġvi talitat
ĠEduca tiu
Ġpl Ãłstica
ĠSo fia
ab e
ĠHo use
Ġaccep tada
ĠJoaqu ÃŃn
Ġen ques
Ġfon dÃłria
ĠBat et
ĠAn ys
id ores
Ġad quir
iv et
Ġpolival ent
Ġbas en
ĠI na
ĠAd olf
il o
ut Ã²ria
Ġtri o
Ġson de
ĠTur Ã³
Ġcomp li
on in
Ã© e
op ol
Ġreconeix ements
UR A
ord s
Ġins ults
Ġp ul
essor is
ĠZ o
Ġassequi ble
ĠOc tubre
ĠP IM
ĠNo us
Ġindic ador
Ġavantpass ats
ĠInd Ãºstries
v ill
Ġdesenvolup in
Ġdist or
Ġcoc ciÃ³
Ġdial ogar
Ġdestin aran
Estudi ants
Ġdi guÃ©
Ġcor riol
h ÃŃ
ĠCh ris
ass ociacions
and ra
Ġcop iar
Ġo u
Ġmeravell osa
ĠBr uc
utri ciÃ³
esc en
Ġno d
B O
ub s
uc ra
ĠAudiovis ual
Ġmun tat
Ġe go
IL L
Ġess encialment
val idesa
hist Ã²ric
Ġde vo
Ġdiscrep Ãłncies
Ġperill oses
es g
Ġdesg ast
Ġcomp tant
on cel
tr en
Ġtan quen
Ġlla tina
ĠR TV
Ci U
ĠConstant ÃŃ
Ġtra um
ol et
Ġtin ta
ĠInform Ãłtica
k ers
aproxim adament
Ġco ves
Ġcat Ã²lics
Ġobli gades
Ġajus tat
Ġguany s
ĠLe Ã³n
ĠH ores
Ġmor als
Ġva ja
ĠAc adÃ¨m
UR L
Ġseleccion ades
Ġp eb
Ġveri tablement
Ġinterp el
au ra
cicl opÃ¨dia
ĠTrans ports
ĠAss ump
Ġrecla m
or ciÃ³
ĠCa va
Ġide olÃ²gic
Ġenseny at
ĠPrem sa
Ġrevel aciÃ³
ĠclÃŃn ic
ĠAdre Ã§a
Ġcul ler
ĠV Ã¡zquez
ĠSal le
Ġprogres siÃ³
ĠAndre a
ĠDef ens
R eg
Ġradic alment
ĠgastronÃ²m ic
Ġlamen table
Ġap osten
Ġlle var
Ġretor na
de o
gar a
ĠCamp os
ĠveÃ¯ nals
ar x
ades a
Ġinterpre tada
ĠR al
Ġap te
Ġvid res
Ġno vena
ĠS ot
ĠManc hester
Ġseg ones
Ġboti farra
ĠS k
Ġt witter
Ġll uir
Ġfacili tades
Ġcomanda ments
ĠS ou
end eutament
gan istan
Ġviat ja
cis siÃ³
ĠJu dicial
P I
Ġde mag
Ġrelacion en
expres sar
Ġapos tant
! ).
Ġad orm
Ġd rÃłs
Ġdom inat
ĠDirec tora
Ġutilitz em
ĠL ÃŃnia
f urt
esc ombraries
Ġtes tament
Ġcompar Ã¨ixer
especi alment
identi ficar
Ġcob erts
en ri
Ġrecomp te
Ġab asta
ĠdidÃłc tic
Ġne f
Ġob ren
Ġvol guÃ©s
ĠterratrÃ¨m ol
Ġal tura
Ġtreball in
Ġpos ta
Ġmec Ãłnic
Ġconfess ar
Ġreflexi ona
ĠFor ces
c m
anopar lants
Ġfals os
ĠMill o
Ġestere otips
L os
Ġag Ã¨ncia
c ert
x ÃŃ
Ġartes anal
all at
AR T
ĠEti quetes
ĠRespons able
Ġun Ãłnim
ul ÃŃ
dic ar
00 00
Ġmanten ia
Ġ Ä
ob ar
ĠportÃł til
Ġdecid eixi
Ġd og
Ġ19 21
Ġvalor en
Ġfir mar
Ġcontrac tats
Qu i
Ġafirma cions
Ġreg eixen
Ġesti p
Ġ19 12
ĠDes pÃŃ
Ġemprened or
Ġem er
Ġprohib ida
Ġatre ure
Ã¡ Ã±ez
en et
ĠMil let
ĠAr tes
ĠCO VID
Ġcrom os
Ġconten ta
Ã ´
avor tament
if am
Ġesc ric
Ġmot ll
QU ES
pl ana
alitz arÃł
ĠÃł via
tin at
Ġafirma va
ĠV era
ĠF ull
ĠMitj a
Ġefectu ades
ĠS tra
Ġasi Ãłtic
Ġsal vaciÃ³
Ġignor Ãłncia
Ġrecoll int
Ġassi m
Ġpreci osa
Ġfet ge
tori es
Ġenten ent
Ġ19 27
Ġro dat
ĠP ana
Ġmira dor
Ġqu ÃŃmiques
ÃŃn ies
Ġrevis ions
Ġpa tis
Ġali ances
Ġmassi u
M o
uc rist
ĠCon cepciÃ³
Ã²g n
Ġagroal imen
ta ge
Ġav anc
11 11
ĠAqu ells
Ġpern il
ĠPar rÃ²
Ġedi tada
dem n
ï¿½ ,
Ġproteg eix
Ġmat emÃłtic
En titat
ci Ã¨ncia
oss ar
da vall
ER O
Ġexpl o
Ġal coh
IB I
expres sa
Ġcontes tat
Ġ/ /
of ensiva
Ġsor tim
eg rÃŃ
ĠAu x
Ġnota blement
F ranÃ§a
Ã²g ic
ĠJa cin
ĠPl anes
ĠV ega
Ġx iu
Ġcompta ble
Ġl en
ia ciÃ³
Ġdec orat
ĠPu erto
ĠCa mar
ad oc
ĠG io
Ġcombusti bles
Ġdesp en
pro pi
D T
os itats
Ġe fÃŃ
eg ats
Ġrec te
Ġpros tituciÃ³
ĠRe forma
Ġbomb olla
Ġres ign
Ġtemp les
Ġrespir ar
Ġrela xar
alt h
Ġclaus ura
Es pa
Ġconten idor
co di
Ġent ri
Ġintro dueix
Inf ant
ĠGro up
ad iu
Ġdu ri
Ġge ogrÃłfic
Ġvac una
ej e
Ġro ure
c r
ĠA gra
en for
ran ya
Ġintens ament
od or
ĠB ap
Ġm ori
ul in
ĠgrÃł fiques
D S
ĠC ra
Ġpseud Ã²nim
ĠA viat
Ġpa tim
Ġbas ar
Ġb rot
ĠLla ch
Ġfla mes
establi ments
Ġagrada va
ĠT rof
Î ±
ĠM Ãº
Ġinter ÃŃ
Ġventil aciÃ³
Ir landa
ĠAprofi tant
Ġp df
B ar
B a
Ġpo ta
Ġen ginyeria
Ġto tals
ĠCar od
tina cionals
Ġf Ã³ra
Ġinclo gui
investi gador
ves a
Ġprivilegi at
Ġcons ign
ĠCom arques
E ra
Ġindisc utible
Ġdeman i
dre m
ĠJac k
Ġsup l
Ġmo cions
Ġn iu
ur Ã©
ĠDeix a
Ġsorg eixen
ĠR on
Ġesde venen
Ġpopular ment
Ġmoder ada
ama ga
Ġuni forme
Ġs tar
ĠCon go
ĠdÃ¨ bil
Ġven uts
Ġsol u
Ġterres tres
ex portaciÃ³
ĠCon g
estat ut
ĠResta uraciÃ³
Ġmira cle
ĠZel anda
Ġpres ten
ob ren
ĠR aquel
gi en
R O
Ã²f ol
ĠTÃ¨cn iques
ĠVi etnam
pl Ãł
adis sos
Ġdivul gar
Ġconcedi des
ĠGu ard
ĠperiÃ² diques
U AL
ĠC he
Ġ[ +
Ġaustr ali
Ġfor ti
Ġcu iner
Ġubic ats
Ġ0 4
ĠS ig
Ġimp rÃ¨s
ĠBisb at
Ġesta mp
ĠCon gress
Ġprove ir
Ġpr udÃ¨ncia
alitz i
ol lar
Ġes gar
Ġdecid irÃł
Ġaugment en
Ġv ec
Ġmar rÃ³
Ġmor ÃŃ
Ġjap onesos
ĠIdenti fica
ĠD ub
Ġacab o
bil itzaciÃ³
Ġvergon y
Ġconfi at
c ter
Ġpas tor
Ġparticipa tius
Ġm ud
ĠEx erci
Ġprogres siu
Ġdegus taciÃ³
ĠD aurada
ĠfÃ²r ums
Ġespeci ficacions
ĠSubs cripcions
ĠReix ac
ĠAmp osta
Ġbas ca
adop tar
si blement
ĠAmb dues
Ġexp and
aju des
Ġallot jaments
Ġse ient
Ġdeix Ãł
Ġat ents
Ġgaran tida
Ġfemen ins
z Ã¡
di cionalment
ĠBar Ã³
ÃŃ r
ÃĢ ngel
on eta
Ġdes dob
Ġorg Ãłnic
ĠA T
Ġemo cionals
Ġcompromet en
Ġan otar
ĠromÃłn tic
Ġocup ava
C entre
ĠCr Ã¨
Ġcin emes
Ġpar en
Ġcans at
ĠexplÃŃci tament
Ġnit rogen
Ġins tructor
L P
otera peu
et ti
Ġitiner ant
Ġsubvenciona bles
ĠW ag
ener ife
Ġllei altat
En ginyers
Ġpuntu alitat
p it
ti ra
Ġincid ent
Ġdescriu en
expl osiÃ³
Ġva gues
Ġregistra da
ĠIs lÃłmic
Ġsorti ran
ĠC RE
IN S
ĠS OL
fi es
ĠinÃº til
er res
Ġcerc ador
Ġpancar tes
Ġdirig int
ĠRec orda
Ġb otes
Ġculpa bles
r ela
Ġc rÃł
maz on
ĠAl m
Ġperi odicitat
Ġdespro por
Ġnobles a
ĠE laborar
Ġcap davall
issi onat
Ġpor tals
acab i
Ġcorrespon dre
Ġfix os
Ġc edi
Ġpret emporada
Ġclaveguera m
ant o
ĠCan igÃ³
Ġvenci ment
ĠFran ca
Ġbru ts
Ã¨ trica
ĠLlu Ã§
Tarra gona
en al
1 50
e arch
Ġaf us
ĠCastel let
ĠCa mer
Ġbas t
Ġconcep tual
Ã³rm ula
Ġpass adÃŃs
Ġreemp la
Ġrep assar
Ãº cia
ĠN il
Ġjusti ficant
Ġc inturÃ³
Ġser en
ĠIN F
ĠcÃŃv ics
Ġsegu ides
ĠHist Ã²rica
Ġconfigu ren
Ġinform ant
l om
ĠCom enÃ§
Ġtrib uts
Ġpi la
Ġinj ust
institu cions
ĠBurg os
ĠPublica cions
ĠC T
Ġcon val
198 8
ĠTrin itat
Ġan ces
ĠLl um
Ġse diciÃ³
ĠT ossa
Ä ģ
Ġlli gades
ci tÃłnia
Ġsosten ir
ĠtÃ²p ics
Ġpic ada
idat Ãł
Ġnomb rÃ³s
ont ologia
ĠFort uny
Ġ errades
ĠJes ucrist
Ġsub til
Ġmul tinacionals
ĠAn dor
Ġrepresenta tius
Ġsinc ron
Ġcent ren
ĠCar ri
exc onseller
Ġrecal cat
Ġdis sim
Ġexpuls at
ĠM ental
ĠM ina
ĠLl otja
ĠPort o
ĠTrob ar
Ġcom et
him ne
ind ret
Ġsub contrac
ĠproveÃ¯ dor
Ġcas tany
isti ran
Ġan i
Ġfinal ista
Ġll ana
z Ã¨
Esper it
Ġcomp resa
Ġexc lo
itor al
Ġadjudic ar
Ġmaltrac tament
inaugu raciÃ³
O U
OS T
Ġatra ure
al ine
Ġcastell er
ĠM AC
ĠR EC
ĠTelec omunicacions
Ġarti ficials
Ġfal si
Ġdenunci ant
Ã©n cia
Ġcoll ons
ac o
Ġto quen
Ġtend eix
Ġdesign ats
Ġad dic
ici cle
ros c
Ġment restant
ĠVi quipÃ¨dia
Ġvo tant
oc eÃł
Ġp iv
ĠVic tor
Ġesdevin gui
ĠRec entment
n ab
ĠDis ney
ĠclÃŃn iques
en atge
Ġarrib aran
ĠGeg ants
n aciÃ³
Ġcanta utor
AV E
ap es
Ġbla us
Ġmo gut
Ġveg in
ĠVal verde
Ġenerg Ã¨tics
Ġse ients
ĠBÃŃ blia
Ġdefin ides
Ã²s tics
re ig
vid eo
A ustrÃłlia
ĠGu adal
se y
ex plic
ĠGas par
jam ÃŃ
Ġten or
Ġvul gueu
ĠMÃł rius
Ġmit ologia
Ġcom a
Ġrefor Ã§at
). -
Ġdol enta
Ġis lam
Ġprocla ma
econ om
Ġsignifica tivament
Ġ ombra
bac k
ĠVerg Ã©s
ĠE U
ĠBlan ques
Ġdetri ment
Ġde bilitat
aud it
ĠJug ador
ĠR ela
eric Ã²rdia
Ġpar eix
Ġges tora
al menys
Ġ0 5
mb ur
Ġint oler
ĠJa ime
ĠAl ÃŃcia
Ġaf ins
Ġconstruc tiu
ĠCap ÃŃtol
Ġpub liqui
Ġmin ories
us ions
Ġprot ector
Ġol is
at em
Ġencar ar
p al
Ġva ques
Ġfl oral
Ã² gra
ap liquen
ul ia
ĠH uguet
Ġalluny ar
Ġplan taciÃ³
atur ats
ĠRe alitzar
Ġcor ba
Ġfix ada
Ġdetermin arÃł
as hi
Ġvic erector
Ġrep ass
p ing
Ġinvestig ant
Ar tur
es barjo
ĠMor ales
Ġorgull osos
Ġhipot eca
Ġr ond
Ġefectu ada
ad ella
ap el
ĠRic o
imp osa
ut o
Ġmat riu
Ġalliber at
Ġvin guin
Ġrati ficar
Ãłb ia
Ġseg ment
Ġcomp tem
dipu tats
ĠH ans
Ġdisseny adors
Ġfemin istes
Ġdeixe bles
Ġjut gessa
Ġsoter rani
ĠsuÃ¯ cidi
Ġsepar ada
Ġportu gues
om od
ĠRig au
Ġmusul mana
T erra
Ġmera vella
Ġsocial dem
Ġadap tades
ĠAr que
Ġin tes
Ġcor b
b ro
Ġdesa fi
ĠN in
ĠMer kel
Ġceleb rant
Ġacomi ada
ĠmarÃŃ tima
Ġhor ts
ĠC RA
ĠRac Ã³
o ver
Ġperfec tes
ĠV ine
ĠCer tament
orden anÃ§a
ar quebisbe
Ġautor itzades
ĠOr d
Ġescri via
Ġbat eries
Ġaband ona
N om
ĠPa gesos
Ad vocats
Ġcar ena
Ġac trius
asse mbla
p otser
Ġcontin ental
Ø ±
ĠSal om
Ġrecop il
ĠIsa ac
ĠH orta
Ġdelic at
Ġma ca
Ġdegus tar
ĠM og
Ġcons istirÃł
ĠS ix
Ġdes vinc
Ġtur ista
s indic
Ġamp olla
ĠBB C
Ġca ti
ÃĢ lex
ĠCas tillo
EI X
Ġsuccessi us
Ġben Ã¨
ĠCar olina
p an
as ter
ĠcÃ¨n tims
Ġcon tar
ven ient
ĠÃłl bums
Ġesg la
Ġra ig
oca ments
d ing
Ġrec lu
Ġar ticular
ol iciÃ³
C l
Ġjusti ficades
Ġcrea tives
Ġcavall ers
Ġar reb
ga z
Ġcl or
ĠdemocrÃłtica ment
Ġdipos itar
Ġmarc ant
ĠPer alada
Ġtorn o
Ġag ro
adap ta
ĠLaie tana
ess oria
Ġpec at
expl oraciÃ³
per siÃ³
itz adors
Ð ½
Ġvari ades
Ġem esos
Ġconc retat
ĠCient ÃŃfic
uit e
qui o
Ġll op
Ġevid Ã¨ncies
Ġd ren
Ġcri anÃ§a
Ġconven ciment
Ġdiagn osi
Ġirregular s
ON S
Ġregul ador
Ġpenitenci ari
Ġtrin x
J os
Ġdef unciÃ³
Ġ: :
ir ar
Ġb ul
ĠCa Ã±
Ġe ixa
Ġsu ficientment
ÃĢ RIA
ĠPar es
Ġrestric ciÃ³
Ġeng egat
Ġperman entment
ĠMar quÃ¨s
ĠParrÃ² quia
ĠU TM
Ġsol itud
Ġrevel at
ĠEn trada
ĠL ola
Ġsoci ocul
ĠPar a
Ġramad ers
ĠCal der
Ġinfec cions
Ġinform ats
an z
eg ant
Ġconcent ren
ĠdomÃ¨s tics
B L
om o
Ġperp et
Ġvenj anÃ§a
Ġencap Ã§ala
âĢ ĭ
equ itat
ĠL iter
ĠNat urals
till eria
Ġpant Ãł
ĠT E
Ġincre ments
ĠmolÃ¨c ules
Ġocup acional
ĠB ones
ĠG ord
Ġbusca va
Ġevolu cionat
ĠÃŃn teg
ĠautÃ¨n tics
Ġdisc ussions
Ġop ina
Ġlider ada
a pren
Ġdos sier
f ex
ĠA us
esc om
Ġregla ments
Al fons
ĠB anca
Ġfrus traciÃ³
Ġprodu irÃł
Ġbog eria
ĠTra jana
Ġem in
Ġdes viar
ĠD own
Val Ã¨ncia
av in
ĠDic cionari
Ġt emÃłtic
ĠE mb
rÃŃc ola
Ġtransvers als
Ġass is
Ġper form
vi ques
ali anÃ§a
ĠJon quera
ĠSer an
Ġadap tacions
Ġtem or
at urar
Ġpresen tador
Ġopera tiva
Ġre vet
ore da
Ġam os
Ġprogram ada
Ġvol ts
Ġprom Ã¨s
af avorir
Ġtel esc
ĠJohns on
Ġin tac
par able
lo vÃł
Ġvertic als
Ġrepar tides
Ġcom itÃ¨s
Ġad ultes
ros sos
en si
th ur
Å į
Ġtras plan
UN YA
ill ar
Ġmod es
Ġfonamen ta
Ġgar atge
Ġcre arÃł
r ina
Ġresta blir
Ġco ordina
ĠRa h
ĠGran s
r ors
Ġne ws
G R
ad her
Ġcontinu ava
ĠAb d
Ġretar ds
A metlla
Ġaprofi tament
Ġpa v
Ġexpos itors
Ġdesenc ad
Ġpot Ã¨ncies
Or de
l osa
Ġacab aria
C H
ĠR D
Ġaju di
ĠautonÃ²m ics
ĠBri tÃłn
l og
min ar
inicia tives
Ġad jac
Ġconegu i
Ġcomp uls
lovÃł quia
Ġseny era
Ġcomprom esos
ĠSeny ora
Ġpu ta
Ġsard ana
esp at
Ġveter Ãł
Ġoper ar
tal in
Ġ19 13
Ġhero is
te dat
Ġgaran tint
y c
Ġopos at
ĠAlem any
ĠT enerife
il er
Ġofer ia
Ġtracta des
Ġpatron als
Ġacla par
omun icaciÃ³
ĠPa ti
Ġdipl oma
Ġperjudic ar
Ġt oss
ht ml
Ġtreu en
ĠCon venciÃ³
irÃł m
Ġviol ent
ĠAl umnes
c urs
M us
ĠGerm ans
ad ir
od y
an ci
ĠNeg ra
P M
Ġar rodon
ĠComenc em
Ġpres tats
Ġexcessi va
Ins trucciÃ³
en gan
ĠT emporada
Ġlliga ms
At lÃłntic
Ġdesp lega
Ġsim ulaciÃ³
ĠGu ti
Ġcurt metratge
Ġuni form
Ġexcessi vament
Ġsemif inal
âĢĵ .
encon tre
Ġorganitz ador
ĠPr Ã¨
Ġandor rana
mb er
lus tre
Ġmani obres
Ġlec tora
Ġcomb inen
ĠMal al
interpre tar
Ġli qu
fre do
Ġass essors
Ġentre m
ob i
ĠRa Ãºl
camp ada
ĠF und
Ġelo gi
Ġaccel erar
Ġsub grup
Ġdesemb oc
ĠpÃ²l issa
ĠNi k
Ġempa tar
Ġform alitzaciÃ³
Ġvis ib
ĠCON S
ĠW a
F a
Ġates os
Ġcans ament
Ġcap ellÃł
Ġcrea tius
Ġjard ineria
Ġdi Ã¼r
Ġc anya
Ad vocacia
ĠHa w
Ġcarp eta
Ġins tar
Ġbac teri
Ġfal tava
ic es
Ġrecomp ensa
Ġanticip ada
ent ra
ĠV eure
Ġconc lo
or um
Ġpre gÃ³
Ġbar ca
do va
Ġcompra dors
Ġvet lla
tre t
ĠJard ins
Ġproduc tius
Ġorganitz ativa
Ġlluit en
ĠO vi
Ġdismin uÃ¯t
Ġaler tar
Ġestad ÃŃstic
Ġapren en
oc ells
ĠN ig
Ġcan c
Ġtrac tarÃł
ĠProm oure
Ġresponsab il
ass ades
ni e
ĠR eci
ĠHong ria
ag s
3 40
work ing
estr als
Ġhaur Ãłs
Ġcons istir
Ġun ifam
amb dues
ĠRes idÃ¨ncia
Ġexerci nt
is ma
ĠLluÃ§ anÃ¨s
Ġsolid aris
Ġcombina cions
Ġinspi rada
Ġconsecu tives
Ġpropici ar
len ari
ĠTen nis
ĠCÃłn cer
Ġagricul tors
Ġtir at
Ġdesb ord
Ġintercan vis
Ġmatin al
Ġrequer eixi
c oll
ĠCom es
Ġ19 16
Ġform ulaciÃ³
ĠF ir
ĠIn fer
ll oc
Ġine quÃŃ
Ġinvesti gat
Ġgen oll
ass istir
Ġ7 50
Ġpoder osa
Ġrod Ã³
Ãłn dia
ig Ã¼
ub ert
Ġser via
ĠmÃłr tir
egem onia
ĠGab inet
Ġxi quetes
ĠterÃł pies
lle ial
Ġabra Ã§ada
p ori
ĠL and
Ġmantin dran
ĠB ud
Ġobjec tiva
Ġdes Ã¨
- )
ĠC le
Ġacc edeix
Ġin des
ĠF ire
N E
acab ament
Ġcinemat ogrÃłfic
ĠlÃº dic
ĠSuny er
Aut onomia
ĠB lau
ĠContempor Ãłnia
ĠM ilitar
Ġprogram ats
Ġs obra
Ġfil tre
ĠLlen gÃ¼es
Ġguitar rista
Ġesc assos
acab en
Ġdesafia ment
Ġoc e
Antoni o
ĠBol onya
c ades
Ġan alitzant
Ġinscri ta
Ġt ons
Ġtorn aria
Ġdetec ta
Ġcondi cionada
ĠEns enyament
ĠN ep
Ġbra sil
ks on
van eres
tras burg
Ġex Ã¨rcits
Ġpal Ã¨s
Ġorgull Ã³s
ĠlÃŃquid s
Ġquotidi anes
Ãłb ria
Ġargu mentar
Ġimpu tat
ĠRibag orÃ§a
Ġs r
Ġpre var
co re
Ġins pira
ĠE UR
Al coi
bu ixa
ĠTru eta
' '.
Ġb Ã¨stia
ĠvÃŃ dua
ĠsÃ² cies
Ġc ep
Ġafron ta
ĠRod oreda
ĠTrof eu
ĠS AL
bl anca
Ġimp ecable
Ġconsul toria
ei ro
v uit
pu ig
ÃŃ rez
Ġfix aciÃ³
Ġespera ven
ĠCar la
ĠB lo
Ġher Ã¨ncia
ÃŃn d
Ġurban itzacions
ĠGal eria
atg eria
ĠAl l
ĠWh ats
ĠT Ã²
ab ra
esc or
u tors
Ġass ec
Ġa Ã¨ries
Ġdeix alles
Ġrefer eixen
ĠB ien
Ġon cle
Ġpat ent
espec ulaciÃ³
V i
Ġs Ãºper
ÃŃn guez
m ita
ĠC OL
us se
Ġemmagatzem ar
Ġi mb
Ġaconsegu im
ĠÃ²p tim
Ġdon ades
Ġm ont
Ġan Ã©s
et ria
Ġceleb rem
Ġen quad
ĠG erv
Ġtrac tÃ©s
g Ã¼
ĠforÃ§ osa
Ġjo i
Ġgra ella
ĠMarc os
ĠtÃŃ piques
Ġsal ts
Ġprocess ats
Ġb eb
ĠCa fÃ¨
ĠLe e
Ġalter aciÃ³
Ġn Ã²
Ġpun tes
enginy er
ĠIna ugu
Ġest ricte
Ġtec lat
Ġ19 11
Ġid oni
Ġcorrec cions
Ġfla ma
Ġpa usa
Ġdelic ada
ĠRub io
ĠTec la
V egeu
Ġviol Ã¨ncies
Ġbac allÃł
Ñ Ģ
Ġimp unitat
Ġatrib uÃ¯t
Ġal Ã§ar
ĠV egeu
Ġin undacions
ĠC CC
Ġconnec tats
ĠPlan eta
Ġcos tarÃł
Ġcal a
Ġf alles
est ona
ĠSitu at
Ġalien es
Ġabund ants
Ġp iss
Ġsens ors
Ġhon gar
ĠE rasmus
Al g
Ġgerm anor
ĠBallester os
U ll
ĠA i
Ġinno vacions
ĠTra ves
ĠAle ix
ĠF ires
Ġtind rien
Ġform ades
ĠWillia ms
ĠBÃłr bara
Ãłn tica
re i
Ġh arm
Ġmig raciÃ³
es tra
ĠÃŃndex s
Ġ190 8
ic er
Ġtip ologies
Ġal berg
Ã¨ gies
ro ja
ĠRe ich
Ġb alla
Ġsorpren ents
Ġno ci
ure m
ĠC Ã©s
Ġb uta
ĠAb u
Ġio ga
ĠCoincid int
Ġ10 5
Ġsur tin
Ġbibli ografia
Ġinfer mera
Ġsolem ne
ĠEx isteixen
quÃŃ mica
ard Ã³
ĠRespons abilitat
Ġdestaca ble
ĠtÃ¨cn icament
imp lic
ĠManten iment
h orta
Ġafec tacions
ĠÃģlvar o
ĠclÃŃn ics
Ġpert oca
N U
Ġcondi cionament
Ġbas ÃŃlica
al Ãº
ĠRef ugi
Ġpr endrÃł
ĠRÃł pita
ĠRodri go
Ġfos ques
ĠBolÃŃ via
Ġpu gen
Ġmatin s
ul tra
Ġcap ita
mar quen
Ġf allar
Ġobserv aciÃ³
Ġqueix ar
erm o
Ġir ra
Ġb os
Ġafec ti
Ġexpl ÃŃcit
hero i
Ġneb ot
Ġpres sionar
organitz acions
Ġorganitza tives
ĠEst her
ĠIn tegra
ĠmamÃŃ fers
Ġajorn ar
G P
ĠEs par
ĠCas ano
on ÃŃ
Ġne er
Ġintens os
Ġobstac le
Ġsab adell
ĠPe ters
Ġdescri ta
Ġio gur
Ġ20 30
Ġassessor ar
p all
ent em
Ġofer ts
ĠFru it
Ġ17 00
Ġrecon ci
Ġaband onats
Ġcaigu des
g ols
ac tors
ĠR ita
ĠW ert
Ġtir ant
ĠRen aixement
un ir
Ġ19 15
Ġpropor cions
Ġboni ficacions
ĠPS PV
obli dar
def in
Ġins tants
ĠCamp ions
ĠfreqÃ¼ Ã¨ncies
ĠRam ÃŃrez
Ġdepend ent
n Ã©
ĠÃį n
Ġfran quÃŃ
Ġembl emÃłtic
Ġpassar el
ĠS ANT
ĠO ne
ĠU craÃ¯na
te a
Ġas fal
Ġmons tre
Ġtrip ulaciÃ³
tic al
ĠAl cover
Ġanim aciÃ³
ĠL ar
ĠObjec tius
ob e
ren y
Ġhospital ari
Ġv ina
Ġbi olÃ²gica
MIN IS
ĠAv anÃ§
ĠMo ham
ĠPod ria
ÃŃ viques
Ġex acte
Ġvinc ular
ĠCel oni
da y
Ġafir mant
incor poraciÃ³
tent ri
Ġ Ù
Ġcondi cionar
Ġh orm
Ġa i
Ġen um
ĠBern ab
om er
Ġll enya
Ġc era
Ġdes infec
ĠLli brer
Ġeconom ies
I v
Ġrema tada
ĠCor pus
Ġpe tar
Ġsuper ficial
Ġandor rÃł
Ġcondi ciona
efec tivitat
ĠDu bl
Ġgel at
est o
ĠVal or
Ġdu tes
b et
Ġobs essi
Ã ª
Ġan Ãłvem
cab a
Ġconjun tes
Ġor als
Ġde por
Ġneolib eral
E gipte
Ġanim a
Ã²graf s
ĠCorre dor
ĠV ela
uc le
Ġdon Ã©s
Ġlla pis
ĠCrist Ã²fol
ĠK ur
Ġcon duÃ¯t
An tic
Ġin hib
Ġequip at
Î ¿
Ġindi ferent
Ġper a
Ãłs er
Ġcre gui
ĠCiutad Ãł
Ġg or
l ines
ĠBe et
Ġconcer tats
ĠAc ompany
Ġrob at
ĠE ix
Ġviol oncel
c ular
Ġins ul
ĠAn glada
Ġpreten siÃ³
ĠelectrÃ²n iques
Ġalter ar
Ġc itats
ven s
Ġdeix aran
ĠSant uari
on era
Ġbas tir
Al ba
Ġpales tins
tÃŃ fex
ĠD IS
Ġpic ar
Ġgreix os
Ġes tirar
Ġsupervis ar
ĠCATAL UNYA
ap od
reu ament
ĠAC T
Ġir ri
in capacitat
ĠE ric
ins cripcions
ĠCol or
Ġenri quir
Ġapar enÃ§a
Ġrat xa
m y
Ali anÃ§a
o ut
ĠJ ordÃł
Ġresid eix
Ġrefer int
mel Ã³
ĠPar ets
ĠPra ga
ĠV igo
Ġconegu in
tu ro
ĠS CC
Ġesmen a
ĠEn c
Ġbri gada
ĠLa b
Ġcal ci
inici aciÃ³
Ġn an
Ġenregist rar
ar que
im migrants
ĠTec hn
ĠF Ãłbrica
Ġbo ig
ĠF A
ĠSab at
C L
Ġc allar
Ġinclusi va
ĠCons ta
Ġregistra des
Ġm Ã¡s
ti bilitat
ag en
Ġcanvi arÃł
ĠGra du
any Ãł
Ġesc lar
Ġdes til
Ġr ub
Ġafeg eixen
int endo
Ġemp ad
es tres
as il
Ġompl int
Ġplu ri
Ġeleg ir
ogra ma
ĠJ en
AC T
ĠH id
Ġinter anual
Ġre posar
ĠT emple
Ġverm ut
r un
eri da
Ġp alla
ĠL una
di d
ĠMunt Ã©
ĠMon torn
ĠFran Ã§ois
Ġgan ivet
id ents
e ib
min aciÃ³
tal isses
Ġimpu tats
ant rop
Ġdes agrada
ĠBor bÃ³
ind ustri
ĠexplÃŃci ta
vi o
Ġreb ia
Ġactu alitat
ic ular
Ġapar car
Ġespeci fica
gall Ã³
eny or
Ġal le
tr y
Ġcont rover
Ġfacili ti
ĠGeg ant
ĠFerrocar rils
Ġexc ed
Ġremun eraciÃ³
Ġab at
Ġfoto volta
ĠF Ã³rmula
ĠÃ ĵ
Ġengany ar
Ġ24 0
E qu
Ġtendres a
il ater
T ra
Ġvi venda
ĠCar mel
m und
Ġocup acions
ĠRet orn
mar a
Ġmaj ories
Ġdocumen tada
Ġd ota
veni ents
sion isme
ĠLlen gu
Ġmel odies
Ġha ig
ĠM am
Ġcontrov Ã¨rsia
Ġsign en
Ac tu
Ġemp rats
equival ent
Ġvin dran
Ġdisting eix
Ġcurt metratges
ir at
Ġb oles
Ġsot meses
Ġcul tiv
min g
u an
ac ÃŃ
Ġconnec tivitat
Ġexerc eixen
ĠB uda
Ġprepar ades
ob riment
ĠSus anna
ĠF ord
tin guts
Ġta ques
it os
ĠTim e
Ġvul gar
osten ible
ĠUr banisme
mat erial
Ġord ena
esca cs
Ġrepe tit
Ġsalv atges
int on
Ġcompar tits
uti li
ĠP rÃ²
Ġpri ori
Ġapar ent
rot ecciÃ³
ĠJ ones
Ġdem Ã²crata
ĠClaus tre
Ġexisteix i
Ġpass adissos
Ġes ten
ĠS mart
obs erv
Ġtermin als
Ġcompeti tius
Ġalem anyes
op l
Ġpo us
ĠPres enta
Ġper Ã³
Ġentre gat
Ġmel odia
Ġprolifer aciÃ³
Ġencer tat
Ġn us
Ãłu dio
al le
Ġadequ aciÃ³
ĠAju ts
Ġlla tino
AR S
Ġdisseny ats
ĠV eri
Ġtram ita
Ġconvid en
Ġquotidi Ãł
Ġin adequ
ĠsuÃ¯ cid
ĠX ir
Ġocup ades
ĠFlor Ã¨ncia
ĠFundaciÃ³ n
ĠComun itats
apro pa
Ġsuccessi ves
Ten im
C aixa
Ġpotenci alment
Ġplen itud
Ġun ida
Ġcob la
ĠSER V
Ġ omple
Ġti ro
ĠC eb
Ġperf um
ĠSup erc
ĠJ ava
ĠSub venciÃ³
ĠIma gin
Ġobten int
ĠCro Ãłcia
Ġman eig
D O
ad y
ĠN atur
r iss
ug os
Ġconcent rats
Ġher b
ĠÃºltim ament
ĠrÃ¨gim s
ress in
Ġamp lis
Ġjub ilats
ĠK y
Ġpertany ia
L o
2 50
ĠDel gado
ĠB ran
Ġpir ates
UC IÃĵ
E vangeli
dimen si
vergon y
Ġlliur arÃł
in k
Ġal a
Ġrepro duc
Ġde duir
imp rÃ¨s
z za
ĠRecon eixement
Ġser ralada
ĠS Ã¨rbia
ÃŃs ia
Ġbon ics
gram unt
Ġtrof eu
Ġpar ents
Ġpu jades
Ġvalor ada
ĠÃł pat
Ġrod ones
Ġbloque jar
R I
tal ia
Ġramad era
Ġpre di
Ġmon ogrÃłfic
ĠLla c
ĠaÃ¯ll ats
ĠPeriod isme
Ġnega tivament
Ġver edicte
autor itza
B N
Ġfil tres
ĠrÃ¨ plica
im at
Ġsugger ir
Ġimpl icacions
Ġprefer eixen
enti citat
infer meria
ĠT on
ĠB M
ĠPregun tat
Ġpot encia
ĠSus ana
egu r
Ã²g ens
Ġcomple tes
Ġin seguretat
f ol
ur des
Ġequip ada
A ll
Ġfem elles
Ġs emÃł
ens aciÃ³
Ġprecis at
Ġprojec ta
Ġdistribu eix
ĠV o
ĠM ada
Ġremod el
Ġesbor rar
Ġfaci s
Ġlla cs
ĠFranc Ã¨s
Ġcomun iÃ³
isc os
Ġdeci dim
f ant
Ġx imp
Ġsom ri
oss ada
Ġmol esta
ĠYou tube
ĠSelec ciona
Ġpu gueu
Ġvil es
ĠNom bre
Ġdesit gen
Ġcar di
Ġx emen
ok ing
ĠBri gada
Ġpromou en
s ta
ĠProt ocol
ĠBat lle
Ġintent em
ĠMol ta
Ġinterloc utÃ²ria
Ġpron Ã²stic
Ġvo tada
eric o
Ġguard onats
Ġparticipa cions
ve z
Ġin und
Ġassegu rances
Ġdiscul pes
Ġg Ã²tica
esde venir
ĠhÃłb itats
Ġab orda
Ġsupervi vents
Ġmix t
m ia
ĠLuc as
Ġincompa tible
j ard
Ġcompar at
Ġafric Ãł
Ġs opa
lici tin
P T
AD E
ator ga
Ġpob la
ida ble
enc ert
ĠDis posa
ĠBus iness
ĠTermin i
ĠS tu
Ġtrob alles
Ġdors al
Ġre tenciÃ³
Es ta
Ġdevo ciÃ³
Ġquali ficada
ĠBeet hoven
tur ats
Ġenamor at
Ġpla ga
ĠLl op
ĠS un
ĠB Ã¡r
ĠO ut
Ġ orn
end aris
ĠQu ad
Ġespanyol ista
B er
Ġsub missiÃ³
ĠMa Ã§
ĠMari e
ĠR EG
ĠAr ti
Ġenvas os
Ġj es
Ġcol p
Ġprecipi taciÃ³
) ...
ĠA j
Ġprom ul
Ġcirc ulen
Ġprovoc ada
Ġ13 5
Ġval idaciÃ³
ĠCan didat
Ã¨ lic
Ġcontrac tacions
ĠM W
Ġmexic Ãł
qui er
Ġgesti onen
Ġrequer eixin
ĠIn cor
f un
Ġdon o
Ac tivitats
Ġsuper in
is lam
otecn ologia
Ġform aran
ke ting
Ġin acab
ir is
Ġbene ficia
af orament
ĠMan olo
ĠnÃ© t
ĠAcc Ã©s
ĠVill ar
O lesa
ĠAl ps
ofici nes
Ar c
ĠHel ena
amp lia
rot Ã¨cn
Ġbi olÃ²gic
Ġ190 5
omÃ¨ dica
Ġinten tava
Ġrob Ã²tica
Ġop inar
fica bilitat
Ġpol onÃ¨s
Ġencer tada
Ġpren guin
min istre
en carre
ĠChristi an
Ġp ig
Ġren uncia
n b
Ġfor Ã§at
Ġress altar
ĠR urals
ĠrÃł pides
Ġret Ã²rica
Ġ1 19
Ġet n
c los
g eres
ora blement
Ġfuncion ant
per t
ĠB alta
l ob
Ġ }
Ġl ents
ĠCar ol
ĠD j
Ġimp era
Ġocup ants
Ex teriors
ĠBl asco
Ġtrop ical
Ġgoverna mentals
EN A
Ġprivilegi ada
Ġrecur rent
Ġanar quistes
ĠEx plica
Ġcontra atac
Ġconeix ent
ĠFran ja
Ġconcer tada
ĠC reix
ĠP RE
ien cia
tor y
ĠMar ca
ĠEn lla
Ġh im
In fra
Ġes querres
il Ãłncia
ĠN Ãłutic
avia ciÃ³
Ġdit es
O K
Ġar mada
Ġrepresenta tiva
Ġnarra dor
enfron ten
h igiene
ĠC OR
Ġpal esa
m Ã³
in ho
Ġn y
gen era
Ġres istent
ĠPlan as
Ġpr ats
h s
ĠTe atro
implan taciÃ³
Ġb re
Ġbus quem
Ġra igs
Ġrecep tors
ĠpartÃŃ cip
e ves
as pir
Ġre metre
Ġreb i
Ġcomun itÃłries
Ġ190 9
Ġv alles
Ġprodu Ã¯des
ĠFrank furt
qui ditat
ĠRo quetes
era bles
Ġsal vat
ĠRe Ã±Ã©
Ġexplic arÃł
Ġrib era
ĠB orsa
Ġdes qu
ĠER TO
Ġindirec tament
ĠR at
ĠCom as
ale ts
Ġvulnera ble
ĠProc ediment
Ġc rip
Ġin v
Ġes tra
Ġdes men
Ġfam oses
ĠBof ill
Ġconc ord
ĠqÃ¼esti onari
ee k
Ġautob i
Ġs ar
Ġg ota
Ġconserv adora
oti ts
ĠA ward
ra d
Ġas tr
Ġoc Ã³rrer
Ġplant er
Ġv egu
Ġmasc le
Ġa per
tin ar
Ġvenc edor
ĠMoss Ã¨n
ĠL ara
Ġgui ar
Ġrell otges
escul tor
Ar queologia
ĠAl z
Ġtreballa ven
ĠS ign
Ġvehic ular
an sietat
Ġan om
Ġfron ts
indic ar
h h
ges a
Ġindic ades
Ġdescon eixement
Ġal Ã§ades
af ric
Ġpe atges
Ġagaf em
Ġesqu ema
ĠQued en
Ġs ents
Ġequi vocat
it ora
Ġgu a
Ġlegisla tiva
ĠFar ners
Ġacab Ãł
ĠD or
pr in
Ġcontrac tual
Ġs how
ĠAn glÃ¨s
escalf ament
Ġpreca uciÃ³
Ġmin is
ĠtÃłc tica
Ġten da
Ġlle idatÃł
Ġ10 6
ĠPer met
Ġinc Ã²gn
adi us
ĠE laboraciÃ³
Ġvari ats
ĠN apole
Ġcon dol
ĠSor tida
Ġjug ades
Ġsint onia
ĠB it
ĠRes earch
Ġsu aus
Ġorganitza tiu
afec ciÃ³
ĠC M
ig ar
Ġvol c
Ġda ma
Ġpatr ulla
Ġprogress istes
Ġcompar ti
Ġpon d
Ġex istit
ĠAss ocia
Ġubic ar
en tistes
as tes
Ġa met
Ġe ixamp
ĠB uf
Ġmis sion
Ġpan ells
Ġenvi ats
Ġdis persiÃ³
ĠAmb dÃ³s
Ġfascin ant
Un ivers
re d
om obil
ĠMontorn Ã¨s
Ġimpres os
Ġgl uc
Ġ( *
rim it
ve is
tÃł mens
Ġdesgra ci
Ġrequer it
Ġcap aces
Ġsen tin
Ġem issiÃ³
ĠMun taner
Ġser p
D on
Ġcatal unya
ici di
ĠIns ular
Ġorg Ãłnics
ti ven
Ġadher it
Ġdeixar em
Esc Ã²cia
Ġper noc
ĠFar mÃłcia
ĠA plicaciÃ³
Ġus ant
ĠC ros
Ġdestr uÃ¯t
ĠGerv asi
Ġactu aran
to rets
ĠS hi
Ġautop istes
os anitaris
Ġinter fer
ĠFa cili
ĠCerd Ãł
em issions
fec tura
ĠInstitu te
Ġfia ble
Ġcredit ors
Ġacostu mat
ĠEdi fici
Ġbat le
Ġdra mÃłtic
Ġib Ã¨ric
Ġhar monia
Ġdin osau
Ġembar assada
Ġrepresen tades
Ġsolid Ãłries
Ġre tic
Ġesc ut
onÃ¨s ia
Ġenc antat
Ġmedi oc
Ġafric ans
ur is
Ġgarant eixin
ĠFores tal
Ġdirig ia
A genda
Ġimpos ant
Ġcoca Ã¯na
ĠLluÃ¯ sa
an ell
Ġ190 6
Ġdinam isme
Ġde gra
ĠA plic
Ġun itari
ĠH on
Ġconvid ada
Ġtelevis iu
Ġcomp tats
Ġcontin gudes
Ġparla ven
Ġcap elles
Ġref rig
Ġac cidental
ĠMon tal
Ġfar cit
lic k
Ġr ÃŃt
ar ran
ÃŃc oles
Ġpuntu alment
Ġregul ats
Ġmarc ades
Ġdeix eble
i tives
Ġar te
Ġimp liquen
on atge
escol ta
d ites
Ġin n
ĠS essiÃ³
ĠF ebrer
Ġdocumen tar
Ġdistrib uÃ¯t
Ġimp edit
ĠIn i
g era
ĠP ocs
ĠG ay
Ġtri angle
re guera
ĠOl ga
P res
ĠMa pa
IS A
A valuaciÃ³
Ġdemana ven
artes ania
P O
Ġins in
ĠAl tra
Ġemp laÃ§ament
Ġali ens
Ġrigor Ã³s
ĠB ang
ĠTor r
abs is
ĠquirÃºr gica
al ificaciÃ³
Ġv ici
Ġen Ã§Ãł
emp laÃ§ament
u ria
Ġ[+ ]
Ġpol it
ĠCE O
ĠCÃ©s ar
Ġtemp estes
fec te
Ġamena Ã§ar
re y
ĠEs tim
quis its
ĠComp te
ost el
agra Ã¯ment
ĠClar et
Ġpremis sa
Ġartes an
Ġc uny
Ġpr Ã²s
Ãłs sic
ĠPal a
Ġfia bilitat
ĠTÃ² quio
Ġb ien
Ġpet Ã³
er nes
et z
an irÃł
ĠA igua
Ġconver ti
ĠA vis
ĠCon nec
ĠbÃºs tia
ges tiÃ³
Ġan s
Ġestat ut
Ġhero i
ĠP EL
ĠmÃłn iga
Ġenc endre
Ġimpuls ant
ĠDoc ument
ĠContrac taciÃ³
ĠCollb oni
alitz em
Ġadop tada
Ġkil Ã²metres
Ġque dem
Ġdec rets
Alz heimer
Ġbu ides
S Ã³n
UL T
Ġexpl or
d r
emp ar
ont o
ĠLlibrer ia
Ġinform al
Ã² lia
Ġcontin ents
âĤ¬ ,
ĠV ide
[...]
