{"<s>":0,"<pad>":1,"</s>":2,"<unk>":3,"!":4,"\"":5,"#":6,"$":7,"%":8,"&":9,"'":10,"(":11,")":12,"*":13,"+":14,",":15,"-":16,".":17,"/":18,"0":19,"1":20,"2":21,"3":22,"4":23,"5":24,"6":25,"7":26,"8":27,"9":28,":":29,";":30,"<":31,"=":32,">":33,"?":34,"@":35,"A":36,"B":37,"C":38,"D":39,"E":40,"F":41,"G":42,"H":43,"I":44,"J":45,"K":46,"L":47,"M":48,"N":49,"O":50,"P":51,"Q":52,"R":53,"S":54,"T":55,"U":56,"V":57,"W":58,"X":59,"Y":60,"Z":61,"[":62,"\\":63,"]":64,"^":65,"_":66,"`":67,"a":68,"b":69,"c":70,"d":71,"e":72,"f":73,"g":74,"h":75,"i":76,"j":77,"k":78,"l":79,"m":80,"n":81,"o":82,"p":83,"q":84,"r":85,"s":86,"t":87,"u":88,"v":89,"w":90,"x":91,"y":92,"z":93,"{":94,"|":95,"}":96,"~":97,"¡":98,"¢":99,"£":100,"¤":101,"¥":102,"¦":103,"§":104,"¨":105,"©":106,"ª":107,"«":108,"¬":109,"®":110,"¯":111,"°":112,"±":113,"²":114,"³":115,"´":116,"µ":117,"¶":118,"·":119,"¸":120,"¹":121,"º":122,"»":123,"¼":124,"½":125,"¾":126,"¿":127,"À":128,"Á":129,"Â":130,"Ã":131,"Ä":132,"Å":133,"Æ":134,"Ç":135,"È":136,"É":137,"Ê":138,"Ë":139,"Ì":140,"Í":141,"Î":142,"Ï":143,"Ð":144,"Ñ":145,"Ò":146,"Ó":147,"Ô":148,"Õ":149,"Ö":150,"×":151,"Ø":152,"Ù":153,"Ú":154,"Û":155,"Ü":156,"Ý":157,"Þ":158,"ß":159,"à":160,"á":161,"â":162,"ã":163,"ä":164,"å":165,"æ":166,"ç":167,"è":168,"é":169,"ê":170,"ë":171,"ì":172,"í":173,"î":174,"ï":175,"ð":176,"ñ":177,"ò":178,"ó":179,"ô":180,"õ":181,"ö":182,"÷":183,"ø":184,"ù":185,"ú":186,"û":187,"ü":188,"ý":189,"þ":190,"ÿ":191,"Ā":192,"ā":193,"Ă":194,"ă":195,"Ą":196,"ą":197,"Ć":198,"ć":199,"Ĉ":200,"ĉ":201,"Ċ":202,"ċ":203,"Č":204,"č":205,"Ď":206,"ď":207,"Đ":208,"đ":209,"Ē":210,"ē":211,"Ĕ":212,"ĕ":213,"Ė":214,"ė":215,"Ę":216,"ę":217,"Ě":218,"ě":219,"Ĝ":220,"ĝ":221,"Ğ":222,"ğ":223,"Ġ":224,"ġ":225,"Ģ":226,"ģ":227,"Ĥ":228,"ĥ":229,"Ħ":230,"ħ":231,"Ĩ":232,"ĩ":233,"Ī":234,"ī":235,"Ĭ":236,"ĭ":237,"Į":238,"į":239,"İ":240,"ı":241,"Ĳ":242,"ĳ":243,"Ĵ":244,"ĵ":245,"Ķ":246,"ķ":247,"ĸ":248,"Ĺ":249,"ĺ":250,"Ļ":251,"ļ":252,"Ľ":253,"ľ":254,"Ŀ":255,"ŀ":256,"Ł":257,"ł":258,"Ń":259,"Ġd":260,"es":261,"en":262,"Ġde":263,"Ġa":264,"Ġl":265,"er":266,"Ġp":267,"ta":268,"Ġc":269,"qu":270,"ar":271,"ci":272,"el":273,"Ġi":274,"on":275,"Ġs":276,"an":277,"re":278,"or":279,"Ġla":280,"al":281,"Ġm":282,"un":283,"Ġqu":284,"Ġel":285,"ti":286,"Ã³":287,"Ġque":288,"ent":289,"at":290,"Ġt":291,"Ġf":292,"Ġv":293,"in":294,"Ġper":295,"om":296,"Ã©":297,"os":298,"Ġen":299,"is":300,"ol":301,"ciÃ³":302,"Ġdel":303,"Ãł":304,"ra":305,"Ġun":306,"Ġn":307,"ri":308,"Ġes":309,"Ġh":310,"res":311,"tat":312,"mb":313,"ic":314,"Ã©s":315,"ro":316,"ad":317,"Ġal":318,"Ã¨":319,"em":320,"ons":321,"it":322,"ÃŃ":323,"ĠC":324,"Ġles":325,"Ġse":326,"ĠE":327,"Ġcom":328,"gu":329,"Ġre":330,"ment":331,"ix":332,"ia":333,"ec":334,"aciÃ³":335,"Ġamb":336,"ques":337,"Ġels":338,"as":339,"ĠP":340,"Ã²":341,"Ġin":342,"ĠA":343,"ĠL":344,"us":345,"ts":346,"Ġcon":347,"Ġno":348,"Ġg":349,"le":350,"ir":351,"Ġha":352,"la":353,"Ġb":354,"Ġo":355,"Ġpro":356,"ĠS":357,"Ġe":358,"li":359,"va":360,"ur":361,"Ġuna":362,"ĠM":363,"ant":364,"Ġva":365,"da":366,"tal":367,"Ġdi":368,"ot":369,"ca":370,"si":371,"tu":372,"di":373,"Ġdes":374,"ul":375,"tes":376,"Ġ1":377,"ada":378,"ĠÃ©s":379,"te":380,"tar":381,"oc":382,"ĠĊ":383,"ĠD":384,"Ġpar":385,"Ġca":386,"ĠEl":387,"Ġdels":388,"cia":389,"Ġj":390,"ob":391,"ter":392,"itat":393,"ĠT":394,"Ġ2":395,"als":396,"Ġ(":397,"ĠB":398,"Ã§":399,"il":400,"ĠmÃ©s":401,"tan":402,"cions":403,"era":404,"Ġan":405,"eix":406,"Ã¨n":407,"Ġ\"":408,"ona":409,"Ãº":410,"up":411,"mp":412,"Ġaques":413,"ica":414,"ĠG":415,"Ġac":416,"Ġser":417,"et":418,"ran":419,"orm":420,"od":421,"ac":422,"ver":423,"ĠR":424,"id":425,"ell":426,"itz":427,"ĠF":428,"Ġex":429,"ist":430,"emp":431,"any":432,"ig":433,"Ġcomp":434,"eg":435,"bl":436,"se":437,"tor":438,"tin":439,"ria":440,"ĠLa":441,"Ġres":442,"..":443,"im":444,"00":445,"eu":446,"Â·":447,"Ã¨ncia":448,"um":449,"all":450,"ats":451,"ost":452,"Ġcons":453,"ĠV":454,"ici":455,"ĠI":456,"ab":457,"ĠJ":458,"Ġrec":459,"Ġll":460,"du":461,"Ġr":462,"ents":463,"Ġpres":464,"tic":465,"ut":466,"ĠN":467,"entre":468,"fer":469,"vi":470,"Ġesp":471,"Ġpre":472,"ins":473,"tr":474,"Ġfa":475,"ors":476,"ves":477,"Ġta":478,"ass":479,"ades":480,"Ġmol":481,"ĠCa":482,"ĠU":483,"Ġtot":484,"cion":485,"Ã³n":486,"ord":487,"ĠEn":488,"Ġsi":489,"rim":490,"tra":491,"Ġfer":492,"Ġpr":493,"ven":494,"Ġcap":495,"Ġseu":496,"Ġseva":497,"ans":498,"par":499,"Ġpod":500,"ens":501,"oci":502,"Ġpel":503,"Ġar":504,"ana":505,"ed":506,"ari":507,"Ġaquest":508,"ha":509,"arc":510,"ÃŃs":511,"mbÃ©":512,"pos":513,"Ġob":514,"Ġtra":515,"tant":516,"Ġals":517,"Ġmat":518,"Ġpers":519,"tament":520,"ex":521,"Ġto":522,"tats":523,"obre":524,"ament":525,"Ġhi":526,"ge":527,"ili":528,"ub":529,"ort":530,"rÃł":531,"tiu":532,"me":533,"de":534,"ys":535,"Ġsen":536,"Ġpos":537,"reb":538,"Ġten":539,"Ġdis":540,"uny":541,"ĠPer":542,"Ġparti":543,"op":544,"iu":545,"ĠEs":546,"Ġ20":547,"alitat":548,"Ġter":549,"na":550,"ve":551,"Ġcas":552,"Ġpa":553,"ener":554,"Ġvan":555,"ma":556,"ess":557,"ora":558,"tres":559,"end":560,"jec":561,"Ġcar":562,"fic":563,"taciÃ³":564,"rec":565,"ill":566,"Ġsobre":567,"Ġas":568,"ĠCatal":569,"Ġseg":570,"siÃ³":571,"pr":572,"ĠperÃ²":573,"Ġimp":574,"form":575,"ina":576,"Ã¯":577,"rib":578,"gra":579,"tica":580,"Ġform":581,"lar":582,"ers":583,"pl":584,"ĠtambÃ©":585,"tiva":586,"ones":587,"Ġprim":588,"Ġma":589,"una":590,"car":591,"Ġhan":592,"alitz":593,"reball":594,"ĠH":595,"Ġja":596,"Ġmolt":597,"Ġaix":598,"Ġentre":599,"tÃł":600,"Ġvol":601,"eb":602,"les":603,"min":604,"aques":605,"iÃ³":606,"Ġ3":607,"Ã§a":608,"ten":609,"Ġtreball":610,"ga":611,"Ġman":612,"per":613,"Ġnom":614,"cies":615,"ep":616,"Ġaquesta":617,"Ġinter":618,"ista":619,"Ġvi":620,"av":621,"Ġpl":622,"Ġ201":623,"unya":624,"vol":625,"Ġens":626,"duc":627,"Ġanys":628,"uc":629,"Ġpass":630,"Ġcol":631,"tiv":632,"Ġ19":633,"au":634,"Ġsup":635,"pi":636,"des":637,"ĠCatalunya":638,"rob":639,"gi":640,"ble":641,"...":642,"ĠsÃ³n":643,"Ġesc":644,"ĠEls":645,"egu":646,"men":647,"ĠUn":648,"Ã¨s":649,"Ġpu":650,"titu":651,"blic":652,"orn":653,"arÃł":654,"alment":655,"Ġcan":656,"Ã¼":657,"Ġcos":658,"pa":659,"Ġfins":660,"Ġcre":661,"Ġon":662,"gui":663,"Ġad":664,"Ġcor":665,"ĠCom":666,"Ġpol":667,"Ġfin":668,"fici":669,"quÃ¨":670,"Ġsol":671,"arcel":672,"Ġsoci":673,"Ġmes":674,"prÃ©s":675,"tre":676,"ÃŃn":677,"urs":678,"Ġins":679,"qui":680,"tir":681,"og":682,"\".":683,"ou":684,"Es":685,"ador":686,"Ġnost":687,"bre":688,"Ġmar":689,"Ġmateix":690,"ĠO":691,"Ġconc":692,"ura":693,"Ġgran":694,"Ġtemp":695,"Ġquan":696,"rat":697,"Ġpot":698,"ĠAl":699,"arcelona":700,"Ġpart":701,"\",":702,"),":703,"ĠperquÃ¨":704,"Ġtrob":705,"til":706,"Ġlli":707,"Ġdem":708,"cip":709,"Ġrep":710,"essi":711,"ĠAques":712,"Ġdon":713,"tura":714,"hi":715,").":716,"gut":717,"Ġcatal":718,"Ġpor":719,"âĢ":720,"Ġap":721,"urant":722,"gun":723,"via":724,"jun":725,"rer":726,"Ãłn":727,"vern":728,"tit":729,"fec":730,"Ġesta":731,"Ãºs":732,"vis":733,"ĠBarcelona":734,"Ġtots":735,"eri":736,"Ġme":737,"Ġciu":738,"Ġor":739,"Ġgener":740,"Ġrel":741,"Ġab":742,"dic":743,"Ġcontra":744,"cional":745,"gan":746,"am":747,"mbre":748,"Ãłria":749,"Ġdia":750,"rup":751,"ren":752,"Ġfet":753,"itu":754,"itj":755,"tivitat":756,"int":757,"ges":758,"Ġestat":759,"vers":760,"Ġ-":761,"ĠMar":762,"Ġmun":763,"Ġass":764,"ita":765,"Ġ4":766,"Ġju":767,"Ġni":768,"Ġsegu":769,"overn":770,"Ġinc":771,"its":772,"ants":773,"Ġmen":774,"esc":775,"ema":776,"Ã²ria":777,"Ġpersones":778,"Ġsense":779,"ĠÃ":780,"Ġqual":781,"ĠpÃº":782,"esti":783,"Ġseus":784,"Ġsub":785,"Ġmill":786,"ai":787,"ĠestÃł":788,"Ġdifer":789,"ĠIn":790,"Ġcal":791,"empres":792,"Ġcomen":793,"ola":794,"Ġlle":795,"teri":796,"Ġdos":797,"ics":798,"Ġgu":799,"Ġaltres":800,"ĠtÃ©":801,"Ġcontin":802,"Ġpresen":803,"isme":804,"Ġresp":805,"adors":806,"Ġtin":807,"ret":808,"Qu":809,"ĠaixÃ²":810,"atge":811,"Ġli":812,"Ġlloc":813,"ĠLes":814,"acions":815,"iciÃ³":816,"Ġprojec":817,"ll":818,"Ġmo":819,"ĠpolÃŃ":820,"Ġpo":821,"Ġho":822,"ĠdesprÃ©s":823,"rar":824,"ric":825,"tius":826,"Ġx":827,"Ġtan":828,"Ġ5":829,"Ġproc":830,"Ġem":831,"Ġ200":832,"Ġinform":833,"Ġprof":834,"Ġdirec":835,"met":836,"ĠNo":837,"ments":838,"ĠquÃ¨":839,"Ġveu":840,"Ġent":841,"enci":842,"Ġdurant":843,"Ġserve":844,"ĠQu":845,"Ġtal":846,"onal":847,"ure":848,"Ġfe":849,"Ġnec":850,"Ġfun":851,"Ġpun":852,"Ġquals":853,"eny":854,"Ã²n":855,"Ġve":856,"ĠCon":857,"ement":858,"tim":859,"aix":860,"Ġtran":861,"anya":862,"Ġprimer":863,"Ġco":864,"Ġmitj":865,"tis":866,"uro":867,"ud":868,"Ġvis":869,"Ġcl":870,"ert":871,"Ã¨ncies":872,"Ġav":873,"Ġarrib":874,"erra":875,"ores":876,"Ġreg":877,"Ġval":878,"bles":879,"Ãłs":880,"Ġsec":881,"ls":882,"inc":883,"Ġ'":884,"ries":885,"tiques":886,"ena":887,"ĠX":888,"plic":889,"ilitat":890,"Ġcomun":891,"eci":892,"aran":893,"Ġsitu":894,"edi":895,"Ġmanera":896,"Ã¨c":897,"oni":898,"ing":899,"cara":900,"Ġdef":901,"ĠâĢ":902,"Ġcada":903,"Ġsal":904,"ĠDe":905,"istra":906,"cid":907,"ganitz":908,"ular":909,"juntament":910,"Ġactu":911,"ĠSant":912,"Ġpob":913,"Ġtant":914,"fi":915,"anÃ§":916,"Ġsor":917,"bor":918,"Ġtemps":919,"ap":920,"dre":921,"han":922,"uciÃ³":923,"ori":924,"ĠJo":925,"anc":926,"Ġdu":927,"osa":928,"ĠDes":929,"Ã²m":930,"ag":931,"Ġaqu":932,"ĠnomÃ©s":933,"istes":934,"tac":935,"sa":936,"lo":937,"Ġaf":938,"ella":939,"ĠAn":940,"tad":941,"Ġcent":942,"aris":943,"Ġara":944,"Ġdesc":945,"Ġpe":946,"ĠCons":947,"ui":948,"Ġgrup":949,"Ġpla":950,"versi":951,"ĠGener":952,"īs":953,"Ġcr":954,"truc":955,"ns":956,"quip":957,"Ġmal":958,"Ġ6":959,"anda":960,"cab":961,"if":962,"Ġera":963,"Ġjo":964,"Ġalgun":965,"Ġtrans":966,"Ġra":967,"Ġmunici":968,"ja":969,"ĠaixÃŃ":970,"Ġfam":971,"ells":972,"Ġdeix":973,"ĠmÃł":974,"Ġpublic":975,"ĠÂ":976,"Ġproduc":977,"atre":978,"Ġveg":979,"que":980,"ministra":981,"xim":982,"Ġtres":983,"esta":984,"ien":985,"ident":986,"Ġfor":987,"Ġcul":988,"mes":989,"Ġdoc":990,"ĠÃīs":991,"altres":992,"por":993,"Ġencara":994,"ard":995,"endre":996,"lia":997,"ĠLle":998,"Ġseves":999,"Ġben":1000,"tics":1001,"aquest":1002,"Ġset":1003,"eixen":1004,"Ġrealitz":1005,"anes":1006,"Ġtrac":1007,"reu":1008,"Ġmillor":1009,"Ġmom":1010,"Ġprin":1011,"ĠDi":1012,"Ġoc":1013,"Ġdir":1014,"aquesta":1015,"Ġtenir":1016,"Ġdiferents":1017,"guin":1018,"Ġforma":1019,"rem":1020,"Ġso":1021,"Ġw":1022,"econ":1023,"xa":1024,"gar":1025,"tÃŃ":1026,"Ãłr":1027,"Ġnou":1028,"gat":1029,"Ġprogra":1030,"Ġcamp":1031,"Ġespeci":1032,"Ġpas":1033,"Ġau":1034,"erc":1035,"ĠbÃ©":1036,"ont":1037,"enti":1038,"Ġsin":1039,"gua":1040,"Ġciutat":1041,"nes":1042,"ĠPar":1043,"ural":1044,"sos":1045,"000":1046,"Ġrepres":1047,"Ġpropos":1048,"and":1049,"Ġhist":1050,"anta":1051,"Ġprimera":1052,"tors":1053,"envol":1054,"Ġbas":1055,"Ġpoder":1056,"ĠSi":1057,"Ġhavia":1058,"empre":1059,"tives":1060,"ho":1061,"Ġus":1062,"Ġver":1063,"Ġpossi":1064,"Ġ8":1065,"onsegu":1066,"avant":1067,"tants":1068,"Ġespany":1069,"ib":1070,"rip":1071,"Ġgovern":1072,"ula":1073,"jor":1074,"envolup":1075,"mar":1076,"ĠRe":1077,"tudi":1078,"Ãłc":1079,"Ġtorn":1080,"oll":1081,"Ġte":1082,"Ġveure":1083,"Ġdies":1084,"Ġpassat":1085,"ĠCar":1086,"Ġcel":1087,"ĠpÃºblic":1088,"Ġ7":1089,"Ġmin":1090,"Ġapro":1091,"omp":1092,"Ġim":1093,"Ġactivitat":1094,"esp":1095,"Ġvida":1096,"Ġop":1097,"Ġelec":1098,"ĠÃº":1099,"Ġcontinu":1100,"Ġdivers":1101,"Ġdec":1102,"Ġhem":1103,"terior":1104,"ĠLlei":1105,"iversi":1106,"Ġprojecte":1107,"ars":1108,"Ġqui":1109,"Ġmod":1110,"Ã¡":1111,"tori":1112,"umen":1113,"20":1114,"Ġempres":1115,"Ġ9":1116,"Ġinf":1117,"Ġdues":1118,"Ġ10":1119,"esa":1120,"ne":1121,"Ġsempre":1122,"Ġpels":1123,"ficaciÃ³":1124,"Ġtotes":1125,"pend":1126,"ĠmÃ³n":1127,"Ġuns":1128,"citat":1129,"ĠLl":1130,"Ġpoden":1131,"Ġsocial":1132,"Ġ18":1133,"fica":1134,"emes":1135,"ĠCas":1136,"19":1137,"voc":1138,"tada":1139,"cep":1140,"Ġloc":1141,"Ġacab":1142,"Ġprincip":1143,"ixer":1144,"Ġcanvi":1145,"Ġti":1146,"Ġaconsegu":1147,"cal":1148,"Ġdesenvolup":1149,"ĠAquest":1150,"ines":1151,"Ġdispos":1152,"Ġmoment":1153,"evol":1154,"eta":1155,"Â»":1156,"Ġdavant":1157,"ĠTa":1158,"qÃ¼":1159,"laciÃ³":1160,"Ġconsid":1161,"etat":1162,"tilitz":1163,"Ġparticip":1164,"Ġz":1165,"ĠÂ«":1166,"jar":1167,"ols":1168,"Ġany":1169,"ĠAix":1170,"lec":1171,"ju":1172,"ures":1173,"Ġdonar":1174,"Ġsab":1175,"omen":1176,"Ġbar":1177,"segu":1178,"iv":1179,"Ġet":1180,"Ġrepresen":1181,"Ġtar":1182,"ĠcatalÃł":1183,"Ġsetm":1184,"Ġmunicip":1185,"Ġorganitz":1186,"ĠcomenÃ§":1187,"ĠK":1188,"Ġcurs":1189,"Ġrefer":1190,"dia":1191,"Ġsegons":1192,"blica":1193,"Ã¨cn":1194,"uros":1195,"Ajuntament":1196,"ru":1197,"erv":1198,"Ġmajor":1199,"Ġest":1200,"Ġneg":1201,"cs":1202,"Ġref":1203,"Ġcop":1204,"Ġimpor":1205,"Ġecon":1206,"ĠGeneralitat":1207,"utilitz":1208,"erci":1209,"Ġsist":1210,"ĠPro":1211,"ÃŃc":1212,"he":1213,"Ġresul":1214,"ies":1215,"Ġdiss":1216,"und":1217,"Ġri":1218,"olog":1219,"Ã³s":1220,"Ġceleb":1221,"ĠAr":1222,"Ġtenen":1223,"Ġreb":1224,"teix":1225,"Ġ15":1226,"Ġgra":1227,"ĠAmb":1228,"ron":1229,"leg":1230,"est":1231,"pe":1232,"vid":1233,"actu":1234,"ĠW":1235,"Ġam":1236,"igu":1237,"uÃ¯":1238,"arra":1239,"Ġmili":1240,"issiÃ³":1241,"tud":1242,"ber":1243,"ĠSal":1244,"Ġtota":1245,"tell":1246,"pres":1247,"Ġaquests":1248,"Ġhab":1249,"Ġedi":1250,"Ġgeneral":1251,"Ã²g":1252,"Ġmet":1253,"tari":1254,"ign":1255,"Ġofer":1256,"rada":1257,"ull":1258,"Ġag":1259,"Ġabans":1260,"depend":1261,"Ġprop":1262,"Ġserveis":1263,"Ġresta":1264,"no":1265,"Ġsigui":1266,"Ġcer":1267,"Ġconf":1268,"Ġestan":1269,"lus":1270,"Ġpartir":1271,"Ġnorm":1272,"Ġpens":1273,"dat":1274,"Ġpermet":1275,"ĠserÃł":1276,"Ġnova":1277,"ĠAquesta":1278,"vir":1279,"Ġgent":1280,"ĠÃł":1281,"Ġprofessi":1282,"Ġnostra":1283,"ticle":1284,"Ġpresident":1285,"Ġcasa":1286,"Ġcosa":1287,"Ġdar":1288,"asc":1289,"Ġllar":1290,"itats":1291,"eres":1292,"vÃ©s":1293,"Ġqualsevol":1294,"estiÃ³":1295,"ritori":1296,"ĠeconÃ²m":1297,"able":1298,"Ġdins":1299,"acord":1300,"Ġnostre":1301,"eria":1302,"ĠPerÃ²":1303,"atges":1304,"ranc":1305,"Ġbanda":1306,"ecciÃ³":1307,"ĠUna":1308,"Ġat":1309,"ĠJos":1310,"pu":1311,"gn":1312,"ologia":1313,"resp":1314,"Ġmant":1315,"mi":1316,"oca":1317,"ĠTambÃ©":1318,"lici":1319,"ĠinformaciÃ³":1320,"rica":1321,"Ãłries":1322,"ots":1323,"ĠGovern":1324,"ĠEsp":1325,"ĠfamÃŃ":1326,"gl":1327,"Ġmost":1328,"Ġcontr":1329,"Ġfot":1330,"ĠGu":1331,"Ġweb":1332,"Ġfinal":1333,"ĠsegÃ¼":1334,"unci":1335,"ĠpaÃŃs":1336,"ĠVal":1337,"Ġnecess":1338,"Ġcapa":1339,"ini":1340,"ĠtravÃ©s":1341,"Ġnecessi":1342,"Ġhores":1343,"los":1344,"ĠEuro":1345,"Ã²s":1346,"Ġpoc":1347,"Ġcont":1348,"Ġactivitats":1349,"Ġrespec":1350,"Ġllen":1351,"ordin":1352,"Ġleg":1353,"Ġaut":1354,"Ġcri":1355,"ient":1356,"ĠMa":1357,"Ġobjec":1358,"Ġbaix":1359,"Ġmolts":1360,"ĠâĢĵ":1361,"ĠtÃ¨cn":1362,"lament":1363,"Ġapar":1364,"ules":1365,"lic":1366,"ral":1367,"eraciÃ³":1368,"Ġprom":1369,"Ġpunt":1370,"erat":1371,"Ġint":1372,"vell":1373,"Ġcentre":1374,"pus":1375,"dar":1376,"Ġterme":1377,"ust":1378,"Ġsemb":1379,"Ġind":1380,"Ġservei":1381,"Ġrecup":1382,"tarÃł":1383,"rets":1384,"ĠmÃłxim":1385,"Ġpartit":1386,"imp":1387,"Ġdesp":1388,"Ġpersonal":1389,"bilitat":1390,"ĠCol":1391,"iss":1392,"Ġ12":1393,"Ġnove":1394,"Ġur":1395,"Ġutilitz":1396,"Ġdades":1397,"Ġcomple":1398,"ual":1399,"Ġdist":1400,"tals":1401,"Ġpeti":1402,"labor":1403,"Ġsuport":1404,"Ġequip":1405,"Ġfaci":1406,"Ġrecon":1407,"acional":1408,"icia":1409,"rom":1410,"Ġciutad":1411,"Ġprobl":1412,"ira":1413,"var":1414,"respon":1415,"ĠPla":1416,"vesti":1417,"sions":1418,"Ġpat":1419,"Ġvaig":1420,"Ġven":1421,"ero":1422,"Ã¨ixer":1423,"taris":1424,"ril":1425,"Ġrela":1426,"Ġvegada":1427,"gin":1428,"ava":1429,"ĠpolÃŃtica":1430,"els":1431,"gir":1432,"iversitat":1433,"Ġcondi":1434,"Ġpri":1435,"Al":1436,"Ġprev":1437,"cat":1438,"ĠTot":1439,"Ġefec":1440,"ĠprÃ²":1441,"Ġnostres":1442,"Ġrespons":1443,"eren":1444,"Ġtotal":1445,"Ġdeman":1446,"Ġclar":1447,"Ġarribar":1448,"Ġdefens":1449,"ĠSer":1450,"ES":1451,"ĠÌ":1452,"partament":1453,"elles":1454,"ĠConsell":1455,"Ġconeix":1456,"tia":1457,"mat":1458,"Ġporta":1459,"jo":1460,"Ġcomunic":1461,"Ġdif":1462,"Ġtrobar":1463,"Ġro":1464,"ĠJoan":1465,"Ġadministra":1466,"Ġcorrespon":1467,"Ġescol":1468,"Ġexemp":1469,"Ġexplic":1470,"ĠÌģ":1471,"Ġdisc":1472,"Ġassegu":1473,"Ġtipus":1474,"Ãłncia":1475,"Ġaltre":1476,"Ãłg":1477,"Ġsistema":1478,"Ġbl":1479,"itzaciÃ³":1480,"plica":1481,"Ġperson":1482,"isi":1483,"Ġanar":1484,"Ġaquestes":1485,"ĠJa":1486,"veni":1487,"Ġ17":1488,"ĠsituaciÃ³":1489,"Ġfut":1490,"ĠSeg":1491,"Ġdiu":1492,"erar":1493,"Ġpropi":1494,"ĠCor":1495,"Ġhum":1496,"Ġsetmana":1497,"Ġemp":1498,"ĠcÃłr":1499,"Ġsign":1500,"ĠVi":1501,"ern":1502,"Ġdese":1503,"ducaciÃ³":1504,"quen":1505,"Ġafec":1506,"Ġmarc":1507,"Ġescri":1508,"ÃŃt":1509,"uts":1510,"inter":1511,"Ġren":1512,"olÃ²g":1513,"Estat":1514,"Ġespanyol":1515,"uir":1516,"retat":1517,"acte":1518,"ĠsinÃ³":1519,"ĠCal":1520,"ions":1521,"Ġnat":1522,"ĠprocÃ©s":1523,"ode":1524,"essiÃ³":1525,"Ġeuros":1526,"Ġindepend":1527,"Ġexc":1528,"Ġsan":1529,"dor":1530,"Ġall":1531,"Ġaltra":1532,"Ġestudi":1533,"Ġmor":1534,"ss":1535,"Ġespec":1536,"ltim":1537,"Ġcompar":1538,"El":1539,"Ġprograma":1540,"isc":1541,"Ġ13":1542,"af":1543,"Ġvalor":1544,"Ġguany":1545,"Ġcat":1546,"pec":1547,"Ġgrans":1548,"empresa":1549,"ros":1550,"iques":1551,"Ġmenys":1552,"bli":1553,"Ġquatre":1554,"Ġmesos":1555,"Ġinici":1556,"art":1557,"Ġmanten":1558,"ĠformaciÃ³":1559,"ĠPa":1560,"Ġ11":1561,"ĠVa":1562,"Ġ14":1563,"ĠMon":1564,"Ġtel":1565,"Ġexper":1566,"tany":1567,"raciÃ³":1568,"Ġhaver":1569,"Ġpersona":1570,"urÃł":1571,"tubre":1572,"emÃł":1573,"Ġsubs":1574,"Ġ30":1575,"Ġide":1576,"Ġposar":1577,"Ġobli":1578,"oma":1579,"posiciÃ³":1580,"Ġinteress":1581,"Ġalg":1582,"Ġdret":1583,"vat":1584,"ĠhistÃ²ria":1585,"Ġrecurs":1586,"onar":1587,"Ġhom":1588,"cionals":1589,"gon":1590,"Ġmateixa":1591,"hom":1592,"Ġdin":1593,"Ġviu":1594,"Ġalguns":1595,"ĠlÃŃn":1596,"Ġfil":1597,"Ġcaus":1598,"ĠAc":1599,"ĠPu":1600,"Ġpartici":1601,"cis":1602,"osaltres":1603,"Ġunes":1604,"ogra":1605,"Ġfan":1606,"ĠAixÃŃ":1607,"Ġinten":1608,"oria":1609,"ĠmÃºs":1610,"Ġtempor":1611,"aud":1612,"Ġreun":1613,"Ġcarrer":1614,"Ġterritori":1615,"Ġenti":1616,"liol":1617,"Ġ16":1618,"Ġhe":1619,"drÃł":1620,"article":1621,"ban":1622,"venciÃ³":1623,"Ġzona":1624,"Ġbon":1625,"Ġimportant":1626,"Ġcam":1627,"rac":1628,"Ġdesembre":1629,"ĠMan":1630,"ĠpÃłg":1631,"Ġqualitat":1632,"ĠnÃº":1633,"Ġllibre":1634,"200":1635,"Ġresol":1636,"Ġacc":1637,"Ġrecord":1638,"Ġmentre":1639,"gues":1640,"ata":1641,"Ġden":1642,"tembre":1643,"Ġcontrac":1644,"ER":1645,"Ġsentit":1646,"Ġfou":1647,"Ġnovembre":1648,"Ġprodu":1649,"Ġconver":1650,"Ã¨r":1651,"activitat":1652,"omia":1653,"Ġdirector":1654,"uns":1655,"cer":1656,"Ã¨g":1657,"irc":1658,"rir":1659,"crip":1660,"ĠBar":1661,"Ġdecid":1662,"Ġpoble":1663,"Ġpen":1664,"ociaciÃ³":1665,"lat":1666,"ĠpublicaciÃ³":1667,"guts":1668,"ano":1669,"umnes":1670,"ĠsÃŃ":1671,"Ġjuliol":1672,"Ġcu":1673,"Ġinterna":1674,"tÃłn":1675,"Ġsent":1676,"vor":1677,"Ġinstal":1678,"erm":1679,"aqu":1680,"Ġplant":1681,"ÃŃstica":1682,"Ġpassar":1683,"equip":1684,"ota":1685,"Ġmus":1686,"reta":1687,"apar":1688,"adora":1689,"Ġfill":1690,"gÃ¨ncia":1691,"Ġmi":1692,"Ġcompany":1693,"Ġmerc":1694,"rera":1695,"unt":1696,"ĠrelaciÃ³":1697,"Ġdiri":1698,"ĠUniversitat":1699,"ĠprÃłc":1700,"Ġmilions":1701,"ug":1702,"Ġxar":1703,"cil":1704,"Ġmateri":1705,"termin":1706,"visiÃ³":1707,"anÃ§ant":1708,"hora":1709,"In":1710,"rid":1711,"ĠcÃłrrec":1712,"lex":1713,"ĠGir":1714,"Ġbona":1715,"vaciÃ³":1716,"uls":1717,"Ġllarg":1718,"ĠDesprÃ©s":1719,"ĠJosep":1720,"dres":1721,"iÃ¨ncia":1722,"ficar":1723,"ĠcomenÃ§ar":1724,"Ġcoses":1725,"Ġnivell":1726,"ordi":1727,"II":1728,"alitzaciÃ³":1729,"objec":1730,".-":1731,"vin":1732,"Ġdeclar":1733,"Ãºn":1734,"enc":1735,"Ġsetembre":1736,"ĠSoci":1737,"orre":1738,"Ġtermin":1739,"bres":1740,"anÃ§a":1741,"Ġmaig":1742,"ecn":1743,"ress":1744,"Ġil":1745,"lu":1746,"com":1747,"Ġempreses":1748,"Ġdona":1749,"assa":1750,"Ã²r":1751,"ements":1752,"pia":1753,"terna":1754,"Ġconjun":1755,"Ġjorn":1756,"octubre":1757,"ine":1758,"Ġ25":1759,"tur":1760,"Ġofici":1761,"Ġaj":1762,"essor":1763,"Ġinstitu":1764,"Ġjuny":1765,"Ġlabor":1766,"nos":1767,"vocat":1768,"ospi":1769,"Ġplan":1770,"Ġdiversos":1771,"ciona":1772,"irÃł":1773,"Ġcatalana":1774,"ĠnÃºm":1775,"ÃŃnim":1776,"fia":1777,"Ġ199":1778,"ĠlÃŃ":1779,"Ġsector":1780,"ĠVall":1781,"Ġtracta":1782,"Ġmanif":1783,"gual":1784,"Ġtur":1785,"opular":1786,"Ġmai":1787,"ĠgrÃł":1788,"val":1789,"Ġavui":1790,"Ġfal":1791,"aria":1792,"AC":1793,"mbit":1794,"erior":1795,"ĠmarÃ§":1796,"201":1797,"!!":1798,"Ġsocietat":1799,"Ġmort":1800,"Ġcad":1801,"Ġfeina":1802,"ĠmÃŃnim":1803,"Ġpossible":1804,"ĠgestiÃ³":1805,"Ġsota":1806,"teg":1807,"Ġestar":1808,"ĠTer":1809,"Ġestr":1810,"lou":1811,"Ġmoltes":1812,"Ġsocials":1813,"onals":1814,"Ġdeci":1815,"Ġsegona":1816,"Ġmig":1817,"ĠPal":1818,"ulta":1819,"dici":1820,"Ġcompl":1821,"gaciÃ³":1822,"Ġjoc":1823,"ext":1824,"uit":1825,"Ġfent":1826,"Ġdeb":1827,"Ġregu":1828,"vant":1829,"assi":1830,"Ġsegle":1831,"Ġpresentar":1832,"trucciÃ³":1833,"Ġlla":1834,"Ġ0":1835,"Ġcirc":1836,"estat":1837,"Ġpunts":1838,"ĠSanta":1839,"ĠMun":1840,"quer":1841,"rea":1842,"Ġobres":1843,"ides":1844,"ĠâĢĶ":1845,"Ġafeg":1846,"oli":1847,"tida":1848,"Ġobs":1849,"erca":1850,"omb":1851,"Ġsegon":1852,"Ġpots":1853,"Ġbus":1854,"Ġgai":1855,"tot":1856,"ĠÃ¨":1857,"Ġtreballadors":1858,"ĠPS":1859,"tural":1860,"Ġacord":1861,"Ġdiverses":1862,"Ġfavor":1863,"ĠTarra":1864,"Ġvam":1865,"Ġconsell":1866,"ĠCan":1867,"rers":1868,"Ġexemple":1869,"tures":1870,"duca":1871,"Ġfes":1872,"ĠperÃŃ":1873,"Ġmon":1874,"Ġjus":1875,"Ġcompte":1876,"tades":1877,"Ġdones":1878,"ĠfamÃŃlia":1879,"ĠmitjanÃ§ant":1880,"Ġestabl":1881,"ĠGirona":1882,"Ġcontrol":1883,"ĠReg":1884,"efici":1885,"ĠpÃºblica":1886,"ris":1887,"Ġinvesti":1888,"Ġagra":1889,"ces":1890,"forma":1891,"vien":1892,"adal":1893,"Ã¡n":1894,"Ġvolun":1895,"Ġjug":1896,"ecu":1897,"Ġcli":1898,"Ġcapacitat":1899,"Ġimm":1900,"rien":1901,"xes":1902,"IC":1903,"Ġdeixar":1904,"Ġindi":1905,"ĠJordi":1906,"Ġmunicipal":1907,"ocup":1908,"mbres":1909,"ÃŃtol":1910,"ĠMad":1911,"ĠEx":1912,"gona":1913,"Ġell":1914,"Ġdrets":1915,"aments":1916,"tatge":1917,"dio":1918,"hab":1919,"Ġdit":1920,"Ġtas":1921,"Ġvig":1922,"acc":1923,"Ar":1924,"Ġnoves":1925,"Ġmajoria":1926,"Ãłl":1927,"tima":1928,"Ġsom":1929,"Ġtradi":1930,"Ġcin":1931,"Ġseny":1932,"ĠCo":1933,"enta":1934,"An":1935,"Ġvisi":1936,"ala":1937,"Ġalumnes":1938,"Ġcob":1939,"Ġcentres":1940,"ĠPol":1941,"sup":1942,"Ã±":1943,"ip":1944,"lla":1945,"Ġconegu":1946,"Ġ[":1947,"Ġprojectes":1948,"resa":1949,"Ġsembla":1950,"30":1951,"ĠmÃºsica":1952,"Ġcondicions":1953,"La":1954,"Ġdom":1955,"Ġentitats":1956,"lacions":1957,"Ġaconseguir":1958,"ĠEspanya":1959,"ĠpÃłgina":1960,"Ġpresent":1961,"eca":1962,"Ġautor":1963,"Ġdesenvolupament":1964,"ĠÃºltim":1965,"tudis":1966,"con":1967,"alitzar":1968,"Ġdetermin":1969,"ĠCamp":1970,"let":1971,"Ã©n":1972,"erta":1973,"Ġfeb":1974,"edir":1975,"Ġllengua":1976,"ĠDepartament":1977,"ĠparticipaciÃ³":1978,"rÃ©s":1979,"Ġbo":1980,"ocrÃł":1981,"vent":1982,"cin":1983,"objectiu":1984,"Ġtall":1985,"Ġsuper":1986,"Ġeuro":1987,"ĠTarragona":1988,"Ġdeu":1989,"Ġmodi":1990,"ĠAra":1991,"eti":1992,"Ġpregun":1993,"dem":1994,"Ġtri":1995,"amb":1996,"apro":1997,"Ġgaud":1998,"ĠFran":1999,"ivers":2000,"ĠpoblaciÃ³":2001,"Ġespecial":2002,"vel":2003,"Ġprepar":2004,"dica":2005,"ivil":2006,"Ġdestin":2007,"ompany":2008,"lau":2009,"Ġlocal":2010,"Ġgrups":2011,"Ġhau":2012,"erg":2013,"ultura":2014,"ducciÃ³":2015,"ficat":2016,"aut":2017,"co":2018,"ĠforÃ§a":2019,"Ġfem":2020,"Ġple":2021,"abril":2022,"ĠmatÃŃ":2023,"Ġcompet":2024,"Ġmembres":2025,"Ġtermini":2026,"Ġparticipar":2027,"Ġdedic":2028,"ĠRec":2029,"ch":2030,"ĠSegons":2031,"Ã¯sos":2032,"posta":2033,"istre":2034,"istÃ¨ncia":2035,"ĠconÃ¨ixer":2036,"ara":2037,"Ã¨ri":2038,"Ġtecn":2039,"Ġpressup":2040,"Ġdesta":2041,"Ã¨m":2042,"Ġprem":2043,"abte":2044,"ze":2045,"iment":2046,"iter":2047,"Ã§os":2048,"Ġllei":2049,"Ġperi":2050,"Ġtras":2051,"orta":2052,"Ġtenim":2053,"ĠQuan":2054,"Ġcomprom":2055,"Ġjur":2056,"tÃŃcia":2057,"Ġseguretat":2058,"titut":2059,"reg":2060,"Ġnosaltres":2061,"onat":2062,"Ġdocumen":2063,"Ġetc":2064,"tenciÃ³":2065,"Ġnous":2066,"Ġdistrib":2067,"bil":2068,"ĠhistÃ²":2069,"Ġresid":2070,"Ġid":2071,"Ġjoves":2072,"ĠlÃŃnia":2073,"cri":2074,"Ġproposta":2075,"Ġcinc":2076,"Ġamp":2077,"virus":2078,"Ġprot":2079,"aigua":2080,"Ġeduca":2081,"tivament":2082,"Ġmeu":2083,"Ġtenia":2084,"ĠqÃ¼":2085,"vendres":2086,"Ġfacili":2087,"acter":2088,"Ġcastell":2089,"Ġtren":2090,"Ġmica":2091,"Ġells":2092,"Ġrespecte":2093,"AT":2094,"Ã¨ria":2095,"onavirus":2096,"ĠZ":2097,"Ġocup":2098,"hib":2099,"enes":2100,"ÃŃstiques":2101,"Ġfebrer":2102,"Ġk":2103,"Ġrealitat":2104,"ere":2105,"Ġparlar":2106,"isteix":2107,"Ġmodel":2108,"laboraciÃ³":2109,"Ġ21":2110,"ĠEuropa":2111,"ĠcomunicaciÃ³":2112,"ej":2113,"Ġsel":2114,"Ġvegades":2115,"Ġne":2116,"Ġespai":2117,"Ġproper":2118,"Ġmitjans":2119,"guÃ©s":2120,"Ġdocu":2121,"ĠperÃŃode":2122,"for":2123,"Ġtornar":2124,"Ġpodem":2125,"Ġconstitu":2126,"Ġfos":2127,"Ġjornada":2128,"ĠComissiÃ³":2129,"ÃŃa":2130,"ĠMadrid":2131,"Ġlec":2132,"Ġesde":2133,"Ġtext":2134,"ministraciÃ³":2135,"Ġvic":2136,"uals":2137,"Ġsa":2138,"Ġtroba":2139,"ĠÃºn":2140,"Ġvia":2141,"Ġrelacion":2142,"Ġ24":2143,"Ãłmbit":2144,"ĠsegÃ¼ents":2145,"ĠcamÃŃ":2146,"ĠaquÃŃ":2147,"Ġfac":2148,"Ġmetres":2149,"pren":2150,"ĠHi":2151,"Ġfi":2152,"formaciÃ³":2153,"Ġproductes":2154,"Ġprofessionals":2155,"Ãłcter":2156,"man":2157,"Ġnord":2158,"Ġvo":2159,"ale":2160,"Ġconstr":2161,"ixa":2162,"Ġcasos":2163,"ĠcarÃłcter":2164,"Ġconjunt":2165,"Ġjun":2166,"Ġpin":2167,"ĠPP":2168,"Ġevi":2169,"Ġexpres":2170,"ĠLleida":2171,"Ġtitu":2172,"Ġcomb":2173,"ĠpodrÃł":2174,"ĠGran":2175,"bleix":2176,"hir":2177,"Ġpopular":2178,"Ġabs":2179,"altra":2180,"Ġgaran":2181,"illa":2182,"Esp":2183,"ÃŃem":2184,"11":2185,"Ġalguna":2186,"ĠServe":2187,"ĠediciÃ³":2188,"entitat":2189,"Ġfutur":2190,"Ġpaper":2191,"Ġnombre":2192,"ĠplaÃ§a":2193,"ĠMas":2194,"ĠDurant":2195,"abor":2196,"ĠCentre":2197,"alla":2198,"Ġajud":2199,"Ġvin":2200,"Ġsobretot":2201,"gen":2202,"Ġrecursos":2203,"asse":2204,"tera":2205,"umenge":2206,"Ġbase":2207,"ĠrÃł":2208,"organitz":2209,"tall":2210,"Ġalgunes":2211,"lies":2212,"Ġcultura":2213,"Ġvost":2214,"Ġpressupost":2215,"ww":2216,"plicaciÃ³":2217,"acciÃ³":2218,"Ġpes":2219,"itÃłria":2220,"alcal":2221,"ĠMaria":2222,"der":2223,"ital":2224,"Ġgen":2225,"ĠFin":2226,"autor":2227,"ĠJu":2228,"Ġcostat":2229,"Ġrecerca":2230,"pai":2231,"Ġtemporada":2232,"ortun":2233,"Ġsaber":2234,"ĠCl":2235,"Ġdissabte":2236,"ativa":2237,"Ġtreballar":2238,"Ġcomerci":2239,"Ġdata":2240,"AR":2241,"bliques":2242,"Ġcaracter":2243,"ĠsegÃ¼ent":2244,"rimoni":2245,"ĠfÃł":2246,"ĠSan":2247,"Ġpromo":2248,"Ġinicia":2249,"uta":2250,"Ġfranc":2251,"ĠfarÃł":2252,"Ġdarrer":2253,"Ġfora":2254,"Ġdisseny":2255,"Ġnit":2256,"Ġespor":2257,"Ġmesures":2258,"trÃ²n":2259,"obra":2260,"Ġservir":2261,"Ġhagi":2262,"ania":2263,"Ġcatalans":2264,"grat":2265,"lan":2266,"Ġdivendres":2267,"Ġconsum":2268,"ibli":2269,"Ġtor":2270,"Ġbenefici":2271,"ÃŃfic":2272,"Ã¯t":2273,"gies":2274,"itzar":2275,"Ġesti":2276,"ĠhaurÃł":2277,"ĠGeneral":2278,"Ġafir":2279,"ba":2280,"ites":2281,"licitud":2282,"Ġ22":2283,"Ġestava":2284,"ĠveÃ¯":2285,"aquests":2286,"ĠY":2287,"Ġcomar":2288,"ogrÃł":2289,"Ġmunicipi":2290,"Ġeren":2291,"ĠParlament":2292,"Ġseguir":2293,"Ġsu":2294,"ĠTor":2295,"tista":2296,"estar":2297,"Ġprofessional":2298,"glÃ©s":2299,"Ġpartits":2300,"Ġrom":2301,"Ġsis":2302,"Ġ100":2303,"Ġrealitzar":2304,"Ġnens":2305,"Ġprincipal":2306,"guda":2307,"bol":2308,"ida":2309,"Ġterra":2310,"Ġllocs":2311,"Ġviol":2312,"Ġsalut":2313,"imen":2314,"Ġnatural":2315,"Ġfons":2316,"Ġlliber":2317,"Ãłm":2318,"jous":2319,"Ġdur":2320,"tenir":2321,"ĠMol":2322,"199":2323,"hic":2324,"Ġcandi":2325,"Ġeleccions":2326,"ĠSegu":2327,"En":2328,"ĠOr":2329,"ĠVila":2330,"',":2331,"Ġconvocat":2332,"ĠDE":2333,"ĠgrÃłcies":2334,"Ġcausa":2335,"Ġorig":2336,"duir":2337,"Ġenll":2338,"ĠVic":2339,"Ġacabar":2340,"ĠHa":2341,"Ġcateg":2342,"ĠcreaciÃ³":2343,"ya":2344,"Ġmovi":2345,"ografia":2346,"Ġrepar":2347,"Ġacompany":2348,"pro":2349,"Ġigual":2350,"Ġcreu":2351,"ĠJun":2352,"Ġrecupera":2353,"ĠAixÃ²":2354,"Ġcontinguts":2355,"den":2356,"ms":2357,"Ġanti":2358,"tistes":2359,"Ġconsidera":2360,"Ġregid":2361,"Ġpassa":2362,"Ġ26":2363,"Ġdemost":2364,"escola":2365,"Ġdirig":2366,"ondre":2367,"Ġposi":2368,"ĠSe":2369,"Ġ/":2370,"ÃĢ":2371,"ĠdemocrÃł":2372,"ĠSup":2373,"ĠAv":2374,"Ġcrear":2375,"ez":2376,"Ġvul":2377,"Ġdiumenge":2378,"Ġcampanya":2379,"Ġproblemes":2380,"ĠDirec":2381,"ĠpresentaciÃ³":2382,"Ins":2383,"Ġmob":2384,"Ġmedi":2385,"ni":2386,"estudi":2387,"ĠSol":2388,"Ġdic":2389,"ÃŃstic":2390,"Ġmalal":2391,"Ġcreix":2392,"ĠeconÃ²mica":2393,"accÃ©s":2394,"Ġevitar":2395,"Ġxarxa":2396,"ĠdirecciÃ³":2397,"Ġexplica":2398,"Ã³na":2399,"Ġmeva":2400,"Ġexp":2401,"undaciÃ³":2402,"Ġfamili":2403,"Ġcarre":2404,"vista":2405,"ĠpaÃ¯sos":2406,"ĠRes":2407,"ĠMus":2408,"ĠDec":2409,"vint":2410,"Ã²l":2411,"liment":2412,"Ġdub":2413,"Ġespecialment":2414,"ances":2415,"arem":2416,"Ġ2018":2417,"Ġ2017":2418,"Ġfas":2419,"Ġespa":2420,"Ġord":2421,"Ġnacional":2422,"Ġresultats":2423,"dit":2424,"Ġminuts":2425,"Ġtingut":2426,"oses":2427,"Ġcic":2428,"ĠconstrucciÃ³":2429,"Ġanterior":2430,"osten":2431,"lida":2432,"Ġparla":2433,"davant":2434,"AN":2435,"estruc":2436,"ĠelectrÃ²n":2437,"of":2438,"ok":2439,"Ġmantenir":2440,"Ġdescob":2441,"Ġaju":2442,"osos":2443,"Ġanim":2444,"cionar":2445,"Ġdefini":2446,"antil":2447,"Ġtema":2448,"quit":2449,"Ġpugui":2450,"Ġna":2451,"ĠMi":2452,"Ġpara":2453,"ĠdÃ³na":2454,"pre":2455,"Ġprocedi":2456,"Ġpreveu":2457,"tagon":2458,"rebÃ©":2459,"Ġmil":2460,"ĠtindrÃł":2461,"Ġincor":2462,"Ġconcep":2463,"Ġdijous":2464,"Ġmostra":2465,"Ġmed":2466,"legi":2467,"Ġlegis":2468,"Ġtr":2469,"Ġcontac":2470,"Ġsuc":2471,"Ġ198":2472,"ĠtÃŃtol":2473,"ĠAnt":2474,"lÃŃc":2475,"ĠCastell":2476,"Ġrisc":2477,"Ġcapital":2478,"ĠNacional":2479,"Ġperiod":2480,"Ġmotiu":2481,"Ġmaterial":2482,"marts":2483,"ĠMo":2484,"ĠCiu":2485,"tÃ²ria":2486,"Ġfigu":2487,"ON":2488,"Ġpodria":2489,"ibliot":2490,"eric":2491,"Ġobra":2492,"net":2493,"Ġdimarts":2494,"ospital":2495,"nex":2496,"Ġmillorar":2497,"Ġsuperior":2498,"ĠprÃłctica":2499,"aquestes":2500,"Ġrebut":2501,"Ġvehic":2502,"ĠFundaciÃ³":2503,"pea":2504,"Ġprotagon":2505,"Ġtu":2506,"grÃ©s":2507,"Ġcur":2508,"¿½":2509,"ï¿½":2510,"ĠFer":2511,"Ġcrisi":2512,"Ġ50":2513,"ior":2514,"Ġhauria":2515,"AL":2516,"her":2517,"Ġdefin":2518,"ĠcomenÃ§a":2519,"rop":2520,"ela":2521,"ĠRa":2522,"ĠPuig":2523,"ĠFranc":2524,"mÃł":2525,"Ġdoncs":2526,"Ġteu":2527,"ĠCatalana":2528,"Ġrem":2529,"quis":2530,"ribun":2531,"Ġimpos":2532,"Ġgaudir":2533,"Ġmassa":2534,"ĠPod":2535,"Ġquanti":2536,"Ã¨tica":2537,"Ġpresenta":2538,"Ġaug":2539,"ĠpolÃŃtics":2540,"Ġprimers":2541,"Ġprincipals":2542,"tina":2543,"ĠRam":2544,"inar":2545,"Ġmercat":2546,"xe":2547,"Ã¨gim":2548,"ĠpÃºblics":2549,"Ġpresid":2550,"Ġresultat":2551,"ĠreferÃ¨ncia":2552,"Ġfre":2553,"Ġlliure":2554,"ĠRo":2555,"Ġanunci":2556,"xit":2557,"ĠpolÃŃtiques":2558,"eixi":2559,"ĠtrÃł":2560,"Ġdefensa":2561,"glÃ©sia":2562,"Ġ23":2563,"Ġsupos":2564,"Ġtothom":2565,"Ġpag":2566,"ossos":2567,"adores":2568,"Ġsimp":2569,"ĠCi":2570,"ĠpresÃ¨ncia":2571,"Ã¼es":2572,"Ġconfi":2573,"Ġrecla":2574,"Ġfona":2575,"cie":2576,"Ġ2012":2577,"Ġtarda":2578,"Ġrebre":2579,"ĠproducciÃ³":2580,"Ġrob":2581,"Ġenc":2582,"EN":2583,"Ġpuguin":2584,"vors":2585,"Ġdestac":2586,"erts":2587,"asi":2588,"Â».":2589,"essin":2590,"ĠmatÃ¨ria":2591,"alu":2592,"Ġprohib":2593,"Ġproblema":2594,"len":2595,"Ġfunciona":2596,"ĠcrÃŃ":2597,"Ġtele":2598,"st":2599,"Ġportar":2600,"Ġlocals":2601,"abilitat":2602,"uran":2603,"ĠfamÃŃlies":2604,"oss":2605,"Or":2606,"Ġdisp":2607,"do":2608,"Ġpremi":2609,"Ġdim":2610,"olo":2611,"Ass":2612,"'s":2613,"Ġciutadans":2614,"alt":2615,"ĠgairebÃ©":2616,"ĠLli":2617,"inici":2618,"querra":2619,"viat":2620,"ilitats":2621,"aj":2622,"Ġlaboral":2623,"ĠVil":2624,"Ġpare":2625,"aula":2626,"Ġsim":2627,"eqÃ¼":2628,"Ġmot":2629,"Ġ27":2630,"sic":2631,"blement":2632,"lluns":2633,"gia":2634,"ĠGra":2635,"Ġllibertat":2636,"itari":2637,"icament":2638,"educaciÃ³":2639,"Ġinclou":2640,"ĠpÃºbliques":2641,"Ġhavien":2642,"ĠRep":2643,"Ġ2013":2644,"trac":2645,"Ġquin":2646,"Ġdilluns":2647,"Ã¨rie":2648,"ĠpolÃŃtic":2649,"agra":2650,"ums":2651,"Ġjut":2652,"Ġanomen":2653,"Ġson":2654,"ĠbÃłs":2655,"maciÃ³":2656,"ĠSocial":2657,"Ġseria":2658,"Ġinternacional":2659,"Ġvinc":2660,"ial":2661,"teriors":2662,"ĠenllÃł":2663,"Ã©u":2664,"ĠAb":2665,"Ġexplicat":2666,"Ġusu":2667,"Ġformat":2668,"Ġqueda":2669,"cripciÃ³":2670,"dial":2671,"Ġgl":2672,"ĠfunciÃ³":2673,"Institut":2674,"ds":2675,"nat":2676,"Ġinteg":2677,"poca":2678,"vada":2679,"jat":2680,"Ġcultural":2681,"ĠPel":2682,"ĠSab":2683,"Ġpan":2684,"ĠallÃ²":2685,"Ġsob":2686,"CN":2687,"fa":2688,"Ġaquells":2689,"Ġjudici":2690,"aten":2691,"Ġurban":2692,"cola":2693,"Ad":2694,"ĠEntre":2695,"tival":2696,"Ġsens":2697,"Ġ2016":2698,"ĠComun":2699,"Ġllibres":2700,"agost":2701,"ĠTe":2702,"ĠprÃ²pia":2703,"ĠrÃ¨gim":2704,"....":2705,"Ġguerra":2706,"ulaciÃ³":2707,"Ġ2015":2708,"10":2709,"tava":2710,"cap":2711,"cial":2712,"Ġrecom":2713,"Ġdecidir":2714,"Ġaspec":2715,"ticular":2716,"litat":2717,"Ġpil":2718,"Ġquedar":2719,"Ã§ar":2720,"isteri":2721,"Ġ28":2722,"Ġsum":2723,"uda":2724,"ĠValÃ¨ncia":2725,"ĠconseqÃ¼":2726,"tual":2727,"Ġprofessor":2728,"ocs":2729,"Ġrecol":2730,"Ġenf":2731,"ĠnÃºmero":2732,"Ġmolta":2733,"Ġviure":2734,"rats":2735,"adament":2736,"ĠCh":2737,"quitec":2738,"Ġprova":2739,"Ġseua":2740,"Ġmusic":2741,"Ġprov":2742,"50":2743,"Ġreconeix":2744,"Ġpis":2745,"Ġvist":2746,"Ġgerm":2747,"Ġnecessitat":2748,"Ġconeixement":2749,"tec":2750,"Ġsortir":2751,"ĠAd":2752,"inaciÃ³":2753,"Ġfets":2754,"ocia":2755,"quÃŃ":2756,"ĠsÃ¨rie":2757,"Ãºblica":2758,"pen":2759,"vencions":2760,"Ġ.":2761,"actualitat":2762,"aren":2763,"ĠAvui":2764,"Ġmul":2765,"ollir":2766,"Ġnegoci":2767,"ĠCap":2768,"metre":2769,"Ġsud":2770,"Ġseran":2771,"Ġgas":2772,"Ġespais":2773,"ĠPere":2774,"Ġbaixa":2775,"Ġmesura":2776,"Ġdigi":2777,"Ġ197":2778,"ĠresoluciÃ³":2779,"atura":2780,"Ġnecessitats":2781,"ingÃº":2782,"cel":2783,"Ġaquell":2784,"port":2785,"Ġcompeti":2786,"Ġllu":2787,"ustri":2788,"Ġ2011":2789,"Ġexerci":2790,"Ġbi":2791,"redi":2792,"ifica":2793,"espai":2794,"ĠBen":2795,"AgÃ¨ncia":2796,"Ġimport":2797,"eses":2798,"Ġaccep":2799,"Ã³r":2800,"Ġsiguin":2801,"Ġorigin":2802,"Ġexpos":2803,"ĠPrem":2804,"encial":2805,"go":2806,"tacions":2807,"Ġconsul":2808,"Ġpotser":2809,"cipi":2810,"tÃŃcies":2811,"Ġcara":2812,"Ġjusti":2813,"ger":2814,"avi":2815,"Ġhora":2816,"Ġesmen":2817,"Ġterc":2818,"Ġactual":2819,"Ġpodran":2820,"Ġdipu":2821,"ingÃ¼":2822,"alitats":2823,"Espanya":2824,"Ġimatge":2825,"Ġtractament":2826,"Ġcomunitat":2827,"Ġdemanda":2828,"Ġplanta":2829,"tegra":2830,"gres":2831,"titz":2832,"Ġelements":2833,"organitzaciÃ³":2834,"Ġ2014":2835,"alitzat":2836,"to":2837,"Ġextra":2838,"Ġlim":2839,"entrada":2840,"ĠmÃ¨":2841,"ribu":2842,"Ġestem":2843,"Ġreflex":2844,"Ġfesta":2845,"Ġclub":2846,"Ġestudis":2847,"ÃŃfica":2848,"adell":2849,"Ġtrasll":2850,"Ġport":2851,"Ġmillora":2852,"Ġdol":2853,"Ġdemanar":2854,"Ġresposta":2855,"Ġprocess":2856,"ĠPres":2857,"Ġindivid":2858,"ume":2859,"Ġcot":2860,"Ġpropostes":2861,"Ġhabitu":2862,"Ġpetit":2863,"erva":2864,"Ġart":2865,"Ġemb":2866,"Ãłleg":2867,"Ġprou":2868,"Ġbarri":2869,"ĠprotecciÃ³":2870,"guer":2871,"ĠMal":2872,"Ġconserv":2873,"incid":2874,"ĠdifÃŃ":2875,"ĠIns":2876,"Ġdebat":2877,"entment":2878,"ribunal":2879,"Â»,":2880,"Ġ|":2881,"Ġimpuls":2882,"Ġret":2883,"Ġactuacions":2884,"Ġexplicar":2885,"Ġvisita":2886,"ecres":2887,"Ġ29":2888,"Ġcoordin":2889,"UP":2890,"Ġhor":2891,"Ġ2010":2892,"Ġsindic":2893,"Ġespanyola":2894,"Ġconven":2895,"ĠnotÃŃcies":2896,"Ġresponsable":2897,"oles":2898,"ĠjurÃŃ":2899,"ĠconvocatÃ²ria":2900,"ĠPrim":2901,"Ġmarxa":2902,"Ġsegui":2903,"Ġparticular":2904,"ĠGrup":2905,"Ġfuncions":2906,"lusiÃ³":2907,"Ġsols":2908,"EC":2909,"anys":2910,"carre":2911,"ÃŃssi":2912,"etes":2913,"Ġllegir":2914,"oure":2915,"Ġ31":2916,"guany":2917,"Ġvari":2918,"ĠfÃłcil":2919,"osc":2920,"Ã§ada":2921,"tint":2922,"estiu":2923,"ĠAntoni":2924,"ĠÃĢ":2925,"lles":2926,"Ġestableix":2927,"ĠDecret":2928,"Ġy":2929,"uix":2930,"Ġindic":2931,"Ġfeia":2932,"uÃ¯t":2933,"Ġvoltant":2934,"Ġdonat":2935,"Ġvista":2936,"euros":2937,"gel":2938,"Ġcost":2939,"Ġtre":2940,"entatge":2941,"Ġsortida":2942,"Ġfills":2943,"Ġmillors":2944,"Ġexig":2945,"tora":2946,"Ġpogut":2947,"Ġsus":2948,"che":2949,"Ġparaules":2950,"ide":2951,"rarÃł":2952,"âĢĵ":2953,"Ac":2954,"eratura":2955,"ĠLe":2956,"Ġpi":2957,"Ġgrat":2958,"ssa":2959,"Ġmunicipals":2960,"Ġanat":2961,"Ġidea":2962,"anar":2963,"Ġcivil":2964,"Ġahir":2965,"ĠMont":2966,"Ġcandidat":2967,"Ġcorresponent":2968,"Ġllum":2969,"ĠavanÃ§":2970,"ĠfinanÃ§":2971,"Ġidenti":2972,"Ġcontinuar":2973,"ĠUniÃ³":2974,"Ġguanyar":2975,"Ġfalta":2976,"iscal":2977,"Ġtemes":2978,"Ãºl":2979,"Ġvalenci":2980,"mpoc":2981,"tri":2982,"Ġpreu":2983,"estr":2984,"Ġfon":2985,"alcalde":2986,"atori":2987,"osta":2988,"ĠcanÃ§":2989,"Ġasseny":2990,"Ġpasse":2991,"ĠGar":2992,"itatge":2993,"oble":2994,"guen":2995,"ĠfÃŃs":2996,"ĠQue":2997,"Ġof":2998,"Ġsap":2999,"ferÃ¨ncia":3000,"esper":3001,"Ġconte":3002,"Ġlit":3003,"Ġconsci":3004,"Ġdura":3005,"olÃ²gic":3006,"Ġiniciativa":3007,"Ġpossibilitat":3008,"exper":3009,"Ã²p":3010,"egut":3011,"Ġpal":3012,"ocupaciÃ³":3013,"ofer":3014,"Ġequips":3015,"ĠInterna":3016,"ticles":3017,"cament":3018,"Ġurb":3019,"Ġestrat":3020,"Ġsur":3021,"Ġcient":3022,"Ġdiners":3023,"Ġdisponi":3024,"emen":3025,"Ġfuncion":3026,"Ġgir":3027,"idar":3028,"Ġtard":3029,"Ãĵ":3030,"ĠBo":3031,"ĠsessiÃ³":3032,"Ġmuntany":3033,"atenciÃ³":3034,"Ġimportants":3035,"Ġfonamen":3036,"18":3037,"ĠningÃº":3038,"Ġcategoria":3039,"Ġprevist":3040,"Ã©ixer":3041,"ĠdecisiÃ³":3042,"aplicaciÃ³":3043,"ties":3044,"Ġcompta":3045,"bert":3046,"icip":3047,"Ġderi":3048,"Ġped":3049,"ĠJaume":3050,"tingut":3051,"ĠDel":3052,"Ġmem":3053,"haver":3054,"ĠCarles":3055,"rin":3056,"Ġcentral":3057,"havia":3058,"Ġvoluntat":3059,"Ġefectes":3060,"ĠTerra":3061,"Ġclassi":3062,"Ġincorpor":3063,"fÃŃ":3064,"Ġserv":3065,"Ġmir":3066,"Ġcadasc":3067,"âĢ¢":3068,"Ġhomes":3069,"Ġparts":3070,"Ġtitular":3071,"Euro":3072,"Ġpares":3073,"Ġpub":3074,"lectiu":3075,"peu":3076,"Ġ40":3077,"OE":3078,"Ġbat":3079,"ĠgÃ¨n":3080,"ets":3081,"orda":3082,"estaciÃ³":3083,"Ġvolem":3084,"ĠInter":3085,"Ġexpl":3086,"amp":3087,"Ġobjectiu":3088,"Ġfix":3089,"Ġllista":3090,"ĠMin":3091,"Ġesper":3092,"Ã¨l":3093,"Ġlluita":3094,"Ġzones":3095,"ĠTur":3096,"Ġdimecres":3097,"Ġella":3098,"ront":3099,"OR":3100,"Ġfra":3101,"lusi":3102,"Ġobjectius":3103,"Ġaccions":3104,"Ġvir":3105,"Ġespectac":3106,"Ġjove":3107,"Ġportal":3108,"dap":3109,"Ġfutbol":3110,"Ġsecre":3111,"ĠDipu":3112,"Ġconcurs":3113,"gaf":3114,"Ġtreballs":3115,"Ġade":3116,"Ġmoviment":3117,"urar":3118,"ani":3119,"iental":3120,"ĠeconÃ²mic":3121,"ĠPSC":3122,"ĠvÃŃ":3123,"Ġpropor":3124,"Ġir":3125,"ĠMonts":3126,"Ġprocediment":3127,"Ġer":3128,"ĠPat":3129,"Ġperc":3130,"Ġprevi":3131,"Ġmare":3132,"icions":3133,"mit":3134,"enari":3135,"erÃ§":3136,"Ġdeleg":3137,"ĠcomÃº":3138,"Ġpensar":3139,"Ġconseller":3140,"Ġteva":3141,"Ġtercer":3142,"12":3143,"Ġquad":3144,"IN":3145,"ĠveÃ¯ns":3146,"urals":3147,"adÃ¨m":3148,"Ġ...":3149,"talla":3150,"Ġcelebrar":3151,"ĠMÃ©s":3152,"Ġcomarca":3153,"prendre":3154,"Ġlleg":3155,"ĠmÃ²":3156,"ĠPress":3157,"Ġoficial":3158,"Ġwww":3159,"espec":3160,"ĠValenci":3161,"ismes":3162,"asses":3163,"Ġgesti":3164,"tatges":3165,"quel":3166,"Ġvolen":3167,"ĠmitjÃł":3168,"rant":3169,"ible":3170,"Ġllavors":3171,"Ġtaula":3172,"ĠBa":3173,"AssociaciÃ³":3174,"'.":3175,"Ġincre":3176,"Ġdiferent":3177,"omÃł":3178,"Ġofereix":3179,"olÃ²gica":3180,"Ġendavant":3181,"inf":3182,"Ġapun":3183,"Ġperm":3184,"Ġcompanyia":3185,"ĠCultura":3186,"Ġexcep":3187,"Ġadequ":3188,"Ġ193":3189,"ĠPen":3190,"Ġbri":3191,"Ġec":3192,"Ġpodeu":3193,"Ġcert":3194,"istir":3195,"aven":3196,"ood":3197,"lant":3198,"ĠServei":3199,"Ġocas":3200,"tru":3201,"Ġdocument":3202,"Ġnovel":3203,"arrib":3204,"ĠACN":3205,"Ġempresa":3206,"rics":3207,"inat":3208,"Ġedifici":3209,"ast":3210,"ĠLlu":3211,"Ġcoronavirus":3212,"edat":3213,"metres":3214,"ump":3215,"jecte":3216,"Ġtoc":3217,"orig":3218,"iran":3219,"Ġfru":3220,"lle":3221,"Ġcorrec":3222,"edifici":3223,"Ġentrar":3224,"nec":3225,"table":3226,"Ġreal":3227,"toral":3228,"ĠMunicip":3229,"veu":3230,"Ġactualment":3231,"mble":3232,"Ġconflic":3233,"hores":3234,"gular":3235,"Ġ,":3236,"Ġconcent":3237,"Ġampli":3238,"orregut":3239,"Ġestruc":3240,"AM":3241,"Ġdarrers":3242,"ĠprÃ¨":3243,"dac":3244,"Ġposterior":3245,"ĠEstats":3246,"actuaciÃ³":3247,"za":3248,"Ġfl":3249,"ĠposiciÃ³":3250,"Ġ2009":3251,"Ġconfir":3252,"âĤ":3253,"Ġprendre":3254,"Ġdific":3255,"Ġpaci":3256,"ĠSalut":3257,"Ġcolor":3258,"Ġadap":3259,"Ġusuaris":3260,"âĤ¬":3261,"ĠreuniÃ³":3262,"ror":3263,"Ã²nia":3264,"turals":3265,"ederaciÃ³":3266,"Ãºst":3267,"exp":3268,"Ġelabor":3269,"Ġcoop":3270,"Ġbanc":3271,"Ġactes":3272,"edia":3273,"Ġmans":3274,"Ġpetits":3275,"dors":3276,"torn":3277,"Ġrelle":3278,"Ġvalors":3279,"ĠexperiÃ¨ncia":3280,"ĠÃºltims":3281,"ĠindependÃ¨ncia":3282,"Ġinstitucions":3283,"omes":3284,"ensa":3285,"Ġplata":3286,"istents":3287,"odi":3288,"titud":3289,"ĠdifÃŃcil":3290,"Ġpresentat":3291,"ps":3292,"ĠFranÃ§a":3293,"Ġfar":3294,"Ġcanvis":3295,"ĠFa":3296,"orca":3297,"usiÃ³":3298,"ĠdocumentaciÃ³":3299,"Ġfuncionament":3300,"Ġgrau":3301,"capa":3302,"indic":3303,"Ġnormativa":3304,"Ġmalgrat":3305,"Ġaplic":3306,"Ġuniversi":3307,"Ġdigital":3308,"Ġimpres":3309,"Ġsala":3310,"loc":3311,"Ġriu":3312,"chez":3313,"Ġatendre":3314,"Ġplantes":3315,"enyament":3316,"ĠCent":3317,"ĠAm":3318,"Ġcompos":3319,"Ġsovint":3320,"Ġpremsa":3321,"Ġentorn":3322,"Ġmoments":3323,"Ġparticipants":3324,"Ġquar":3325,"ĠFes":3326,"Ġsepar":3327,"ĠMerc":3328,"ologies":3329,"iblioteca":3330,"Ġperfec":3331,"Ġvac":3332,"altre":3333,"ĠRos":3334,"Ġfinalment":3335,"ĠTerritori":3336,"isb":3337,"fiques":3338,"lÃŃcula":3339,"ilar":3340,"vos":3341,"Ġdelic":3342,"ĠMuseu":3343,"Ġmiss":3344,"Ġdemana":3345,"ĠDirecciÃ³":3346,"ĠUnits":3347,"Ġcontacte":3348,"Ġindustri":3349,"Ġclau":3350,"Ġconform":3351,"Ġfinals":3352,"Ġquantitat":3353,"Ġdescon":3354,"Ġapor":3355,"ertes":3356,"Ġ2008":3357,"ĠEns":3358,"tisme":3359,"ĠespÃ¨":3360,"Ġciutadania":3361,"ĠCatalÃł":3362,"ĠTots":3363,"ĠEm":3364,"mentar":3365,"Ġclasse":3366,"eli":3367,"viar":3368,"Ġcontemp":3369,"Ġassol":3370,"dats":3371,"guem":3372,"Ġtasca":3373,"eus":3374,"Ġarticles":3375,"Ġ196":3376,"Ġestudiants":3377,"Ġcontingut":3378,"Ġaspectes":3379,"Ġaccedir":3380,"rades":3381,"iem":3382,"rent":3383,"Ġnecessari":3384,"icaciÃ³":3385,"Ġvuit":3386,"Ġrepresentants":3387,"Ġglob":3388,"ce":3389,"ĠJosÃ©":3390,"Ġtransport":3391,"Ġprogrames":3392,"Ġconveni":3393,"essa":3394,"rÃŃ":3395,"ĠTra":3396,"siva":3397,"ĠcompromÃŃs":3398,"Ġabsol":3399,"Ġmapa":3400,"Ġseguit":3401,"uel":3402,"IÃĵ":3403,"ĠvÃŃde":3404,"Ã²ries":3405,"ĠSec":3406,"Escola":3407,"tituciÃ³":3408,"Ġul":3409,"ĠNom":3410,"ong":3411,"quin":3412,"Ġinfantil":3413,"Ġtrobada":3414,"ĠimportÃłncia":3415,"Ġescrit":3416,"Ġarribat":3417,"Ġaconsegueix":3418,"Ġcarrers":3419,"Ġmateixos":3420,"Ġrei":3421,"Ġobtenir":3422,"Ġajudar":3423,"Ġmena":3424,"ser":3425,"eracions":3426,"Ġsignifica":3427,"Ġdificul":3428,"Ġteatre":3429,"ting":3430,"Ġpatrimoni":3431,"ĠprÃ²xim":3432,"ĠcaracterÃŃstiques":3433,"Ġreno":3434,"ĠDÃ©u":3435,"glÃ¨s":3436,"Ġjuntament":3437,"ĠtÃ¨cnic":3438,"Ġperdre":3439,"Ġinno":3440,"ĠqÃ¼estiÃ³":3441,"licitat":3442,"Ġexpress":3443,"inform":3444,"fon":3445,"Ġbal":3446,"ĠrepresentaciÃ³":3447,"Ġcanviar":3448,"Ã²nica":3449,"Ġfoto":3450,"isti":3451,"alta":3452,"15":3453,"Ġindependen":3454,"sia":3455,"EM":3456,"Ġmunicipis":3457,"ĠMarc":3458,"Ġperill":3459,"rans":3460,"ĠTreball":3461,"ĠEuropea":3462,"Ãłlisi":3463,"ĠÃºs":3464,"Ġgui":3465,"Ġaviat":3466,"Ġarriba":3467,"Ġutilitzar":3468,"ĠPre":3469,"Ġdepartament":3470,"Ġrelig":3471,"quia":3472,"roc":3473,"Ġrepresenta":3474,"Ġfu":3475,"tem":3476,"ecuciÃ³":3477,"oti":3478,"enda":3479,"Ġhagut":3480,"Ġcorreu":3481,"rega":3482,"Ġprincipi":3483,"Ġdarrera":3484,"Ġpetita":3485,"ocal":3486,"ĠvÃŃc":3487,"Ġestran":3488,"ificaciÃ³":3489,"AD":3490,"Ġterren":3491,"ĠgÃ¨nere":3492,"quet":3493,"Ġrelacions":3494,"IS":3495,"ĠClub":3496,"Ġintel":3497,"estructura":3498,"Ġtampoc":3499,"Ġposa":3500,"ĠInternacional":3501,"fil":3502,"Ġfran":3503,"Ġ2007":3504,"Ġsosten":3505,"Ġproced":3506,"Ġveritat":3507,"Ġproves":3508,"Ġemo":3509,"Ġfinalitat":3510,"ĠComp":3511,"ĠpresÃ³":3512,"Ġdifondre":3513,"Ġdreta":3514,"Ġinfer":3515,"ables":3516,"ĠdisposiciÃ³":3517,"ĠqÃ¼esti":3518,"Ġplat":3519,"Ġhas":3520,"Ġsetmanes":3521,"Ġcoincid":3522,"IT":3523,"Ġobert":3524,"Ġllic":3525,"AdministraciÃ³":3526,"Ġdirectament":3527,"Ġcab":3528,"Ġregist":3529,"alum":3530,"Ġconvertir":3531,"Ġdesapar":3532,"...]":3533,"teris":3534,"entiment":3535,"ĠXX":3536,"rÃŃc":3537,"ĠVol":3538,"Ġresponsabilitat":3539,"Ġsenti":3540,"UR":3541,"Ġoportun":3542,"Ġprimeres":3543,"Ġposat":3544,"ĠMiquel":3545,"ĠraÃ³":3546,"Ġprofess":3547,"ociacions":3548,"iniÃ³":3549,"Ġnuc":3550,"tiga":3551,"ĠPremi":3552,"Ġge":3553,"vall":3554,"Ġjugar":3555,"Ġsot":3556,"reus":3557,"Ġalhora":3558,"ĠprÃ¨via":3559,"Ġformar":3560,"Ġfoc":3561,"Ġmitjana":3562,"Ġcrec":3563,"Ġagaf":3564,"Ġmembre":3565,"Ġxif":3566,"gent":3567,"uari":3568,"Ġrecep":3569,"versiÃ³":3570,"Ġpais":3571,"Ġali":3572,"ĠDiputaciÃ³":3573,"Ã§at":3574,"ĠAss":3575,"ĠMor":3576,"Ġprincipis":3577,"Europa":3578,"estÃł":3579,"Ġconstruir":3580,"ĠLu":3581,"ĠAquests":3582,"14":3583,"pies":3584,"vem":3585,"Ġdesenvolupar":3586,"Ġcerti":3587,"Ġadministracions":3588,"Ġess":3589,"ĠtÃ¨cnica":3590,"expres":3591,"Ġcla":3592,"Ġtram":3593,"eixin":3594,"ĠviolÃ¨ncia":3595,".\"":3596,"ton":3597,"reix":3598,"Ġconegut":3599,"AS":3600,"Ġcontracte":3601,"Ġmec":3602,"itx":3603,"Ġnav":3604,"Ġafegit":3605,"essions":3606,"exc":3607,"Ġcicle":3608,"IB":3609,"Ġev":3610,"Ġobstant":3611,"exerci":3612,"cit":3613,"Ġsituat":3614,"ire":3615,"Ġmaterials":3616,"ĠDia":3617,"ficacions":3618,"Ġsistemes":3619,"ĠFrancesc":3620,"guÃ©":3621,"ĠXavi":3622,"ĠEmp":3623,"Ġintro":3624,"Ġconcert":3625,"Ġdiari":3626,"alitzada":3627,"Ġacus":3628,"Ġjust":3629,"alles":3630,"ĠPed":3631,"Ġgarantir":3632,"ĠBer":3633,"Ġjugadors":3634,"Ġenerg":3635,"Ur":3636,"Ġsubvencions":3637,"Ġavan":3638,"Ġconv":3639,"ĠPau":3640,"Ġ[...]":3641,"acab":3642,"Ġpren":3643,"interÃ¨s":3644,"Ġfamiliar":3645,"Ġselec":3646,"Ġviatge":3647,"Ġhome":3648,"Ġpost":3649,"ĠTribunal":3650,"Ġ60":3651,"Ġperd":3652,"ĠBaix":3653,"ĠSabadell":3654,"Ġcomptar":3655,"Ġfase":3656,"ĠPor":3657,"Ġhabi":3658,"exposiciÃ³":3659,"Ġincl":3660,"ĠER":3661,"Ġquil":3662,"buix":3663,"vats":3664,"Ã¨rica":3665,"actual":3666,"gacions":3667,"Ġconsider":3668,"iÃ¨ncies":3669,"enar":3670,"Ġrequer":3671,"Ġtallers":3672,"eral":3673,"ories":3674,"Ġimpl":3675,"Ġxarxes":3676,"ĠmÃłxima":3677,"Ġassegurat":3678,"Ġconsentiment":3679,"Ġder":3680,"Ġtroben":3681,"emanya":3682,"ĠII":3683,"Ġsegur":3684,"ĠVer":3685,"Ġ194":3686,"Ġtind":3687,"Ġimatges":3688,"ografi":3689,"Ġdisposa":3690,"Ġescoles":3691,"Ġoferir":3692,"ĠSÃ³n":3693,"Ġtinc":3694,"pid":3695,"Ġespanyols":3696,"Ã¨nd":3697,"Ġassenyal":3698,"EducaciÃ³":3699,"giques":3700,"ĠBarÃ§a":3701,"xt":3702,"ĠFinalment":3703,"ĠConveni":3704,"Ġredu":3705,"dament":3706,"ediciÃ³":3707,"Ġreiv":3708,"ĠmemÃ²ria":3709,"ĠRamon":3710,"Ġgreu":3711,"Ã¡nchez":3712,"guns":3713,"dorra":3714,"Ġconvid":3715,"No":3716,"Ġfund":3717,"Ġacte":3718,"emÃłtica":3719,"ĠpromociÃ³":3720,"Ġpodia":3721,"ĠXV":3722,"Ġtercera":3723,"Ġamics":3724,"ĠActu":3725,"Ġprefer":3726,"Ġrevol":3727,"ĠFel":3728,"Ġcreixement":3729,"ĠBale":3730,"ĠMossos":3731,"Ġpocs":3732,"OG":3733,"ĠGrÃł":3734,"vades":3735,"ĠCongrÃ©s":3736,"ĠNadal":3737,"ĠCUP":3738,"giny":3739,"Ġsentir":3740,"Ġciutats":3741,"ka":3742,"dal":3743,"Ãłnica":3744,"ĠPi":3745,"ĠFins":3746,"tana":3747,"Ġproducte":3748,"ĠFac":3749,"ĠMunicipal":3750,"ĠtÃ¨cniques":3751,"ĠLluÃŃs":3752,"Ġagents":3753,"ĠJus":3754,"Ġmarca":3755,"otel":3756,"Ġnoti":3757,"odes":3758,"Ġmenj":3759,"Ġdespla":3760,"ĠSÃ¡nchez":3761,"onomia":3762,"Ġfron":3763,"ĠCoronavirus":3764,"allar":3765,"Ġvehicles":3766,"iten":3767,"rees":3768,"Ġexecu":3769,"origen":3770,"gida":3771,"ĠfrancÃ¨s":3772,"ĠHo":3773,"Ġconvi":3774,"Ġcontinua":3775,"ĠselecciÃ³":3776,"ĠalgÃº":3777,"venir":3778,"Ġdenunci":3779,"vistes":3780,"ates":3781,"ĠPalau":3782,"io":3783,"ĠNova":3784,"entorn":3785,"Ġpublicat":3786,"ĠSa":3787,"Ġtrasllad":3788,"Ġpec":3789,"Ġnomb":3790,"adalona":3791,"arcal":3792,"Ġmilitar":3793,"Ġexclusi":3794,"ĠversiÃ³":3795,"Ġvincul":3796,"ĠEsc":3797,"Ġadre":3798,"rit":3799,"Ġdistribuir":3800,"ĠCivil":3801,"augu":3802,"ĠCu":3803,"ense":3804,"ĠForm":3805,"Ġpolicia":3806,"cle":3807,"Ġsatis":3808,"ĠReus":3809,"Ġestim":3810,"Ġpac":3811,"Ġimplic":3812,"ĠAquestes":3813,"Ġplena":3814,"Ġaquella":3815,"ĠRib":3816,"ĠCer":3817,"efec":3818,"Ġconsulta":3819,"anim":3820,"17":3821,"Ġcompor":3822,"ĠclÃłs":3823,"mblea":3824,"iga":3825,"Ġinaugu":3826,"Ġunitats":3827,"Ġpagar":3828,"amor":3829,"escrip":3830,"Ġconduc":3831,"mon":3832,"Ġconcre":3833,"Ġmasc":3834,"orial":3835,"Ġperdu":3836,"Ġcompliment":3837,"ĠGuerra":3838,"Ġrecull":3839,"Ġdubte":3840,"Ġtreb":3841,"Ġalterna":3842,"Ġguard":3843,"Ġeurope":3844,"ĠManresa":3845,"obregat":3846,"Ġexisteix":3847,"mentat":3848,"ĠBadalona":3849,"ĠsuperfÃŃ":3850,"Ġinterpre":3851,"ĠCul":3852,"onÃ²m":3853,"ĠelÃ¨c":3854,"bi":3855,"Ġmusical":3856,"ĠUr":3857,"can":3858,"Ġsuposa":3859,"Ġredac":3860,"Ġcarretera":3861,"Ġinvestig":3862,"vocar":3863,"usta":3864,"Ġviat":3865,"Ġadop":3866,"Ġsecretari":3867,"Ġinfants":3868,"Ġescriure":3869,"ĠLla":3870,"Ġtend":3871,"Ġfiscal":3872,"Ġdestacat":3873,"Ãºstria":3874,"tirar":3875,"Ġprior":3876,"Ġsenz":3877,"ucions":3878,"Ġconsol":3879,"ĠCat":3880,"Ġpret":3881,"Ġcrea":3882,"Ġrecorregut":3883,"Ġbuscar":3884,"Ġlectura":3885,"ibilitat":3886,"Ġdocuments":3887,"ĠprÃłctiques":3888,"ĠTen":3889,"ĠIs":3890,"Ġliter":3891,"Ġaconseguit":3892,"ĠdÃ¨c":3893,"Ġfigura":3894,"orden":3895,"Ġele":3896,"Un":3897,"onats":3898,"Ġpagament":3899,"Ġarticle":3900,"Ãºltim":3901,"informaciÃ³":3902,"ĠVallÃ¨s":3903,"Ġsex":3904,"igua":3905,"Ġpremis":3906,"Ġprohibit":3907,"Ġentendre":3908,"Ġnormes":3909,"ĠJunta":3910,"AP":3911,"rament":3912,"ental":3913,"ogrÃłfic":3914,"Ġfinanc":3915,"siques":3916,"eques":3917,"Ġvot":3918,"urg":3919,"posar":3920,"etats":3921,"Ġsenyor":3922,"Ġ2019":3923,"ĠLlobregat":3924,"olÃŃ":3925,"Ã²leg":3926,"Ãłb":3927,"administraciÃ³":3928,"ĠTV":3929,"ĠsÃ©":3930,"ĠlÃŃder":3931,"Ġsegueix":3932,"economia":3933,"ĠCiutad":3934,"Ġaprovat":3935,"Ã¨ndum":3936,"Ġfab":3937,"Ġub":3938,"Ġdo":3939,"ĠlingÃ¼":3940,"prenentatge":3941,"Ġaprofi":3942,"equ":3943,"ĠPSOE":3944,"--":3945,"Ġmeitat":3946,"ĠParc":3947,"ĠTeatre":3948,"Ġcursos":3949,"Ġrecordar":3950,"Ġextre":3951,"Ġobrir":3952,"ĠÂ·":3953,"ki":3954,"Ġaplica":3955,"Ġdibuix":3956,"Ġlluny":3957,"Ġmenjar":3958,"tion":3959,"taran":3960,"ĠcomissiÃ³":3961,"Ġmorir":3962,"icacions":3963,"Ex":3964,"16":3965,"Ġcriteris":3966,"arial":3967,"mbra":3968,"ĠdiferÃ¨ncia":3969,"ficient":3970,"quil":3971,"Ġtorna":3972,"Ġoculta":3973,"ĠelectrÃ²nic":3974,"ÃŃm":3975,"Ġdestacar":3976,"Ġ2006":3977,"Ġbases":3978,"Ġobligat":3979,"Ġcinema":3980,"ET":3981,"Ġenseny":3982,"Ãłnim":3983,"ĠlÃŃnies":3984,"ĠNomÃ©s":3985,"Ġmuntanya":3986,"Ġlid":3987,"Ġextraordin":3988,"ĠrealitzaciÃ³":3989,"ordre":3990,"ach":3991,"Ġanteriors":3992,"Emp":3993,"oluciÃ³":3994,"Ġassum":3995,"OC":3996,"Ġtrobem":3997,"Ġpon":3998,"visi":3999,"ublic":4000,"Ġcatalanes":4001,"ĠMedi":4002,"Ġmanteniment":4003,"itzat":4004,"ĠfinanÃ§ament":4005,"Ġcompro":4006,"ertura":4007,"itÃ¨":4008,"Ġproductiva":4009,"Ġmag":4010,"Ġnaveg":4011,"ficial":4012,"zar":4013,"Ġaband":4014,"Ġfonts":4015,"ĠMed":4016,"activitats":4017,"Ġpersonatges":4018,"ĠReial":4019,"ĠcastellÃł":4020,"Ġgol":4021,"Ġcelebra":4022,"ompl":4023,"Ġmer":4024,"Ġblanc":4025,"Ġtingui":4026,"ÃŃstics":4027,"ĠCiU":4028,"Ġaquelles":4029,"Ã¨tic":4030,"ĠDav":4031,"Ġrecuperar":4032,"ĠmÃ²bil":4033,"ke":4034,"Ġforces":4035,"Ġagrada":4036,"Ġacabat":4037,"ator":4038,"Ġdeixa":4039,"aluaciÃ³":4040,"Ġreconeixement":4041,"ĠSÃŃ":4042,"Ġrequis":4043,"ĠCasa":4044,"cul":4045,"jada":4046,"Ġtreballador":4047,"Ġentren":4048,"Ġprocessos":4049,"ĠvictÃ²ria":4050,"Ġconcepte":4051,"ĠMari":4052,"Ġparaula":4053,"ĠexprÃ©s":4054,"Ãłrea":4055,"aquÃŃ":4056,"Ġadministratiu":4057,"Barcelona":4058,"Ġvisitar":4059,"xi":4060,"Ġfavorita":4061,"Ġtasques":4062,"13":4063,"ĠSala":4064,"Ġcontext":4065,"Ġesdeveni":4066,"Ġqued":4067,"ĠPolÃŃ":4068,"Ġperme":4069,"Ġfacilitar":4070,"exercici":4071,"Ġveri":4072,"Ġcompartir":4073,"Ġquina":4074,"opa":4075,"ĠcelebraciÃ³":4076,"ĠDon":4077,"Ġkm":4078,"Ġportaveu":4079,"Ġassi":4080,"IA":4081,"enat":4082,"ali":4083,"tric":4084,"istÃ²ria":4085,"ĠOb":4086,"ĠXI":4087,"Ġescolar":4088,"Ġdestaca":4089,"Ġunivers":4090,"pes":4091,"Ġdispu":4092,"Ġpsic":4093,"ĠBl":4094,"Ġesfor":4095,"igÃ¼es":4096,"nia":4097,"Ġtreballa":4098,"ega":4099,"estre":4100,"Ġperju":4101,"Ġunitat":4102,"Ġmalaltia":4103,"Ġtermes":4104,"ografies":4105,"Ġclients":4106,"Ġequi":4107,"errat":4108,"Ġhumans":4109,"Ġperman":4110,"Ġconta":4111,"onor":4112,"ĠcompetÃ¨ncies":4113,"issions":4114,"Ġvots":4115,"Ġmostrar":4116,"ĠreferÃ¨ndum":4117,"Ġministre":4118,"ĠCada":4119,"Ġdeixat":4120,"Ġtotalment":4121,"enf":4122,"Ġsubstitu":4123,"Ġintegra":4124,"Ġconsta":4125,"Ġcosta":4126,"Ġvenda":4127,"Ġpolici":4128,"Ġmas":4129,"Ġdirecte":4130,"ĠconseqÃ¼Ã¨ncia":4131,"Ġjocs":4132,"ĠBalears":4133,"Ġdescomp":4134,"itor":4135,"ĠcontinuaciÃ³":4136,"gers":4137,"avor":4138,"OM":4139,"ado":4140,"Ġcuina":4141,"Ġgar":4142,"Ġsem":4143,"Ġformes":4144,"Ġafectats":4145,"unes":4146,"Ġator":4147,"Ġdiscurs":4148,"times":4149,"otes":4150,"Ġtarge":4151,"erament":4152,"Ġretorn":4153,"Ġculturals":4154,"Ġadqui":4155,"ĠintervenciÃ³":4156,"gles":4157,"vÃ¨ncia":4158,"ĠAs":4159,"sion":4160,"Ġsensi":4161,"tilla":4162,"Ġsil":4163,"ĠPl":4164,"aju":4165,"ĠServeis":4166,"ĠRepÃºblica":4167,"Ġtradicional":4168,"Ġcompanys":4169,"cant":4170,"mbits":4171,"ĠÃ¨xit":4172,"ĠERC":4173,"itatges":4174,"ĠMat":4175,"Ġpublicar":4176,"Ġplaces":4177,"idors":4178,"ĠestratÃ¨g":4179,"tt":4180,"ĠÃ²r":4181,"experiÃ¨ncia":4182,"ĠTan":4183,"ĠdiÃłleg":4184,"Ġdetec":4185,"ele":4186,"âĢĶ":4187,"ĠGo":4188,"Ġpersonals":4189,"Ġclasses":4190,"Ġ80":4191,"mits":4192,"americ":4193,"Ġadministrativa":4194,"ĠmodificaciÃ³":4195,"riu":4196,"Ġbomb":4197,"elec":4198,"ĠNomen":4199,"Ġdiuen":4200,"ĠinvestigaciÃ³":4201,"EL":4202,"ĠFood":4203,"80":4204,"Ġpossibles":4205,"Ġdecret":4206,"Ġelectoral":4207,"Ġpermetre":4208,"gell":4209,"Ġparticipa":4210,"tÃłria":4211,"Ãłnia":4212,"hor":4213,"eries":4214,"Ġiniciar":4215,"Ġcondem":4216,"Ã³rrer":4217,"dez":4218,"ĠFor":4219,"agrada":4220,"abs":4221,"Ġreforma":4222,"Ġestablir":4223,"Ġneu":4224,"Ãºnic":4225,"Ġcerta":4226,"Ġincid":4227,"bilitats":4228,"Ġmarx":4229,"Ġcorresponents":4230,"Ġeta":4231,"Ġesca":4232,"Ġnov":4233,"ĠallÃł":4234,"ĠRÃł":4235,"Ã³c":4236,"oms":4237,"OS":4238,"ĠMall":4239,"ĠPe":4240,"Ġpertany":4241,"Ġdespeses":4242,"ĠsubvenciÃ³":4243,"Ġgiron":4244,"ales":4245,"banisme":4246,"Ġambient":4247,"Ġconten":4248,"Ġgaire":4249,"Ġestaven":4250,"Ġordin":4251,"ĠBor":4252,"Ġtecnologia":4253,"Ġtenien":4254,"Ġmanca":4255,"Ġquedat":4256,"Ġdefinitiva":4257,"menta":4258,"Ġplu":4259,"Ġfestes":4260,"Ġobserv":4261,"bo":4262,"ĠnecessÃłria":4263,"ĠPaÃŃs":4264,"Ġsituacions":4265,"ĠSub":4266,"ĠFern":4267,"Ġtancar":4268,"Ãłrdia":4269,"ĠPas":4270,"Ġrepro":4271,"Ġtreballant":4272,"quad":4273,"dis":4274,"Ġban":4275,"25":4276,"oso":4277,"ĠdeclaraciÃ³":4278,"Ġhagin":4279,"Ġcircums":4280,"ĠjurÃŃdic":4281,"Ġinforma":4282,"Ġvesp":4283,"Ġprote":4284,"encia":4285,"Ġrefor":4286,"Ġargu":4287,"ĠBra":4288,"cipl":4289,"tÃłncia":4290,"Ġpeu":4291,"enciar":4292,"ork":4293,"quem":4294,"Ġcarrera":4295,"40":4296,"enten":4297,"Ã²sit":4298,"ĠMart":4299,"Ġalta":4300,"ĠHem":4301,"tÃłncies":4302,"Ġlegal":4303,"Ġinteressos":4304,"Ġfront":4305,"ĠSeguretat":4306,"Ġcomptes":4307,"ionat":4308,"Ġgenerals":4309,"Ġhabitual":4310,"Ġvigent":4311,"ĠtÃ¨cnics":4312,"Ġportes":4313,"Ġtaller":4314,"Ġprec":4315,"IP":4316,"Ġcomercial":4317,"Ġ195":4318,"ĠFederaciÃ³":4319,"ĠacadÃ¨m":4320,"Ġobjecte":4321,"ĠAu":4322,"ĠIlles":4323,"Ġplante":4324,"rus":4325,"ĠsuperfÃŃcie":4326,"ugi":4327,"ua":4328,"ĠOl":4329,"ĠsoluciÃ³":4330,"esglÃ©sia":4331,"Ġdemanat":4332,"Ġproduir":4333,"Ġapareix":4334,"Ġconnec":4335,"Ġvel":4336,"ters":4337,"ino":4338,"aire":4339,"ĠpÃ¨r":4340,"ĠgratuÃ¯":4341,"ĠÃłmbits":4342,"Ġpobles":4343,"ĠRod":4344,"Ġnombros":4345,"Ġorganitzat":4346,"menys":4347,"eig":4348,"Ġacos":4349,"Ġalt":4350,"vells":4351,"Ã¨ries":4352,"ĠFoods":4353,"Ġtreure":4354,"hes":4355,"Els":4356,"Ġcontrib":4357,"Ġhauran":4358,"Ġcontes":4359,"aldia":4360,"ĠdemocrÃłcia":4361,"Ġress":4362,"pir":4363,"ĠPos":4364,"cada":4365,"Ġassegura":4366,"cisament":4367,"home":4368,"Ġassoci":4369,"ĠDavid":4370,"AB":4371,"Ġllarga":4372,"ĠvÃŃdeo":4373,"Ġdepend":4374,"Ġinclo":4375,"Ġtenint":4376,"Ġmotius":4377,"Ġvaren":4378,"Ġfort":4379,"onament":4380,"Ã²giques":4381,"ĠJes":4382,"tador":4383,"Ġpropietat":4384,"ĠvisiÃ³":4385,"Ġdescobrir":4386,"Ġrevista":4387,"Ġrealitzat":4388,"Ġcotxe":4389,"ĠâĢ¢":4390,"Ġresoldre":4391,"Ġpeces":4392,"Ġresponsables":4393,"ĠAlbert":4394,"uf":4395,"Ġarreu":4396,"Ġrecorda":4397,"ĠautÃ²n":4398,"mo":4399,"Ġcorre":4400,"ĠUs":4401,"Ġconeixements":4402,"Ġbloc":4403,"Ġavantatges":4404,"Ġamen":4405,"tides":4406,"Ġpau":4407,"ĠprovÃŃn":4408,"ĠXavier":4409,"Ġmagn":4410,"Ġoper":4411,"Ġoberta":4412,"Ġcomprar":4413,"enÃ§":4414,"Ġparc":4415,"ÃŃfics":4416,"Ġescrip":4417,"ĠcrÃ¨":4418,"emb":4419,"ĠFira":4420,"ĠtelevisiÃ³":4421,"rot":4422,"ĠColoma":4423,"istori":4424,"versitat":4425,"Ġliteratura":4426,"Ġsort":4427,"Ġmenor":4428,"Ã¯da":4429,"diovis":4430,"Ġidees":4431,"Ġ(\"":4432,"cionat":4433,"Ġima":4434,"esca":4435,"Ġeducatiu":4436,"Ġregidor":4437,"Ã¨poca":4438,"investi":4439,"gada":4440,"ĠtradiciÃ³":4441,"tali":4442,"Ġsatisf":4443,"riÃł":4444,"Ġtrobat":4445,"ficada":4446,"ĠpÃ¨rdu":4447,"III":4448,"Ġdisposi":4449,"epres":4450,"amunt":4451,"esquerra":4452,"tel":4453,"Ã¨x":4454,"Ġba":4455,"Ġmenjador":4456,"Ġeix":4457,"Ġrit":4458,"vador":4459,"arr":4460,"Ġaprof":4461,"Ġprofun":4462,"Ġdonen":4463,"ĠhaguÃ©s":4464,"Ġplataforma":4465,"Ġsectors":4466,"Ġcomplir":4467,"Ġsuperar":4468,"endemÃł":4469,"OGC":4470,"Ġrealment":4471,"istent":4472,"pora":4473,"iÃł":4474,"vas":4475,"Ġcompra":4476,"graf":4477,"Ġinternacionals":4478,"habili":4479,"Ġregul":4480,"orar":4481,"Ġseguiment":4482,"Ġdoble":4483,"Ġdetal":4484,"endari":4485,"Ġtinguin":4486,"Ġnaturals":4487,"Ġpista":4488,"Ġreduir":4489,"Ġoriginal":4490,"Ġfonamental":4491,"Ġpreocup":4492,"Ġbra":4493,"ĠregiÃ³":4494,"//":4495,"Ġbosc":4496,"olÃ²gics":4497,"lecciÃ³":4498,"ERC":4499,"Ġllo":4500,"ĠGal":4501,"ĠsentÃ¨ncia":4502,"Ġdetall":4503,"ĠJuan":4504,"Ġderro":4505,"ospita":4506,"Ġpropis":4507,"Ġorien":4508,"ĠHe":4509,"ĠConc":4510,"Ġnivells":4511,"hau":4512,"Ġ>":4513,"Ġconcret":4514,"Ġinflu":4515,"Ġfestival":4516,"Ġrecoman":4517,"Ġvolgut":4518,"ĠMartÃŃ":4519,"Ġformen":4520,"ĠNe":4521,"Ġfrac":4522,"avui":4523,"ĠfaÃ§":4524,"Ġintentar":4525,"Ġeines":4526,"teixen":4527,"ĠsecciÃ³":4528,"Ġgos":4529,"Ġatac":4530,"Ġajuntament":4531,"Ġnota":4532,"Ġmoder":4533,"Ġhip":4534,"Ġpregunta":4535,"ĠmÃ¨t":4536,"Ġpassada":4537,"Ġmic":4538,"cina":4539,"ĠThe":4540,"ĠÃŃn":4541,"ĠMundial":4542,"%.":4543,"iversari":4544,"ĠProgra":4545,"atur":4546,"Ġfamiliars":4547,"ĠdistribuciÃ³":4548,"Ġrepe":4549,"cl":4550,"Ġganes":4551,"Ġcontrari":4552,"Ġ*":4553,"anova":4554,"Ġindustrial":4555,"Ã¨rcit":4556,"ĠllanÃ§":4557,"Ġpublica":4558,"dria":4559,"Ġnete":4560,"tils":4561,"Ġgust":4562,"Ġterres":4563,"Ġturisme":4564,"orci":4565,"ĠcomenÃ§at":4566,"Ã²c":4567,"Ġ)":4568,"Ġfemen":4569,"Ġ2005":4570,"ĠPots":4571,"ich":4572,"Ġvacances":4573,"Ġhabitants":4574,"oraciÃ³":4575,"ĠpretÃ©n":4576,"Ġanual":4577,"Ġacredi":4578,"uraciÃ³":4579,"Ġquart":4580,"apartat":4581,"CO":4582,"Ġinstru":4583,"Ġtret":4584,"Ãºltima":4585,"edit":4586,"ĠOc":4587,"ĠtelÃ¨":4588,"RE":4589,"mateix":4590,"ĠBi":4591,"Ġacaba":4592,"Ġajuda":4593,"gress":4594,"As":4595,"Ġterritorial":4596,"capacitat":4597,"Ġenlla":4598,"ĠquilÃ²":4599,"Ġmundial":4600,"dreu":4601,"ĠFl":4602,"xiu":4603,"ĠMallorca":4604,"cio":4605,"ĠActualment":4606,"itza":4607,"ecutiu":4608,"ĠrÃłpi":4609,"Ġpedra":4610,"ficina":4611,"usuari":4612,"Ġtransform":4613,"ĠMen":4614,"://":4615,"Ġplans":4616,"Ġdurada":4617,"ilib":4618,"Ġmobilitat":4619,"cen":4620,"ĠprevenciÃ³":4621,"Ġambiental":4622,"Ġdefensar":4623,"esos":4624,"nsit":4625,"liaciÃ³":4626,"lars":4627,"Ġpreus":4628,"Ġfeta":4629,"Ġbones":4630,"Ġcant":4631,"Ebre":4632,"gÃ¼es":4633,"cident":4634,"itud":4635,"ĠprogramaciÃ³":4636,"Ġsanitari":4637,"ĠÃ¨poca":4638,"Ġ35":4639,"Ġanimals":4640,"Ġ70":4641,"ĠFestival":4642,"ĠconfianÃ§a":4643,"ultat":4644,"ficats":4645,"Ġves":4646,"licituds":4647,"ventut":4648,"Ġend":4649,"Ġcases":4650,"Ġcarta":4651,"ang":4652,"oment":4653,"Ã¨dia":4654,"ĠcomerÃ§":4655,"ĠDoc":4656,"Ġsigut":4657,"Ġvint":4658,"ansa":4659,"ollit":4660,"Ġverm":4661,"Ġvolia":4662,"Ġpassant":4663,"ĠaccÃ©s":4664,"Ġorganitza":4665,"arcelon":4666,"ĠVan":4667,"Ġconflicte":4668,"ĠDem":4669,"Ġmira":4670,"ĠMajor":4671,"Ġeng":4672,"Ġorgan":4673,"Ġruta":4674,"expl":4675,"Ġvolum":4676,"rÃ²":4677,"ĠAut":4678,"teres":4679,"Ġ--":4680,"Ġtesti":4681,"Ġtransc":4682,"Ġalcal":4683,"Ġpuntu":4684,"Ġaporta":4685,"Ġtranquil":4686,"60":4687,"ĠfreqÃ¼":4688,"ĠintenciÃ³":4689,"ĠPerquÃ¨":4690,"ĠnotÃŃcia":4691,"Ġglobal":4692,".[":4693,"Ġcomentaris":4694,"obli":4695,"Ġaproxim":4696,"Ġprotes":4697,"Ġestic":4698,"rez":4699,"guessin":4700,"Ġmodern":4701,"Ġfomen":4702,"Ġru":4703,"Ġdra":4704,"edient":4705,"Ġ#":4706,"Ġfont":4707,"Ġsecund":4708,"ĠPartit":4709,"Ġalem":4710,"especi":4711,"vo":4712,"Ãłmica":4713,"Ġantic":4714,"ĠMinisteri":4715,"ĠjustÃŃcia":4716,"interior":4717,"Ġama":4718,"ĠRi":4719,"Ġpend":4720,"ĠatenciÃ³":4721,"ĠconcessiÃ³":4722,"uncia":4723,"Ġferro":4724,"Ġdeia":4725,"demont":4726,"Ġdesitj":4727,"ĠRom":4728,"IM":4729,"Ġdecisions":4730,");":4731,"Ġgal":4732,"ĠEstat":4733,"Ġlo":4734,"Ġestigui":4735,"ras":4736,"Ġestabli":4737,"Ġprac":4738,"fons":4739,"enya":4740,"mem":4741,"ĠJustÃŃcia":4742,"formes":4743,"Ġdamunt":4744,"Ġentitat":4745,"ĠUE":4746,"ÃŃtols":4747,"ĠMalgrat":4748,".,":4749,"ires":4750,"Ġmaj":4751,"elabor":4752,"Ġrequisits":4753,"ĠcÃ²m":4754,"trat":4755,"IL":4756,"semblea":4757,"mad":4758,"ĠMitj":4759,"olÃ²giques":4760,"Ġsessions":4761,"Ġ90":4762,"iny":4763,"uen":4764,"ogrÃłfica":4765,"gressos":4766,"ĠNord":4767,"ef":4768,"igual":4769,"Ġdecidit":4770,"ĠFesta":4771,"ĠCultural":4772,"Ãį":4773,"alitza":4774,"ĠcanÃ§ons":4775,"Ġaprovar":4776,"Ġnenes":4777,"198":4778,"trica":4779,"Ġcomplex":4780,"Ġevident":4781,"Ġrefugi":4782,"ĠCab":4783,"tadors":4784,"Ġnecessaris":4785,"informe":4786,"ĠMartÃŃn":4787,"Ãłtica":4788,"onada":4789,"Ġbici":4790,"ĠResoluciÃ³":4791,"Ġmissatge":4792,"ĠLi":4793,"ĠfÃŃsica":4794,"Ġ2000":4795,"sible":4796,"Ġindependent":4797,"import":4798,"Ġcomunicat":4799,"ĠnÃ©ixer":4800,"Ãºnica":4801,"ĠhistÃ²ric":4802,"Ġvotar":4803,"Ġvols":4804,"ler":4805,"ĠParÃŃs":4806,"Ġfaran":4807,"Ġtecnologies":4808,"Ġulls":4809,"Ġpuc":4810,"vament":4811,"Ġcomarques":4812,"ĠMontserrat":4813,"estableix":4814,"ĠmantÃ©":4815,"Ġmobil":4816,"Ġafirma":4817,"ias":4818,"Ġdep":4819,"ĠcompetÃ¨ncia":4820,"ĠEncara":4821,"Ġconvers":4822,"Ġdomici":4823,"ĠprÃ²pies":4824,"Ġinteressant":4825,"ostos":4826,"ĠGe":4827,"ĠPuigdemont":4828,"ĠRÃłdio":4829,"ind":4830,"Ġdeclaracions":4831,"Ġitali":4832,"ĠsÃ²l":4833,"ĠSo":4834,"tells":4835,"rants":4836,"ĠanglÃ¨s":4837,"\")":4838,"zz":4839,"usa":4840,"ĠMag":4841,"Ġmad":4842,"Ġprofessors":4843,"udit":4844,"ĠMe":4845,"ĠÃºnica":4846,"energia":4847,"ĠbritÃłn":4848,"quets":4849,"aprenentatge":4850,"ĠdifusiÃ³":4851,"Ġpatr":4852,"ĠhistÃ²rica":4853,"ĠAjuntament":4854,"Ġcamin":4855,"%,":4856,"Ġinicial":4857,"Ġconsultar":4858,"sin":4859,"Ġrendi":4860,"Ġvaria":4861,"espera":4862,"Ġsou":4863,"enca":4864,"urat":4865,"Ġcreat":4866,"lectius":4867,"Ġcursa":4868,"Ġcompleix":4869,"ĠCE":4870,"ĠBe":4871,"Ġparticipat":4872,"Ġnecessita":4873,"ĠAt":4874,"Ġautors":4875,"ĠPort":4876,"siu":4877,"dura":4878,"Ġsac":4879,"ĠvÃŃctimes":4880,"Ġpetites":4881,"bia":4882,"hagi":4883,"alumnat":4884,"OL":4885,"ports":4886,"ox":4887,"ĠcÃ²":4888,"Ġparella":4889,"ĠDis":4890,"Ġbla":4891,"Ġmis":4892,"ĠPunt":4893,"Ġcalendari":4894,"Ġcamps":4895,"Ġpic":4896,"Ġvespre":4897,"Ġfel":4898,"ĠPir":4899,"Ġassign":4900,"Ġblog":4901,"rist":4902,"Ġmitja":4903,"Ġaprendre":4904,"ĠÃºnic":4905,"Ġrecollida":4906,"ĠÃłrees":4907,"Ġsituada":4908,"Ġperdut":4909,"Ġales":4910,"Ãłstic":4911,"Ã§al":4912,"tÃłlia":4913,"Ġreconegu":4914,"Ag":4915,"venil":4916,"ĠNorm":4917,"Ġtens":4918,"enÃ§a":4919,"Ġparcs":4920,"ĠNat":4921,"Ġpreguntes":4922,"Ġconsiderar":4923,"ĠAg":4924,"ĠTerritorial":4925,"Ġrelacionats":4926,"ĠqÃ¼estions":4927,"lab":4928,"Ġsocis":4929,"Ġdescans":4930,"ses":4931,"etre":4932,"ĠJesÃºs":4933,"Ġregistre":4934,"Ġball":4935,"joy":4936,"Ġdiv":4937,"avaluaciÃ³":4938,"Ġjudicial":4939,"Ġvers":4940,"Ġvull":4941,"habitatge":4942,"ĠRob":4943,"ĠBon":4944,"ricultura":4945,"Ġpron":4946,"ĠrecuperaciÃ³":4947,"Ġacords":4948,"independ":4949,"Ġbons":4950,"nis":4951,"22":4952,"ĠreducciÃ³":4953,"ĠeconÃ²mics":4954,"ĠManuel":4955,"ACIÃĵ":4956,"Ġdimen":4957,"ĠcÃłn":4958,"Ġajuts":4959,"rontar":4960,"Ġ2004":4961,"ati":4962,"Ġpossibilitats":4963,"ĠPodem":4964,"Ġquant":4965,"emÃłtiques":4966,"Ġtractar":4967,"Ġresidus":4968,"Ġelim":4969,"Hospital":4970,"mor":4971,"Ġfotografies":4972,"Ġvaga":4973,"ĠTerrassa":4974,"gatz":4975,"olesc":4976,"Ġperfil":4977,"Ġpeix":4978,"Ġregi":4979,"ÃŃp":4980,"ĠMÃºs":4981,"ĠTrans":4982,"Ġimagin":4983,"Ġpressupostos":4984,"Ã¨xit":4985,"ĠcompeticiÃ³":4986,"Ġnarra":4987,"Ġcolors":4988,"Ġvila":4989,"ÃŃfiques":4990,"endes":4991,"jament":4992,"Ġdisponibles":4993,"Ġdiver":4994,"Ġterreny":4995,"Ġtraves":4996,"Ġarquitec":4997,"Ġcompon":4998,"oportun":4999,"Ġimmedia":5000,"Ġllengu":5001,"ĠComarcal":5002,"Ã²nim":5003,"anyola":5004,"Ġavis":5005,"Ġaigua":5006,"Ġlaborals":5007,"Ġdistin":5008,"Ġcomplement":5009,"ĠCiutat":5010,"Ġclara":5011,"ĠdistÃłncia":5012,"mac":5013,"Ġconstant":5014,"Ġfitx":5015,"Ġpromoure":5016,"one":5017,"Ġperspec":5018,"GT":5019,"queta":5020,"Ġdonant":5021,"Ġdismin":5022,"quadra":5023,"Ġactuals":5024,"obs":5025,"Ġvoler":5026,"cut":5027,"liquen":5028,"ĠImp":5029,"ÂŃ":5030,"ricte":5031,"Ġdificultats":5032,"ĠPR":5033,"rere":5034,"Ġplantej":5035,"encials":5036,"Ġnorma":5037,"ĠindÃºstria":5038,"Ġartistes":5039,"ID":5040,"Ġhtt":5041,"Ġrepublic":5042,"Ġpartida":5043,"Ġassegurar":5044,"Ġfotografia":5045,"Ġdenom":5046,"ĠAls":5047,"Ġinclos":5048,"istit":5049,"guera":5050,"esia":5051,"fe":5052,"Ġfabric":5053,"Ġinscri":5054,"Ġmercats":5055,"ordÃł":5056,"Ġmenors":5057,"ĠRajoy":5058,"anyol":5059,"Alt":5060,"ĠestarÃł":5061,"execuciÃ³":5062,"Ġrespon":5063,"mer":5064,"Ġmeus":5065,"Ġefecte":5066,"ĠllengÃ¼es":5067,"Ġcinqu":5068,"riol":5069,"Ġcuri":5070,"Ġcomunitats":5071,"arien":5072,"ht":5073,"ĠPers":5074,"aprovaciÃ³":5075,"Ġveloci":5076,"Ġtoca":5077,"ĠNav":5078,"Ġinferior":5079,"Ġband":5080,"Ġrecordat":5081,"Ġvehicle":5082,"Ġconcerts":5083,"tivar":5084,"idaritat":5085,"Ġllui":5086,"Ġmecan":5087,"24":5088,"Ġtrajec":5089,"ĠcondiciÃ³":5090,"omi":5091,"Ġvolta":5092,"ov":5093,"otaciÃ³":5094,"Ġinterior":5095,"ĠNou":5096,"Ġedificis":5097,"Ġregular":5098,"!!!":5099,"Ġperiodista":5100,"ults":5101,"ĠdÃ¨":5102,"questa":5103,"ĠprovÃŃncia":5104,"Ġorganitzacions":5105,"mina":5106,"ĠnecessÃłries":5107,"ĠAquÃŃ":5108,"Ġescola":5109,"ks":5110,"imentaciÃ³":5111,"mig":5112,"Ġajuntaments":5113,"Ġorganitzar":5114,"Ġjard":5115,"ĠactuaciÃ³":5116,"tro":5117,"Ġprogram":5118,"Ġnormal":5119,"Ġdoctor":5120,"ĠSar":5121,"Ġtrami":5122,"ĠlegislaciÃ³":5123,"cidental":5124,"poraciÃ³":5125,"Ġcita":5126,"Ġenguany":5127,"Ġuniversitat":5128,"diques":5129,"Ãłvem":5130,"Ġfilla":5131,"dag":5132,"adap":5133,"ospitalet":5134,"ajuntament":5135,"ĠpeticiÃ³":5136,"ĠinterÃ¨s":5137,"ĠPopular":5138,"Ġeleg":5139,"arÃłs":5140,"erop":5141,"Ġcomplic":5142,"Ġritme":5143,"Ġsabem":5144,"ĠacciÃ³":5145,"Ġpersonatge":5146,"Ġ2003":5147,"ĠLocal":5148,"Ġcaure":5149,"espectac":5150,"lada":5151,"Ġpropers":5152,"Ġcristi":5153,"Ġafirmat":5154,"'t":5155,"Ġrepartir":5156,"riure":5157,"ĠcapaÃ§":5158,"Ġlimita":5159,"21":5160,"rals":5161,"ĠSerra":5162,"diÃ¨ncia":5163,"Ġedit":5164,"Ġtindran":5165,"lement":5166,"Ġmateixes":5167,"Ġdedicat":5168,"teu":5169,"ĠCosta":5170,"Ġestudiar":5171,"Ãłtic":5172,"ĠprimÃłria":5173,"wit":5174,"Ã²nic":5175,"Ġcavall":5176,"ĠLA":5177,"conomia":5178,"Ġvisitants":5179,"van":5180,"Ġvicepres":5181,"ĠEstÃł":5182,"aixÃ²":5183,"Ġjornades":5184,"rani":5185,"Ġteix":5186,"Ġgens":5187,"ĠocasiÃ³":5188,"ĠvÃł":5189,"500":5190,"Ġ+":5191,"licitar":5192,"Ġdocumental":5193,"Ġobtin":5194,"ĠquilÃ²metres":5195,"Ãºria":5196,"Ġful":5197,"Ġnega":5198,"Ġpublicitat":5199,"Ġsant":5200,"Ġevol":5201,"Ġsubscrip":5202,"ĠPÃº":5203,"fes":5204,"Ġsignat":5205,"adre":5206,"bit":5207,"Ġafegir":5208,"Ġespera":5209,"ĠpÃłgines":5210,"sim":5211,"PA":5212,"Ġproposa":5213,"Ġfusta":5214,"Ġrelacionades":5215,"Ġeina":5216,"Ġconformitat":5217,"ĠComunitat":5218,"ĠPolÃŃtica":5219,"Ġvuln":5220,"Au":5221,"Ġprincipalment":5222,"ĠfaÃ§ana":5223,"23":5224,"Ġis":5225,"ĠMÃºsica":5226,"gans":5227,"Ġpodrien":5228,"Ġarr":5229,"estructures":5230,"Ġvenir":5231,"Ġocasions":5232,"ĠSud":5233,"Ġinforme":5234,"Ġnoms":5235,"jol":5236,"Ġand":5237,"Ġmirar":5238,"idor":5239,"Hospitalet":5240,"Ġjugador":5241,"Ġenviar":5242,"rupciÃ³":5243,"ĠsÃ³c":5244,"Ġdot":5245,"Ġjutge":5246,"taments":5247,"Ġconsolid":5248,"Ġmigdia":5249,"ĠcanÃ§Ã³":5250,"ĠcrÃŃtica":5251,"Ã±a":5252,"ĠmÃłqu":5253,"Ġseguint":5254,"ĠConsorci":5255,"ĠvalenciÃł":5256,"Ġrod":5257,"ĠLliga":5258,"hum":5259,"ĠDom":5260,"gatzem":5261,"ĠTÃ¨cn":5262,"missiÃ³":5263,"'\"":5264,"Ġinfra":5265,"Ġreac":5266,"Ġrecollir":5267,"hn":5268,"lem":5269,"Ã¯tat":5270,"impacte":5271,"ĠBal":5272,"Ġnen":5273,"ĠFigu":5274,"Ġfotos":5275,"oest":5276,"Ġpresents":5277,"Ġsucc":5278,"ĠtrÃłnsit":5279,"pat":5280,"Ġencar":5281,"Ġsilenci":5282,"Ġxerra":5283,"lel":5284,"gÃ³":5285,"ĠsÃ²":5286,"tern":5287,"Ġassistir":5288,"ÃŃssim":5289,"Ġpermeten":5290,"ĠSu":5291,"ĠorganitzaciÃ³":5292,"gus":5293,"Ġespecials":5294,"Ġpacients":5295,"cindi":5296,"Ġarran":5297,"ĠSet":5298,"ĠmanifestaciÃ³":5299,"Ġdirectora":5300,"Ġcura":5301,"ĠVilanova":5302,"ders":5303,"Ġpitj":5304,"Ens":5305,"ĠvaloraciÃ³":5306,"habilitaciÃ³":5307,"Ġalmenys":5308,"Ġdomicili":5309,"ĠXar":5310,"ĠMir":5311,"Ġfen":5312,"Ġretall":5313,"ĠInf":5314,"Ġlegisla":5315,"Ġpujar":5316,"Ġquali":5317,"Ġnucli":5318,"ĠpressiÃ³":5319,"Ġsolid":5320,"ĠexposiciÃ³":5321,"Ġcodi":5322,"ensenyament":5323,"po":5324,"Ġfic":5325,"pez":5326,"Ġdarrere":5327,"truccions":5328,"Ġfines":5329,"ĠNi":5330,"Ã¡ndez":5331,"ĠMatar":5332,"Ġpresidenta":5333,"escol":5334,"ĠFil":5335,"Ġ:":5336,"ĠInd":5337,"ixes":5338,"ay":5339,"Ã¨cia":5340,"alÃ§ada":5341,"ĠJorn":5342,"Ġeducatius":5343,"ĠES":5344,"ĠurbÃł":5345,"ĠConstituciÃ³":5346,"ĠinversiÃ³":5347,"ĠtelÃ¨fon":5348,"Ġpassejar":5349,"Ġaniversari":5350,"Ġconeguda":5351,"ENT":5352,"ĠreflexiÃ³":5353,"ĠTo":5354,"ĠApro":5355,"oposiciÃ³":5356,"-,":5357,"anyes":5358,"Ġpopulars":5359,"ĠdemÃł":5360,"Ġirre":5361,"ĠBiblioteca":5362,"ĠPened":5363,"ĠTurisme":5364,"ĠgeneraciÃ³":5365,"Ġregal":5366,"Ġqueden":5367,"Ġvide":5368,"omenatge":5369,"ĠQuÃ¨":5370,"Ġdirecta":5371,"Ġmoviments":5372,"Ġxifra":5373,"ĠGuÃłrdia":5374,"ĠmÃŃnimes":5375,"Ġlliura":5376,"ĠValenciÃł":5377,"Ġreserva":5378,"Ġpatir":5379,"Ġprecisament":5380,"Ġassolir":5381,"tiner":5382,"ĠPedro":5383,"ĠComitÃ¨":5384,"Ġclic":5385,"ĠâĤ¬":5386,"rana":5387,"Ãºncia":5388,"Ġassociacions":5389,"gica":5390,"ĠFont":5391,"osi":5392,"Ġadver":5393,"itÃł":5394,"oferta":5395,"ĠCD":5396,"Ġrepresentant":5397,"associaciÃ³":5398,"Ġelles":5399,"Ġmorts":5400,"arribada":5401,"ĠcÃłrrecs":5402,"Ġanomenat":5403,"ĠSobre":5404,"IR":5405,"Ġordre":5406,"Ġhumana":5407,"assistÃ¨ncia":5408,"ĠespÃ¨cies":5409,"estan":5410,"Ġdiputat":5411,"Ġeuropeu":5412,"Ġtocar":5413,"ĠhumÃł":5414,"uti":5415,"Ġperceb":5416,"iÃ³s":5417,"Ġ190":5418,"Ġexcel":5419,"inari":5420,"Ġcurt":5421,"Ġplatja":5422,"Ġmantin":5423,"Ġquasi":5424,"ranca":5425,"ĠSuperior":5426,"Ġtargetes":5427,"Am":5428,"ualment":5429,"Ġheu":5430,"Ġpena":5431,"Ġvelocitat":5432,"ED":5433,"inal":5434,"ÃŃlia":5435,"cripcions":5436,"Ġpropera":5437,"Ġlliga":5438,"Ġnaix":5439,"Ġcens":5440,"ĠlÃŃmit":5441,"Ġaplicar":5442,"rened":5443,"ĠBat":5444,"ĠPotser":5445,"tecciÃ³":5446,"ulars":5447,"bar":5448,"witter":5449,"Ġclaus":5450,"Ġfelici":5451,"toris":5452,"operaciÃ³":5453,"Ġinformat":5454,"Ġcoopera":5455,"ĠeconÃ²miques":5456,"ĠconseqÃ¼Ã¨ncies":5457,"Ġvess":5458,"Ġimpar":5459,"):":5460,"onda":5461,"ĠpÃ¨rdua":5462,"Ġsopar":5463,"ĠciÃ¨ncia":5464,"Ġconnex":5465,"Ġdorm":5466,"Ġci":5467,"ĠPolicia":5468,"Ãłnic":5469,"menet":5470,"miques":5471,"Ġindividual":5472,"anca":5473,"ĠMu":5474,"Ġroba":5475,"Ġpodi":5476,"ĠRub":5477,"ĠopciÃ³":5478,"Ġmodels":5479,"Ġbell":5480,"Ġacum":5481,"Ġetapa":5482,"Ġmanifesta":5483,"ĠReglament":5484,"vÃ©":5485,"ĠexperiÃ¨ncies":5486,"Ġgraus":5487,"ĠinstituciÃ³":5488,"ĠOli":5489,"Ġher":5490,"isos":5491,"Ġpell":5492,"29":5493,"hem":5494,"versions":5495,"Ġ45":5496,"Ġpacte":5497,"Ġconfigu":5498,"etari":5499,"Ġconvertit":5500,"ĠGramenet":5501,"ĠAndreu":5502,"Ġcomercials":5503,"timent":5504,"Ġvisites":5505,"Ġllenguatge":5506,"Ġprotagonista":5507,"Ġdespesa":5508,"existÃ¨ncia":5509,"Ġ2020":5510,"Ġsof":5511,"del":5512,"lÃŃcules":5513,"Estatut":5514,"Ġaleshores":5515,"actes":5516,"Ġpaisatge":5517,"Ġreci":5518,"ĠPenedÃ¨s":5519,"Ġompl":5520,"Ġorg":5521,"Ġconsistori":5522,"ĠFar":5523,"Ġmanifest":5524,"Ġclient":5525,"Ġfranqu":5526,"plicar":5527,"Ġresulta":5528,"rab":5529,"ĠValenciana":5530,"sitat":5531,"Ġsalari":5532,"Ġmens":5533,"Ġ300":5534,"ĠRegne":5535,"jant":5536,"cons":5537,"Ġpoca":5538,"def":5539,"Ġconsiderat":5540,"Ġvies":5541,"ebo":5542,"mant":5543,"ĠMet":5544,"Ġuniversitats":5545,"ea":5546,"incre":5547,"Ġsigni":5548,"ĠÃłmp":5549,"rig":5550,"onÃ¨s":5551,"Ġenvol":5552,"ĠProf":5553,"ĠJuli":5554,"orat":5555,"Ġsola":5556,"ĠCiÃ¨ncies":5557,"ĠMediter":5558,"Ġpermanent":5559,"Ġdiversitat":5560,"Ġsost":5561,"ĠcontractaciÃ³":5562,"Ġreflec":5563,"Ġflu":5564,"prÃ¨s":5565,"Ġmarge":5566,"Ġdivid":5567,"Ġthe":5568,"ĠtrajectÃ²ria":5569,"ĠPD":5570,"ĠFC":5571,"Ġreligi":5572,"Ġindica":5573,"ĠconservaciÃ³":5574,"ĠGarc":5575,"ÃŃg":5576,"Ġcompr":5577,"Ġtornat":5578,"Ġreconegut":5579,"ck":5580,"Ġcelebrat":5581,"IV":5582,"Ġparcial":5583,"Ġreivindic":5584,"Ġoficials":5585,"etaris":5586,"ossa":5587,"Ġsolucions":5588,"ĠespecÃŃfica":5589,"Ġprovin":5590,"Ġforen":5591,"Ġenrere":5592,"anti":5593,"Ġnegre":5594,"ĠclassificaciÃ³":5595,"Ġbiblioteca":5596,"IF":5597,"Ġcrida":5598,"Ġactuar":5599,"Ġtes":5600,"Ġrestaurant":5601,"ĠCris":5602,"Ġmilers":5603,"ĠPo":5604,"usos":5605,"ĠFam":5606,"Ġtextos":5607,"Ġroda":5608,"tesa":5609,"Ġcommem":5610,"dessa":5611,"gunes":5612,"ĠLon":5613,"Ġcontempor":5614,"Ġanunciat":5615,"itzacions":5616,"Ġhaurien":5617,"Ġautoritats":5618,"obres":5619,"ĠAndorra":5620,"Ġlleis":5621,"ĠMatarÃ³":5622,"Ġgenerar":5623,"Ġrestes":5624,"ĠPrograma":5625,"Ġenten":5626,"Ġaddi":5627,"entaciÃ³":5628,"Ġplantilla":5629,"Ġsig":5630,"anÃłlisi":5631,"Ġsurt":5632,"ĠDOGC":5633,"Ġsenzill":5634,"ĠreconÃ¨ixer":5635,"Esquadra":5636,"ĠespÃ¨cie":5637,"ĠOficial":5638,"Ġtranspar":5639,"Ġconjuntament":5640,"Ġvaix":5641,"Ġexperimen":5642,"th":5643,"Ġcures":5644,"Ġmulti":5645,"Ġviuen":5646,"Ãºr":5647,"Oc":5648,"ĠSalvador":5649,"ĠdÃ¨cada":5650,"Ġpet":5651,"Ġposteriorment":5652,"Ġestablert":5653,"Ġvent":5654,"Ġconsisteix":5655,"quid":5656,"Ġep":5657,"ĠPle":5658,"Ġparal":5659,"ĠEuropeu":5660,"Ġproteg":5661,"rell":5662,"ĠFab":5663,"arquitec":5664,"ĠPlaÃ§a":5665,"Ġeducativa":5666,"Ġdesign":5667,"ĠPon":5668,"Ġges":5669,"ie":5670,"Ġrecomana":5671,"ressiÃ³":5672,"Ġdiscipl":5673,"Ġtreballen":5674,"Ġbru":5675,"Ġeuropea":5676,"evoluciÃ³":5677,"ĠBas":5678,"ositat":5679,"Ġtro":5680,"gudes":5681,"ĠCatalans":5682,"Ġnaturalesa":5683,"TA":5684,"ĠeducaciÃ³":5685,"Ġprivat":5686,"ĠconcentraciÃ³":5687,"Ġdescar":5688,"lustra":5689,"Ãłster":5690,"ĠCentral":5691,"ĠLo":5692,"Ġ33":5693,"lent":5694,"Ġvostra":5695,"Ġdiputats":5696,"Ġdomini":5697,"lis":5698,"ajuda":5699,"elaboraciÃ³":5700,"Ġtemporal":5701,"Ã³pez":5702,"ĠQ":5703,"ĠÂ¿":5704,"45":5705,"Ġcauses":5706,"indica":5707,"Ġoportunitat":5708,"ĠCreu":5709,"Ġfir":5710,"Ġfres":5711,"ellÃ³":5712,"cionalment":5713,"Ġrevis":5714,"ĠAbans":5715,"Ġcadascun":5716,"ĠDiss":5717,"Ġdirigir":5718,"Ġamic":5719,"Ġbut":5720,"esde":5721,"opciÃ³":5722,"Ġparell":5723,"Ġpreten":5724,"gueu":5725,"Ġprove":5726,"Ġpoesia":5727,"Ġperiodisme":5728,"Ġnatura":5729,"mÃłtic":5730,"27":5731,"Ġagafar":5732,"laborar":5733,"ĠFon":5734,"aconsegu":5735,"ĠPrat":5736,"Ġpensament":5737,"Ġ38":5738,"Ġcompleta":5739,"gment":5740,"Ġmestres":5741,"Ġinterp":5742,"Ġindependentistes":5743,"mbla":5744,"Ġreclama":5745,"Ġconfer":5746,"efecte":5747,"ĠAlemanya":5748,"ĠXIX":5749,"ĠHum":5750,"Ġda":5751,"ĠRaf":5752,"Ġgreus":5753,"Ġubic":5754,"Ġsos":5755,"Ġsucce":5756,"ĠGaud":5757,"Ġcompens":5758,"ĠMil":5759,"Ġmatin":5760,"ĠLÃ³pez":5761,"Ġprocla":5762,"ulat":5763,"ĠGarcÃŃa":5764,"Ġtreballat":5765,"ĠTanmateix":5766,"osament":5767,"Ġfals":5768,"Ġefectu":5769,"Ġestil":5770,"Ġassistents":5771,"Ġsegles":5772,"28":5773,"llar":5774,"itÃłries":5775,"are":5776,"Ġmel":5777,"Ġterror":5778,"26":5779,"Ġraons":5780,"Ġmedia":5781,"Ġestats":5782,"Ġcrim":5783,"Ġesdeveniments":5784,"ĠcooperaciÃ³":5785,"Per":5786,"Ġprofessorat":5787,"Ġimprescindi":5788,"Ġsolament":5789,"obreix":5790,"ĠquÃŃm":5791,"EsglÃ©sia":5792,"ĠTÃ©":5793,"ordenaciÃ³":5794,"esport":5795,"osofia":5796,"ĠTorre":5797,"Ġsorpres":5798,"Ġpresti":5799,"Ġopcions":5800,"ĠclÃłss":5801,"Ġfruit":5802,"ĠJocs":5803,"ry":5804,"ĠDoncs":5805,"Ġlloguer":5806,"Ġbe":5807,"Ġreper":5808,"ĠpeÃ§a":5809,"Ġeuropeus":5810,"Ġvege":5811,"Ġpresump":5812,"Ġneteja":5813,"Ġestiguin":5814,"Ġescoltar":5815,"Ġcaigu":5816,"Ġaprofitar":5817,"Ġreunir":5818,"Ġtancament":5819,"Ġindependentista":5820,"tas":5821,"Ġestatal":5822,"UN":5823,"eros":5824,"Ġvirtu":5825,"antic":5826,"ĠbÃ©ns":5827,"ĠcÃł":5828,"Ġcoll":5829,"dÃ³s":5830,"ĠQui":5831,"Ġlleug":5832,"Ġcontamin":5833,"ĠaplicaciÃ³":5834,"ĠinnovaciÃ³":5835,"ogle":5836,"ĠgermÃł":5837,"xill":5838,"ĠinscripciÃ³":5839,"ity":5840,"Ġperjudici":5841,"Ġrus":5842,"ĠDiari":5843,"labora":5844,"Ġdesper":5845,"ĠValls":5846,"ĠtransformaciÃ³":5847,"ÃŃcia":5848,"Ġbarre":5849,"Ara":5850,"Ġtrim":5851,"ĠCaixa":5852,"Ġfomentar":5853,"Ġpreci":5854,"Ġatrac":5855,"Ġvostre":5856,"alitzats":5857,"Ġanava":5858,"Ġxoc":5859,"lÃł":5860,"Ġcontractes":5861,"estil":5862,"ĠÃºltimes":5863,"edeix":5864,"Ġ2002":5865,"Ġiniciatives":5866,"Ġmalalties":5867,"ĠSim":5868,"Ġdelicte":5869,"ito":5870,"mana":5871,"ite":5872,"Ġbeneficis":5873,"Ġhuman":5874,"Ġplegat":5875,"isp":5876,"~~":5877,"cor":5878,"canvi":5879,"ĠSA":5880,"marca":5881,"havien":5882,"Ġterri":5883,"carregar":5884,"Ġbisb":5885,"Ġafecta":5886,"Ġ36":5887,"Ġanem":5888,"Ġsug":5889,"Ġcontribu":5890,"cu":5891,"Ġcritic":5892,"Ġconceptes":5893,"Ġsuficient":5894,"Ġvall":5895,"ĠÃ²rgans":5896,"cionalitat":5897,"ĠproduÃ¯t":5898,"ĠcaldrÃł":5899,"US":5900,"Ġquants":5901,"ĠRegistre":5902,"ĠelectrÃ²nica":5903,"Ġcolla":5904,"Ġentrevista":5905,"ĠdesplaÃ§":5906,"Ġdisposar":5907,"Ġ500":5908,"Ġempresarial":5909,"Ġdemostrar":5910,"ĠcircumstÃłncies":5911,"Ġdiagn":5912,"Ġentrada":5913,"empreses":5914,"gats":5915,"Ġdicta":5916,"ĠrÃłpid":5917,"Ġesdevin":5918,"ĠIII":5919,"Ġtaxa":5920,"Ġmala":5921,"ĠparÃł":5922,"ĠSocietat":5923,"gualada":5924,"Ġimplan":5925,"Inter":5926,"ĠEra":5927,"Ġigualtat":5928,"Ġfed":5929,"ĠÃłmbit":5930,"Ġ2001":5931,"Ġamena":5932,"ĠmÃŃnima":5933,"Ġtancat":5934,"Ġfla":5935,"ltima":5936,"Ġasse":5937,"ĠTri":5938,"ĠprestaciÃ³":5939,"ĠconferÃ¨ncia":5940,"Ġelement":5941,"ĠrevisiÃ³":5942,"70":5943,"Ġdirigit":5944,"Ġcim":5945,"ĠColl":5946,"dits":5947,"itzada":5948,"Ġgarant":5949,"Ġhabitatges":5950,"Ġminut":5951,"esfor":5952,"Ġcategories":5953,"ĠCam":5954,"ĠSom":5955,"ĠFerran":5956,"Ġexercir":5957,"expressiÃ³":5958,"Ġvet":5959,"ĠCopa":5960,"Ġprodueix":5961,"ĠComerÃ§":5962,"Ġfores":5963,"Ġpassen":5964,"Economia":5965,"alg":5966,"istat":5967,"Ġcops":5968,"riques":5969,"ĠsensaciÃ³":5970,"Ġdut":5971,"Ġsuperi":5972,"oto":5973,"ĠÃłmplia":5974,"Ġteniu":5975,"Ġestructura":5976,"ĠSel":5977,"Ġequ":5978,"ĠPob":5979,"Ġmostrat":5980,"ajut":5981,"ĠTorra":5982,"ĠGrÃłcies":5983,"Ġsocialistes":5984,"Ġpresenten":5985,"land":5986,"camp":5987,"Ġdetalls":5988,"ulari":5989,"Ġpoques":5990,"escenari":5991,"ĠprÃłcticament":5992,"annex":5993,"Ġsuspen":5994,"ĠYork":5995,"expedient":5996,"Ġcompren":5997,"encs":5998,"frica":5999,"ĠCerd":6000,"Ġaugment":6001,"hivern":6002,"ĠMill":6003,"Ġaixec":6004,"ĠpermetrÃł":6005,"jos":6006,"Ġrebu":6007,"ĠrefÃ³s":6008,"Ġprevis":6009,"evi":6010,"Ġsang":6011,"Ġigu":6012,"ĠPr":6013,"Ġquins":6014,"Ġreferent":6015,"Ġcomunicar":6016,"ĠProjecte":6017,"Ġgeg":6018,"Ã²rum":6019,"ociÃ³":6020,"Ġorden":6021,"inam":6022,"ĠXarxa":6023,"mol":6024,"Ġsitua":6025,"Ġvostres":6026,"ĠFormaciÃ³":6027,"Ġbusca":6028,"fers":6029,"Ġrealitza":6030,"titzaciÃ³":6031,"Ġsimple":6032,"Ġrespondre":6033,"Ġacompanyat":6034,"ĠAlguns":6035,"Ã³rm":6036,"ĠllicÃ¨ncia":6037,"Ġprivada":6038,"Ġfacin":6039,"Ġnasc":6040,"ĠresidÃ¨ncia":6041,"onestir":6042,"Ġespectacle":6043,"ĠEL":6044,"Ġavalu":6045,"omf":6046,"Ġrevel":6047,"Ġdestr":6048,"onia":6049,"Ġveus":6050,"ĠClar":6051,"UC":6052,"medi":6053,"quetes":6054,"inada":6055,"Ġreunions":6056,"Ġnovetats":6057,"Ġtrib":6058,"anomen":6059,"eller":6060,"ĠavanÃ§ar":6061,"adi":6062,"Ġlliures":6063,"Ġfeien":6064,"ĠDani":6065,"Ġcarn":6066,"Ãīs":6067,"Ġidentitat":6068,"blo":6069,"Ġportat":6070,"ĠCre":6071,"Ġfid":6072,"Ġestabliments":6073,"Ġcorrent":6074,"sil":6075,"Ġpreparar":6076,"Ġment":6077,"...)":6078,"ucion":6079,"Ġproxim":6080,"accep":6081,"ĠAnna":6082,"ĠconsciÃ¨ncia":6083,"mun":6084,"ĠtÃŃtols":6085,"ĠDef":6086,"Ġmotor":6087,"ÃŃv":6088,"avera":6089,"ĠGin":6090,"ĠXina":6091,"ĠInternet":6092,"novaciÃ³":6093,"ngel":6094,"llat":6095,"Ġimmig":6096,"ĠgratuÃ¯t":6097,"itges":6098,"Ġresum":6099,"instal":6100,"Ġgestionar":6101,"obertura":6102,"Ġaugmentar":6103,"ĠRic":6104,"Ġposada":6105,"ebook":6106,"extre":6107,"alguns":6108,"Ġprovisi":6109,"ĠBern":6110,"ĠlÃŃmits":6111,"erÃł":6112,"Ġsubrat":6113,"Estudis":6114,"Ġmaneres":6115,"Ġingressos":6116,"Ġmida":6117,"entes":6118,"Ġgastr":6119,"ĠMentre":6120,"desa":6121,"ĠSense":6122,"guis":6123,"Ġguanyat":6124,"ĠdemocrÃłtica":6125,"Ġbarcelon":6126,"Ġparcel":6127,"Ġsocialista":6128,"titat":6129,"Ġmestre":6130,"questra":6131,"Ġquines":6132,"Ġcandidatura":6133,"itaciÃ³":6134,"ĠProm":6135,"Ġsubjec":6136,"ĠÃģ":6137,"ejament":6138,"isa":6139,"judic":6140,"Ġcomentari":6141,"ĠRel":6142,"Ġperspectiva":6143,"carregat":6144,"espectacle":6145,"ĠSuprem":6146,"ĠfÃłb":6147,"Ġinformar":6148,"guez":6149,"Ġdocent":6150,"ĠTal":6151,"ĠBanc":6152,"ĠmociÃ³":6153,"eroport":6154,"Ġconsens":6155,"Ġconsideren":6156,"Ġdedicar":6157,"ĠcoordinaciÃ³":6158,"ĠRoma":6159,"ĠTotes":6160,"Ġ150":6161,"Ã²rgan":6162,"Ġteat":6163,"Ġjuvenil":6164,"Ġcertificat":6165,"onz":6166,"enament":6167,"Ġ$":6168,"PS":6169,"Ġforta":6170,"Ġlectors":6171,"Ġpropietaris":6172,"Ġdeclarar":6173,"Ġpros":6174,"retaria":6175,"ĠconvivÃ¨ncia":6176,"ĠNa":6177,"ĠCin":6178,"ĠrestauraciÃ³":6179,"liber":6180,"ĠPalma":6181,"ĠRei":6182,"ĠHan":6183,"eixo":6184,"ĠpermÃ¨s":6185,"ĠMarta":6186,"Ġparlament":6187,"ĠOn":6188,"Ġcomplet":6189,"Ġrat":6190,"Ġinstitucional":6191,"ĠDesenvolup":6192,"ĠpermÃŃs":6193,"Ġdemostra":6194,"ĠopiniÃ³":6195,"Ġrepte":6196,"Ġtradicionals":6197,"ĠDu":6198,"Ġbreu":6199,"Ġsimb":6200,"citats":6201,"Ġcomporta":6202,"Ġevid":6203,"Ġreti":6204,"Ġprotagonistes":6205,"Ġacostu":6206,"ĠRoca":6207,"Ġets":6208,"ĠPodeu":6209,"ĠUnit":6210,"istema":6211,"ĠIm":6212,"itaris":6213,"ĠComunicaciÃ³":6214,"aquell":6215,"essorament":6216,"Ãłcia":6217,"pira":6218,"Ġassenyalat":6219,"ĠCarlos":6220,"incor":6221,"ĠLondres":6222,"Ġboti":6223,"ore":6224,"ĠGer":6225,"ĠÃºltima":6226,"Ġdirigida":6227,"Ġol":6228,"Ġequival":6229,"ĠItÃłlia":6230,"ĠSegona":6231,"35":6232,"indi":6233,"ĠcontÃ©":6234,"Ġcamins":6235,"sol":6236,"Art":6237,"Ġopera":6238,"dues":6239,"ils":6240,"jats":6241,"Ã²sits":6242,"Ġvigil":6243,"orts":6244,"ĠPaÃ¯sos":6245,"endi":6246,"oportunitat":6247,"ĠcÃłm":6248,"ĠBell":6249,"ÃĢrea":6250,"Ġroman":6251,"Ġcaps":6252,"ĠAM":6253,"ĠPep":6254,"Ġpitjor":6255,"ĠSeu":6256,"Ġbastant":6257,"Ġ46":6258,"Ġdalt":6259,"ĠautonÃ²m":6260,"ĠutilitzaciÃ³":6261,"rÃ©":6262,"Ġfira":6263,"arda":6264,"Ġcontribuir":6265,"Ġ&":6266,"omun":6267,"ĠPujol":6268,"Ġreptes":6269,"cepciÃ³":6270,"Ġaposta":6271,"Ġmuseu":6272,"ws":6273,"Ġcerc":6274,"Ġsostenible":6275,"eda":6276,"don":6277,"Ã²rica":6278,"Ġteus":6279,"Ġbol":6280,"Ġtindre":6281,"ĠGl":6282,"Urbanisme":6283,"ĠAntonio":6284,"ĠÃłnim":6285,"postes":6286,"Ġbenestar":6287,"ĠDavant":6288,"ĠgironÃŃ":6289,"ĠPrimer":6290,"Ġvigor":6291,"cÃ³":6292,"artista":6293,"Ġproba":6294,"cials":6295,"ĠcelebrarÃł":6296,"Ãłlia":6297,"Ġbicicle":6298,"ustr":6299,"Ġgo":6300,"moni":6301,"Ġdinar":6302,"Ġbatalla":6303,"Ġpintura":6304,"ĠcrÃ©ixer":6305,"ĠPatrimoni":6306,"ĠPresident":6307,"mos":6308,"ĠCarme":6309,"Ġvosaltres":6310,"seg":6311,"lista":6312,"Ġtirar":6313,"ineu":6314,"Ġmirada":6315,"ĠFeliu":6316,"ĠcapÃŃtol":6317,"Ġamor":6318,"ĠAnd":6319,"Ġestiu":6320,"Ġreserv":6321,"Ġobjectes":6322,"antiga":6323,"pass":6324,"ĠassegurarÃł":6325,"Ġdiscapacitat":6326,"Ġorganitzada":6327,"Ġformada":6328,"Ġlluitar":6329,"tits":6330,"ĠMartÃŃnez":6331,"Ġrural":6332,"CE":6333,"ĠAli":6334,"Ġgoverns":6335,"Ġestablerts":6336,"Ġâ":6337,"Ġcomprovar":6338,"75":6339,"Ġtriomf":6340,"rÃŃem":6341,"hospital":6342,"Ġpractic":6343,"xillerat":6344,"Ġvalorar":6345,"Ġdocents":6346,"Ġhttp":6347,"otidi":6348,"mÃ©s":6349,"Ġlider":6350,"ĠRecerca":6351,"ner":6352,"Ġfeu":6353,"ulada":6354,"ĠaigÃ¼es":6355,"Ġvesti":6356,"gal":6357,"Ġpedag":6358,"Ġrequ":6359,"ĠEnric":6360,"Ġfisc":6361,"Ġmandat":6362,"Ġposici":6363,"Ġcompetent":6364,"scri":6365,"UA":6366,"Ġfactors":6367,"item":6368,"ĠAltres":6369,"Ġdefinitivament":6370,"Ġprogres":6371,"ĠGoogle":6372,"be":6373,"Ġproximitat":6374,"establi":6375,"idi":6376,"dora":6377,"Ġbarris":6378,"teria":6379,"rÃłs":6380,"ĠRosa":6381,"Ġrenunci":6382,"gull":6383,"Ġparlant":6384,"ĠMic":6385,"Ġconvoc":6386,"ofici":6387,"Ġsingular":6388,"har":6389,"rÃłnia":6390,"Ġdeute":6391,"hauria":6392,"ĠTom":6393,"Ġenvi":6394,"Ãºlti":6395,"Ġseues":6396,"ÃĴ":6397,"Ġpresa":6398,"ĠPÃ©":6399,"ĠFernÃ¡ndez":6400,"Ġcated":6401,"Ġlog":6402,"Ġremun":6403,"ĠJoaqu":6404,"Ġterritoris":6405,"Ġcapdavant":6406,"Ġimplica":6407,"ĠSr":6408,"Ġriscos":6409,"PC":6410,"ĠFrancis":6411,"Ġdedicada":6412,"Ġsubministra":6413,"roga":6414,"gor":6415,"Ġpesse":6416,"Ġdivul":6417,"tins":6418,"Ġimpulsar":6419,"ĠLuis":6420,"Ġsimilar":6421,"Ġproperes":6422,"ĠAp":6423,"ĠSanti":6424,"Ġquotidi":6425,"ĠPlata":6426,"Ġsexual":6427,"ĠMer":6428,"daria":6429,"Ġciutadana":6430,"Ġobligacions":6431,"Ġjunts":6432,"estran":6433,"ĠFacultat":6434,"ĠVen":6435,"latura":6436,"90":6437,"Ġimpossible":6438,"Ġentrades":6439,"Ġtrop":6440,"entisme":6441,"Ġdeterminar":6442,"Ġaudiovis":6443,"Ġserveix":6444,"Ġnacionals":6445,"audi":6446,"Ġbany":6447,"Ġmotiv":6448,"Urgell":6449,"dueix":6450,"ĠPri":6451,"Ġgenera":6452,"Ġhabita":6453,"Ġremarc":6454,"mentaciÃ³":6455,"Ġreflexi":6456,"??":6457,"Ġregidors":6458,"ĠregulaciÃ³":6459,"Ġrecap":6460,"Ãłrrega":6461,"Ġfeix":6462,"Ġsolidaritat":6463,"enciat":6464,"Ġvendre":6465,"prom":6466,"Ġcanal":6467,"ĠsÃŃmb":6468,"Ġsuma":6469,"ĠTant":6470,"Ġoferta":6471,"Ġgermans":6472,"amar":6473,"ĠcomposiciÃ³":6474,"Ġtants":6475,"otacions":6476,"ĠgratuÃ¯ta":6477,"Ġsimplement":6478,"Ġassass":6479,"Ġporten":6480,"Les":6481,"Ġ1999":6482,"Ġescolars":6483,"Ġprovocar":6484,"36":6485,"pers":6486,"ĠTres":6487,"ĠlingÃ¼ÃŃstica":6488,"Ġfrancesa":6489,"Ġcog":6490,"OT":6491,"allÃ²":6492,"Ġarriben":6493,"fera":6494,"Ġbot":6495,"atÃŃ":6496,"Ġ34":6497,"Andorra":6498,"Ġexistents":6499,"essos":6500,"Ġdubtes":6501,"autoritzaciÃ³":6502,"establ":6503,"Ġradic":6504,"upaciÃ³":6505,"Ġtraslladar":6506,"Ġfol":6507,"Ġdomin":6508,"Ġsorg":6509,"ardo":6510,"Ġmusicals":6511,"Ġcerca":6512,"tena":6513,"Ġprocediments":6514,"ĠSocials":6515,"ĠPrin":6516,"entren":6517,"Ġvulgui":6518,"Ġpoeta":6519,"Ġabsoluta":6520,"ĠlÃ²g":6521,"ev":6522,"Ġsumar":6523,"fÃ¨":6524,"Ġagrup":6525,"Ġrecent":6526,"Ġsortit":6527,"Ġpositiu":6528,"tirÃł":6529,"Ġcompletament":6530,"Ġlegals":6531,"Ġbu":6532,"CAT":6533,"ĠautomÃł":6534,"ĠCambra":6535,"Ġsimil":6536,"investigaciÃ³":6537,"Ġameric":6538,"col":6539,"ĠEste":6540,"Ġmascul":6541,"Ġapren":6542,"ĠacÃŃ":6543,"Ġprobablement":6544,"Ġclarament":6545,"ĠMod":6546,"Ġdepen":6547,"ĠEspa":6548,"Ġveta":6549,"line":6550,"ĠPÃºblica":6551,"ĠBÃ©":6552,"Ġnaixement":6553,"Ġdolor":6554,"ĠVaig":6555,"anterior":6556,"itors":6557,"ĠinterpretaciÃ³":6558,"Ġcarb":6559,"Ġpisos":6560,"Ġmares":6561,"ocol":6562,"ical":6563,"ĠbÃłsics":6564,"Ã²graf":6565,"ÃŃcies":6566,"ĠGab":6567,"Ġveuen":6568,"Ġentra":6569,"ando":6570,"Ġcadascuna":6571,"ĠTrob":6572,"ĠVe":6573,"ĠautÃ¨n":6574,"Ġline":6575,"Ġencap":6576,"ĠÃºnicament":6577,"ĠEr":6578,"entura":6579,"Ġfred":6580,"Ġtransi":6581,"ugu":6582,"ĠFre":6583,"Ġsindicats":6584,"Ġcadena":6585,"ĠGrÃłcia":6586,"arro":6587,"ĠnegociaciÃ³":6588,"Ġcalor":6589,"bra":6590,"ussiÃ³":6591,"Ġcotxes":6592,"usti":6593,"ĠDos":6594,"ĠCO":6595,"Ġquarts":6596,"Ġvulguin":6597,"amen":6598,"ĠAqu":6599,"Ġlliurament":6600,"Ġedat":6601,"Ġpercentatge":6602,"ĠConstitu":6603,"emple":6604,"ĠcientÃŃfica":6605,"Ġcancel":6606,"Ġsegurament":6607,"Ġdistricte":6608,"adreÃ§a":6609,"ginyeria":6610,"rils":6611,"estrat":6612,"Ġconverteix":6613,"Ġconsellera":6614,"ama":6615,"Ġrellev":6616,"Ġdansa":6617,"Ã¯ts":6618,"Ã²ric":6619,"ult":6620,"Ġvid":6621,"ĠÃ²p":6622,"Ġmarxar":6623,"ĠdiferÃ¨ncies":6624,"ater":6625,"ĠRip":6626,"Ġvinent":6627,"org":6628,"ĠAutÃ²n":6629,"ĠNatural":6630,"Ġxi":6631,"ĠestratÃ¨":6632,"Ġdinam":6633,"Ġimmob":6634,"Ġsubven":6635,"tua":6636,"Ġinver":6637,"Ġenca":6638,"Ġmetod":6639,"mesa":6640,"Ġampliar":6641,"ÃŃtim":6642,"asti":6643,"Ġproposar":6644,"ĠcontinuÃ¯tat":6645,"ĠPÃ©rez":6646,"Ġteoria":6647,"Assemblea":6648,"ĠPlan":6649,"Ġcossos":6650,"asa":6651,"ĠEsta":6652,"hol":6653,"Com":6654,"Ġparticipen":6655,"ĠinclÃ²s":6656,"lum":6657,"Ġintent":6658,"Ġboca":6659,"Ġjuga":6660,"Ġexterior":6661,"Ġtrencar":6662,"Ġtir":6663,"RA":6664,"Ãłstica":6665,"Ġregidora":6666,"Ġrespectivament":6667,"Ġdign":6668,"Ġmur":6669,"ĠaÃ¯":6670,"ĠGonz":6671,"anisme":6672,"Ġoperacions":6673,"ollida":6674,"assegu":6675,"ĠFigueres":6676,"ĠDret":6677,"Ġmalament":6678,"Ġcantant":6679,"ĠvotaciÃ³":6680,"Ġpont":6681,"Ġcomanda":6682,"Si":6683,"Ġtemperatura":6684,"ĠCrist":6685,"Ġdescrip":6686,"alcaldessa":6687,"ĠDol":6688,"Ġexcepte":6689,"ĠIV":6690,"Ġcreixent":6691,"Ġlocalitat":6692,"ĠmÃºlti":6693,"ĠVilaf":6694,"Ã¨u":6695,"ĠEcon":6696,"ĠsuspensiÃ³":6697,"Ġtrobareu":6698,"Ġafavor":6699,"Ġgols":6700,"Ġanunciar":6701,"ĠfÃ³rm":6702,"Ġlegislatiu":6703,"Ġgel":6704,"Ãºssia":6705,"Ġexperts":6706,"ĠconnexiÃ³":6707,"Ġ32":6708,"ĠCugat":6709,"ĠesforÃ§":6710,"Ã¯n":6711,"sel":6712,"Ġacollir":6713,"Ġdisposen":6714,"Ġdefensat":6715,"Ġhoraris":6716,"Ġpati":6717,"ĠLlen":6718,"CC":6719,"Ġexemples":6720,"Ġusos":6721,"ÃŃssima":6722,"idal":6723,"Ġmera":6724,"Ġsusp":6725,"Ġjub":6726,"ei":6727,"Ġfant":6728,"Ġesportiva":6729,"explotaciÃ³":6730,"Ġobri":6731,"ĠToni":6732,"ĠUniversi":6733,"Ġinj":6734,"anunci":6735,"iliar":6736,"Ġprevista":6737,"esforÃ§":6738,"dol":6739,"Ġaliments":6740,"Ġestona":6741,"exÃ¨rcit":6742,"Ġsetman":6743,"Ġmajors":6744,"Ġparticulars":6745,"Ġquarta":6746,"Ġmanip":6747,"Ġconsells":6748,"Ġpresos":6749,"Ġlu":6750,"Ġactiva":6751,"ĠPrincip":6752,"Ġsobiran":6753,"bal":6754,"ĠIN":6755,"ĠConselleria":6756,"ĠCard":6757,"ĠAmbient":6758,"ĠvÃŃctima":6759,"Ensenyament":6760,"atÃ³":6761,"Ġdarreres":6762,"Ġculpa":6763,"Ġaten":6764,"ropoli":6765,"ko":6766,"ĠGestiÃ³":6767,"Ġtru":6768,"Ġterrenys":6769,"hesiÃ³":6770,"portiu":6771,"sar":6772,"ĠBus":6773,"Ġinstruments":6774,"uÃ¯da":6775,"berg":6776,"ligÃ¨ncia":6777,"Ġadolesc":6778,"Ġtriar":6779,"ĠrÃłdio":6780,"ago":6781,"ĠRecord":6782,"ĠtendÃ¨ncia":6783,"Ġparlamen":6784,"aprova":6785,"Ġutilitza":6786,"Ġessent":6787,"Ġmetge":6788,"inclou":6789,"Ġactors":6790,"Ġpoblacions":6791,"Ġdesig":6792,"Ġpodien":6793,"Ġtruc":6794,"Ġdefinir":6795,"ĠCad":6796,"Ġvoleu":6797,"ĠÂ»":6798,"Ġavi":6799,"Ġcreure":6800,"ĠEt":6801,"ente":6802,"Ġinterposar":6803,"ĠÃ©sser":6804,"Ã¨xic":6805,"Ġincrement":6806,"Ġsaben":6807,"dicciÃ³":6808,"Ãłriament":6809,"ĠTecn":6810,"Ġlos":6811,"Ġtaules":6812,"ĠCiutadans":6813,"ĠtramitaciÃ³":6814,"ĠNic":6815,"Ġprestigi":6816,"Ġpasseig":6817,"Ġalemany":6818,"ate":6819,"ĠartÃŃstica":6820,"ĠcrÃ¨dit":6821,"lectual":6822,"Ġgrec":6823,"__":6824,"ĠOs":6825,"apor":6826,"ĠHer":6827,"Ġpeus":6828,"Ġannex":6829,"Ġhid":6830,"Ġhospital":6831,"ĠGuill":6832,"Ġfaig":6833,"ĠtraducciÃ³":6834,"Ġguia":6835,"fiquen":6836,"Ġ400":6837,"Ġriques":6838,"ÃĪ":6839,"oral":6840,"Ġprotegir":6841,"Ġ75":6842,"ĠcirculaciÃ³":6843,"ESO":6844,"Cat":6845,"ĠCos":6846,"ĠCastellÃ³":6847,"dard":6848,"Ġconflictes":6849,"ĠagrÃŃc":6850,"Ġtanca":6851,"Ġpantalla":6852,"Ġestre":6853,"ĠhistÃ²ries":6854,"ĠbÃł":6855,"Ġtrimestre":6856,"ĠdivisiÃ³":6857,"Ġutilitzat":6858,"Ġverd":6859,"ĠsecundÃłria":6860,"asta":6861,"Ġllet":6862,"lusions":6863,"ĠcÃłrrega":6864,"bac":6865,"Ġactiu":6866,"Ġvoluntaris":6867,"Ġcomentar":6868,"ientals":6869,"ĠcÃłncer":6870,"Ġanuals":6871,"Ġvins":6872,"ditat":6873,"aquells":6874,"Ġdescomptes":6875,"Ã²lica":6876,"Ġtrenta":6877,"Ġarque":6878,"Ġtestimoni":6879,"olla":6880,"Ġnombrosos":6881,"haurÃł":6882,"opiniÃ³":6883,"viament":6884,"Ġestal":6885,"Ġantics":6886,"Ġmodificar":6887,"ĠContra":6888,"ÃŃmp":6889,"Ġviv":6890,"Ġorganismes":6891,"Ġidentificar":6892,"Ġexac":6893,"Ġimprescindible":6894,"Ġinvestigadors":6895,"2002":6896,"Ġpilota":6897,"ky":6898,"NI":6899,"idÃ¨ncia":6900,"Ġreglament":6901,"Ġdisf":6902,"Ġexpressa":6903,"ĠVia":6904,"ĠDesenvolupament":6905,"mada":6906,"Ġescala":6907,"ĠSergi":6908,"ĠatÃ¨s":6909,"Ġxifres":6910,"Ġresponsab":6911,"ĠEsper":6912,"ĠresistÃ¨ncia":6913,"ĠÃĴ":6914,"ĠfÃŃsic":6915,"Ġviatges":6916,"astre":6917,"Ġdotze":6918,"mÃ¨s":6919,"Ġdestinat":6920,"alista":6921,"alitzades":6922,"Ġnoies":6923,"Ġfarem":6924,"Ġdanys":6925,"Ġidi":6926,"AV":6927,"ostra":6928,"ĠSetmana":6929,"Ġlegislatura":6930,"ĠperiÃ²":6931,"ĠcorrupciÃ³":6932,"enlla":6933,"Ġposen":6934,"tans":6935,"EU":6936,"urants":6937,"lectiva":6938,"lÃłn":6939,"Ġeuropees":6940,"Ġsuperiors":6941,"ĠjurÃŃdica":6942,"isenda":6943,"Ġgira":6944,"queu":6945,"Ġmodalitat":6946,"ples":6947,"ĠRobert":6948,"Ġcomuns":6949,"Ġintens":6950,"ĠclÃŃn":6951,"Ġrelleu":6952,"gna":6953,"ĠconvenÃ§":6954,"Ġjurat":6955,"ĠInformaciÃ³":6956,"rari":6957,"augment":6958,"fre":6959,"ĠPot":6960,"gament":6961,"ĠGrau":6962,",...":6963,"ph":6964,"33":6965,"Ġcobrir":6966,"Ġacceptar":6967,"Ġrequeri":6968,"endrÃł":6969,"ĠUnivers":6970,"Ġplantejar":6971,"Ã¨tics":6972,"Ġdeixant":6973,"Ġprovoc":6974,"Ġmental":6975,"ĠMare":6976,"Ġinversions":6977,"Ġclima":6978,"Ġaportar":6979,"Ġrelat":6980,"Ġpermeti":6981,"Ġ189":6982,"Ġiniciat":6983,"tanya":6984,"zo":6985,"atoris":6986,"tÃ©":6987,"Ġretallades":6988,"utri":6989,"Ġhonor":6990,"Ġplanteja":6991,"Ġsubscriptors":6992,"Ġpreparat":6993,"Ġprivi":6994,"vinguda":6995,"ĠProtecciÃ³":6996,"allot":6997,"Ġfum":6998,"ĠmÃ¨tode":6999,"Ġ%":7000,"ilibri":7001,"Ġaspecte":7002,"esdeveni":7003,"Ġtardor":7004,"ĠdonarÃł":7005,"ĠCha":7006,"Ġobtingut":7007,"ĠVI":7008,"ĠintegraciÃ³":7009,"ĠRafa":7010,"''":7011,"Ġintegral":7012,"Ġestad":7013,"alf":7014,"Ġdisponible":7015,"ĠprÃ¨viament":7016,"Ġrendiment":7017,"eines":7018,"Ġbotiga":7019,"Ġrepor":7020,"Ġexercici":7021,"Ġvulnera":7022,"Ġdiaris":7023,"ĠhÃłb":7024,"Ġsituar":7025,"2003":7026,"ĠNÃºria":7027,"Ġpobresa":7028,"liar":7029,"iblioteques":7030,"Ġ37":7031,"Ġdient":7032,"Ġatra":7033,"Ġrequereix":7034,"Web":7035,"Ġtorre":7036,"48":7037,"Ġcontrolar":7038,"Ġcostos":7039,"tensiÃ³":7040,"Ġvas":7041,"Ġmarques":7042,"Ġforn":7043,"Ġinformes":7044,"iors":7045,"ĠRoc":7046,"yes":7047,"Ġnau":7048,"Ġfinalitzar":7049,"Ġescen":7050,"ĠÃºtil":7051,"Ġ65":7052,"ĠredacciÃ³":7053,"Ġincloent":7054,"Ãłtics":7055,"Ġnombroses":7056,"ĠesforÃ§os":7057,"Ġreivindica":7058,"cils":7059,"Ġcalc":7060,"Ġmatrimoni":7061,"Ġpotenciar":7062,"ĠmÃºsics":7063,"lin":7064,"Ġpluja":7065,"Ġdob":7066,"nom":7067,"Ġperiodistes":7068,"ĠText":7069,"ĠdÃ¨cades":7070,"lot":7071,"fra":7072,"Ġviscut":7073,"Ġmarcar":7074,"ĠTi":7075,"dex":7076,"Ġcomportament":7077,"ĠpreparaciÃ³":7078,"ĠMes":7079,"Ġcandidats":7080,"ficant":7081,"www":7082,"atures":7083,"assign":7084,"ĠJoventut":7085,"Ġesperar":7086,"ĠdenÃºncia":7087,"lez":7088,"Ġhomenatge":7089,"Ġveiem":7090,"Ġantiga":7091,"issa":7092,"arribar":7093,"ollers":7094,"ĠcomenÃ§ament":7095,"gue":7096,"Ġpendent":7097,"elim":7098,"lib":7099,"ĠconstituciÃ³":7100,"Ġaportacions":7101,"Ġgarantia":7102,"emer":7103,"ĠVilafranca":7104,"ĠSch":7105,"Ġprob":7106,"ĠParti":7107,"Ġdenunciar":7108,"'m":7109,"ĠOriol":7110,"eva":7111,"Ġbaixar":7112,"Ġoportunitats":7113,"Ġretirar":7114,"direc":7115,"autonomia":7116,"Ġvarietat":7117,"Ġtribunal":7118,"ĠmissiÃ³":7119,"Ġanalitzar":7120,"Ġcoberta":7121,"ĠdefiniciÃ³":7122,"Ġblo":7123,"Ġprevistes":7124,"Ġprivades":7125,"2010":7126,"Ġuni":7127,"ĠConf":7128,"Ġnecessiten":7129,"ĠtÃŃp":7130,"tuals":7131,"ham":7132,"Ġparlat":7133,"Ġdates":7134,"Ġrecentment":7135,"eno":7136,"Ġvoc":7137,"ĠFou":7138,"Ġdesenvolupat":7139,"Ġobertes":7140,"ĠbÃłsiques":7141,"Ġtanta":7142,"Ġaproximadament":7143,"ĠCasal":7144,"Ġinclosos":7145,"aller":7146,"Ġvicepresident":7147,"ĠinfluÃ¨ncia":7148,"tariat":7149,"Ġmarcat":7150,"lides":7151,"zi":7152,"ĠTwitter":7153,"1999":7154,"bs":7155,"Ġger":7156,"Ġveig":7157,"Ġespanyoles":7158,"Ġalum":7159,"mats":7160,"Ã¨gia":7161,"ĠdÃ¨fici":7162,"orge":7163,"Oficina":7164,"Ġfetes":7165,"ĠUN":7166,"ff":7167,"eval":7168,"Ġocupar":7169,"tesi":7170,".)":7171,"Ġdegut":7172,"rÃŃguez":7173,"Ġfilosofia":7174,"rÃ³":7175,"Ġindicat":7176,"Ã±o":7177,"ĠRog":7178,"Ġdiscrim":7179,"05":7180,"ualitat":7181,"Ġmostren":7182,"Ġcomiss":7183,"aterra":7184,"Ġtotalitat":7185,"teriorment":7186,"ĠrÃłpidament":7187,"Ġpreguntar":7188,"Ġrebuig":7189,"Ġangles":7190,"ĠplanificaciÃ³":7191,"Ġerr":7192,"atac":7193,"Ġadjun":7194,"vira":7195,"Ġcaiguda":7196,"Ãłrrec":7197,"eng":7198,"ĠacadÃ¨mic":7199,"Ġvell":7200,"lÃŃ":7201,"ĠRodrÃŃguez":7202,"ĠEntitat":7203,"Ġ83":7204,"ĠtrÃłmit":7205,"arcaciÃ³":7206,"ile":7207,"Ġactiv":7208,"Ġbasat":7209,"Ġfilm":7210,"ĠSor":7211,"ĠTort":7212,"Ġrealitzades":7213,"Ġnomenat":7214,"irem":7215,"Ġposs":7216,"Ġsimilars":7217,"ĠincorporaciÃ³":7218,"Ġpassi":7219,"Ġcriteri":7220,"ĠcientÃŃfic":7221,"ĠrenovaciÃ³":7222,"ĠGel":7223,"Ġanomenada":7224,"legis":7225,"itar":7226,"ĠQuim":7227,"EG":7228,"ĠFacebook":7229,"ash":7230,"Ġenorm":7231,"Ġincorporar":7232,"Ã²niques":7233,"Ġdip":7234,"promÃŃs":7235,"ĠSeny":7236,"Ġllegit":7237,"Ġlletres":7238,"Ġalter":7239,"Ġlater":7240,"Ġpriva":7241,"Ġpolicial":7242,"ĠFrancisco":7243,"establiment":7244,"Os":7245,"tores":7246,"ĠBel":7247,"Ġalternativa":7248,"Ġasc":7249,"ĠEN":7250,"ellÃł":7251,"Ġseleccion":7252,"Ġesportives":7253,"ĠCoordin":7254,"ĠmatÃ¨ries":7255,"Ġarren":7256,"Ġcartell":7257,"Ġadults":7258,"Ġsorpresa":7259,"ĠEscola":7260,"ĠPlataforma":7261,"erciÃ³":7262,"Ġapos":7263,"ĠsÃŃn":7264,"usi":7265,"Ġrecons":7266,"ĠBr":7267,"organ":7268,"ĠfÃłbrica":7269,"ĠPrimera":7270,"Ġcanviat":7271,"vet":7272,"Ġdipl":7273,"Ġaplicacions":7274,"Ġescrita":7275,"ĠSosten":7276,"ĠCel":7277,"inguda":7278,"ĠVilaWeb":7279,"quisiciÃ³":7280,"enguany":7281,"Ġnoia":7282,"Ġseguida":7283,"Ġescenari":7284,"ĠMarÃŃa":7285,"ĠLlor":7286,"ĠDrets":7287,"dom":7288,"Ġperfectament":7289,"egar":7290,"ĠAf":7291,"ĠCorn":7292,"lats":7293,"ĠTerres":7294,"yer":7295,"ĠEdi":7296,"Ġequipaments":7297,"tanta":7298,"Ġsignar":7299,"Ġsegueixen":7300,"Ġmanifestat":7301,"termina":7302,"ĠCurs":7303,"Ġbandera":7304,"Ġofereixen":7305,"Ã§ades":7306,"Ġconclou":7307,"edor":7308,"Ġafegeix":7309,"Ġllevat":7310,"abast":7311,"ĠVir":7312,"Ġbaixes":7313,"ego":7314,"ĠparrÃ²":7315,"Ġcenten":7316,"Ġfit":7317,"Ġcostu":7318,"increment":7319,"ervatori":7320,"Ġrebaix":7321,"Ġ48":7322,"Ã¯na":7323,"Ġfigures":7324,"tificaciÃ³":7325,"Ġapareixen":7326,"Ġsemblant":7327,"Ġpartid":7328,"ĠPÃºbliques":7329,"Ġhabitatge":7330,"Ġdestaquen":7331,"Ġelaborat":7332,"Ġnoc":7333,"ĠVella":7334,"adia":7335,"Ġfeli":7336,"Ġconcer":7337,"ĠrehabilitaciÃ³":7338,"duÃ¯t":7339,"prÃ¨n":7340,"Ġtantes":7341,"ĠenergÃ¨tica":7342,"Ġmoda":7343,"Ġgru":7344,"Ġmu":7345,"78":7346,"ĠurbanÃŃstica":7347,"Ġdeterminats":7348,"Ġesportiu":7349,"edes":7350,"tÃłnia":7351,"Ġmonestir":7352,"Ġfactura":7353,"Ġdetin":7354,"inats":7355,"ĠWeb":7356,"independentisme":7357,"ĠSempre":7358,"ĠavanÃ§at":7359,"Ġdetingut":7360,"Ġpositiva":7361,"Ġhaur":7362,"Ġefectiva":7363,"Ã²legs":7364,"Ġpronunci":7365,"itzats":7366,"ĠciutadÃł":7367,"Ġutilitzant":7368,"Ġtornada":7369,"ple":7370,"Ġmediter":7371,"1992":7372,"Ġ39":7373,"ĠGas":7374,"Ġrecin":7375,"Ġexclusivament":7376,"Ġdimensions":7377,"Ġq":7378,"Ġgradu":7379,"zena":7380,"Ġconcretament":7381,"tol":7382,"UM":7383,"lants":7384,"34":7385,"Ġplaneta":7386,"Ġreals":7387,"ĠSon":7388,"Ġadquirir":7389,"Ġparad":7390,"cos":7391,"ĠPablo":7392,"ĠsanitÃłria":7393,"ĠCrec":7394,"ĠQuin":7395,"Ġpilot":7396,"Ġflex":7397,"ĠGr":7398,"opera":7399,"torals":7400,"ĠvostÃ¨":7401,"Ġbur":7402,"Ġposant":7403,"ĠaC":7404,"ĠMercat":7405,"Ġallot":7406,"ĠAhir":7407,"ĠAlta":7408,"ĠFinalitat":7409,"Ġpersegu":7410,"ĠsubscripciÃ³":7411,"Ab":7412,"Ġpotencial":7413,"leta":7414,"ĠElec":7415,"ĠBrus":7416,"Ġmecanismes":7417,"ĠEspeci":7418,"ĠTru":7419,"ĠTele":7420,"Ġirregular":7421,"atx":7422,"exterior":7423,"Ġfemin":7424,"ĠespecÃŃfiques":7425,"ĠpassiÃ³":7426,"ow":7427,"Ġurbana":7428,"39":7429,"ĠÃłrea":7430,"Ġnoctur":7431,"Ġrestaurants":7432,"abel":7433,"guard":7434,"ĠCampionat":7435,"ĠprÃ©s":7436,"ĠlÃŃders":7437,"Ġdemostrat":7438,"lig":7439,"ĠEspanyola":7440,"Ġespectacles":7441,"ĠAutÃ²noma":7442,"aliciÃ³":7443,"ĠMÃ³n":7444,"Ġterritorials":7445,"ficients":7446,"Ġoficines":7447,"ĠGa":7448,"ĠJoaquim":7449,"hu":7450,"ĠprofessiÃ³":7451,"ĠPic":7452,"icis":7453,"ĠSL":7454,"Ġcompe":7455,"Ġsocietats":7456,"guitat":7457,"Ġdeclarat":7458,"ĠMac":7459,"Ġideal":7460,"ĠMob":7461,"Ġnois":7462,"Ġinteressats":7463,"Ġtomb":7464,"Ġinternet":7465,"lets":7466,"Vic":7467,"alguna":7468,"ĠExpl":7469,"ĠprojecciÃ³":7470,"ilaciÃ³":7471,"Ġata":7472,"alar":7473,"Ġatrib":7474,"Ġdificultat":7475,"queras":7476,"Is":7477,"pecciÃ³":7478,"Ġ1998":7479,"esperit":7480,"erna":7481,"Ġmillores":7482,"verna":7483,"09":7484,"Ġemprened":7485,"Ġrival":7486,"Ġfrontera":7487,"Ġprimavera":7488,"Ġincloure":7489,"Ġobservar":7490,"Interior":7491,"ker":7492,"ĠMercÃ¨":7493,"afec":7494,"Ġpensa":7495,"Ġartes":7496,"Ġcomplemen":7497,"eo":7498,"ĠAlex":7499,"ĠaparÃ¨ixer":7500,"ĠtransparÃ¨ncia":7501,"ficades":7502,"Ġcm":7503,"Ġfrase":7504,"ĠestratÃ¨gia":7505,"Ġconeguts":7506,"ĠGranollers":7507,"38":7508,"Ġitiner":7509,"ĠCorts":7510,"ĠrÃłpida":7511,"Ġbrill":7512,"Ġsaluda":7513,"Ġramad":7514,"ĠMolt":7515,"Ã¯a":7516,"ĠJohn":7517,"Ġsindicat":7518,"UT":7519,"ĠfundaciÃ³":7520,"lid":7521,"ĠorgÃłnica":7522,"Ġmassi":7523,"alls":7524,"iguel":7525,"ĠTorn":7526,"ciosa":7527,"Ġdelegat":7528,"79":7529,"Ġjap":7530,"ĠnaciÃ³":7531,"Ġdesf":7532,"Ġdedica":7533,"ĠEconÃ²m":7534,"Ġcambra":7535,"ĠDEL":7536,"Ġ188":7537,"adÃ¨mia":7538,"Ġvora":7539,"rents":7540,"ĠJap":7541,"Ġfuncionaris":7542,"empor":7543,"Ġpodreu":7544,"onen":7545,"teor":7546,"ĠAssociaciÃ³":7547,"Ġdintre":7548,"entitats":7549,"Ġexpressar":7550,"Ġmissatges":7551,"anista":7552,"ĠBla":7553,"ĠEducaciÃ³":7554,"adequ":7555,"ĠRÃºssia":7556,"ĠcrÃ¨dits":7557,"Ġtercers":7558,"Ġlletra":7559,"ompliment":7560,"Ġesdeveniment":7561,"Ġmereix":7562,"Ġtanc":7563,"riment":7564,"OP":7565,"inten":7566,"horari":7567,"Ã¨mia":7568,"Ordre":7569,"Ġtros":7570,"ratge":7571,"Ġcompanyies":7572,"afeg":7573,"ĠIC":7574,"ĠcÃłl":7575,"ervaciÃ³":7576,"ÃŃncep":7577,"Ġmac":7578,"Ġdesenvolupa":7579,"Ġmodificacions":7580,"ĠespecÃŃfic":7581,"Ġpacient":7582,"ĠTeresa":7583,"Ã²f":7584,"ocar":7585,"Ġvideo":7586,"Ġparar":7587,"Ġinfraestructures":7588,"ĠDesc":7589,"ĠcientÃŃfics":7590,"ĠpoguÃ©s":7591,"Ġblaug":7592,"Ġedicions":7593,"Ġpensat":7594,"Ġ155":7595,"Ġmanifes":7596,"reres":7597,"Ã²stic":7598,"ĠOlÃŃmp":7599,"yn":7600,"Ã¤":7601,"Ġagu":7602,"ĠIndepend":7603,"ĠFiscal":7604,"Ã²nies":7605,"Ġprivats":7606,"Ġhabituals":7607,"mÃłtica":7608,"ĠFelip":7609,"rida":7610,"Ġdesn":7611,"Ca":7612,"ĠcrÃŃtic":7613,"Ġfenomen":7614,"Ġalcalde":7615,"Empresa":7616,"acredi":7617,"ĠFabra":7618,"Ġclubs":7619,"Ġbancari":7620,"ĠcÃ¨l":7621,"tituds":7622,"Ġconjunta":7623,"euro":7624,"ĠdelegaciÃ³":7625,"ĠSc":7626,"piraciÃ³":7627,"ĠcapaÃ§os":7628,"06":7629,"Ġmonu":7630,"Ġpresentada":7631,"ĠmÃ²d":7632,"Ġmatinada":7633,"Ġalimen":7634,"01":7635,"ĠanÃłlisi":7636,"ĠEmpordÃł":7637,"Ġindustrials":7638,"mental":7639,"Ġformulari":7640,"Ġefectiu":7641,"Ġrigor":7642,"assar":7643,"Ġcomencen":7644,"Ġpujada":7645,"Ġquinze":7646,"ĠArts":7647,"Ġabsolu":7648,"Ġesdevenir":7649,"Ġcombatre":7650,"Ġlas":7651,"urt":7652,"Ġprovisional":7653,"Ġpublicacions":7654,"Ġtop":7655,"ĠSembla":7656,"Ġformacions":7657,"ĠMiguel":7658,"ĠelÃ¨ctrica":7659,"Ġafirmar":7660,"ĠSeb":7661,"ĠLlo":7662,"ĠnavegaciÃ³":7663,"Ġplats":7664,"arca":7665,"ĠEnguany":7666,"ĠSitges":7667,"04":7668,"Ġpenso":7669,"Ġdeguda":7670,"ĠclÃłssic":7671,"Ġpropietari":7672,"Ġaleg":7673,"ĠpresentarÃł":7674,"enfron":7675,"ĠenllaÃ§":7676,"ĠpresidÃ¨ncia":7677,"Ġflors":7678,"76":7679,"ĠrepressiÃ³":7680,"ĠJavi":7681,"ĠfÃŃ":7682,"Ġemple":7683,"Ġvistes":7684,"gic":7685,"Ġneix":7686,"ĠestratÃ¨gies":7687,"Ġdespleg":7688,"querres":7689,"Ġdesigual":7690,"Ġfonamentals":7691,"Ġprocedents":7692,"ĠMem":7693,"Ġdesg":7694,"Ġfinca":7695,"ĠturÃŃstic":7696,"ĠproveÃ¯":7697,"Ã¶":7698,"Ġdelictes":7699,"ĠInici":7700,"ĠMÃ¨xic":7701,"Ġtreballadores":7702,"Ġimplemen":7703,"Ġxerrada":7704,"ĠJunqueras":7705,"ĠcrÃŃtics":7706,"Ãłncies":7707,"magatzem":7708,"ĠNeg":7709,"ĠNot":7710,"Ġrealitzada":7711,"Agricultura":7712,"Ġseri":7713,"ĠSecre":7714,"Ġposicions":7715,"Ġcontras":7716,"Ġcircuit":7717,"riel":7718,"Ġ55":7719,"Ġpodrem":7720,"entar":7721,"ĠJove":7722,"Ġner":7723,"voluciÃ³":7724,"Ġimmediata":7725,"ĠcatÃłleg":7726,"Ġbasada":7727,"2006":7728,"COO":7729,"Ġvendes":7730,"ĠOrganitz":7731,"okies":7732,"Ġext":7733,"lam":7734,"aconseguir":7735,"Ġconstruc":7736,"accions":7737,"Ġsorpren":7738,"Ġprevistos":7739,"ĠGarcia":7740,"Ġrell":7741,"ĠTar":7742,"Ġpersonalitat":7743,"Ġdispositiu":7744,"ĠartÃŃstic":7745,"erador":7746,"Ġdeterminat":7747,"ecs":7748,"Ġbellesa":7749,"ech":7750,"ĠqualificaciÃ³":7751,"Ġmoral":7752,"ĠUrb":7753,"Ġpromot":7754,"impuls":7755,"ĠrevoluciÃ³":7756,"Ġteixit":7757,"Ġdetermina":7758,"ÃŃns":7759,"Ġimpostos":7760,"Ġeconomia":7761,"2007":7762,"At":7763,"acompany":7764,"08":7765,"Ġfoment":7766,"Ġestructures":7767,"Ġarbres":7768,"Ġportu":7769,"Ġjutjat":7770,"inscripciÃ³":7771,"Ġguanyador":7772,"ĠCic":7773,"Ġpertin":7774,"Ġriquesa":7775,"AudiÃ¨ncia":7776,"ĠBomb":7777,"Ġhipot":7778,"toria":7779,"Ġjuris":7780,"genda":7781,"bum":7782,"Ġincon":7783,"ĠbÃłsica":7784,"elaciÃ³":7785,"aval":7786,"ĠrecÃ³rrer":7787,"ĠFoment":7788,"Ġderrota":7789,"44":7790,"ĠBre":7791,"ĠdÃ¨ficit":7792,"arreu":7793,"Ġveritable":7794,"enllaÃ§":7795,"brer":7796,"Ġsostre":7797,"Ġlema":7798,"ĠfemenÃŃ":7799,"ĠFerrer":7800,"Ã¨nia":7801,"nal":7802,"ĠAdministra":7803,"ĠprevisiÃ³":7804,"ĠmajoritÃłria":7805,"inions":7806,"ANC":7807,"ĠTorres":7808,"dad":7809,"Ġalluny":7810,"Ġguanya":7811,"Con":7812,"gades":7813,"Ġfiscals":7814,"Ġrepresenten":7815,"Ġmoderna":7816,"ĠEll":7817,"Ġdestinats":7818,"Ġapuntat":7819,"Ġindividuals":7820,"ĠvÃŃdeos":7821,"Ġdescens":7822,"ticament":7823,"ĠPirineu":7824,"Ġmatar":7825,"Ġpassos":7826,"Ġapartat":7827,"Ġpublicada":7828,"Ġextrem":7829,"Ġaturar":7830,"Ġparlen":7831,"Ġingress":7832,"ĠSants":7833,"Ġsuposar":7834,"Ġocupa":7835,"Ã¡s":7836,"Ġinicialment":7837,"vies":7838,"rogues":7839,"PL":7840,"olar":7841,"aeroport":7842,"glaterra":7843,"Ġopos":7844,"Ġcompletar":7845,"ĠCla":7846,"Ġinnov":7847,"ĠUnitat":7848,"acus":7849,"ĠBos":7850,"ĠencapÃ§al":7851,"ĠÂ©":7852,"Ġpreven":7853,"edents":7854,"Ġdisposicions":7855,"ĠmÃ¨todes":7856,"Ġexclusives":7857,"Ġanteriorment":7858,"Ġsolar":7859,"77":7860,"ĠEUA":7861,"emÃłtic":7862,"uch":7863,"ĠCompromÃŃs":7864,"ĠanirÃł":7865,"Ġinteressades":7866,"ĠContin":7867,"ĠcontenciÃ³":7868,"taven":7869,"iner":7870,"Ġatre":7871,"Ġhorari":7872,"ĠProc":7873,"Ġarts":7874,"Ġadoptar":7875,"ĠturÃŃstica":7876,"Ġconsultes":7877,"ĠRipoll":7878,"ĠcomptarÃł":7879,"Ġaccident":7880,"ĠSam":7881,"ĠcomenÃ§arÃł":7882,"ĠdinÃłmica":7883,"ĠdepÃ¨n":7884,"escriptor":7885,"ĠPER":7886,"Ġrecinte":7887,"orb":7888,"ĠbalanÃ§":7889,"ĠBrussel":7890,"Ġras":7891,"Ġguer":7892,"Ġcampanyes":7893,"Ġcans":7894,"ĠDins":7895,"Ġaliment":7896,"Ġsales":7897,"ĠJx":7898,"ĠMarina":7899,"Ġescollit":7900,"odis":7901,"ĠCamb":7902,"ilat":7903,"Ġronda":7904,"esme":7905,"rossa":7906,"QU":7907,"olf":7908,"SA":7909,"ĠimplantaciÃ³":7910,"Ġprovoca":7911,"Ġnormalment":7912,"Ġsignatura":7913,"55":7914,"ĠBlan":7915,"Ġmarcador":7916,"Ġenergia":7917,"ĠtensiÃ³":7918,"omena":7919,"Ġpoemes":7920,"Ġimpacte":7921,"Ġadequat":7922,"ley":7923,"romp":7924,"EUR":7925,"ĠcontÃŃn":7926,"esqu":7927,"Ġcampionat":7928,"Ġpaga":7929,"unda":7930,"liques":7931,"Ġconserva":7932,"ĠconferÃ¨ncies":7933,"ĠmÃºltiples":7934,"Ġefica":7935,"Ġtropes":7936,"ogia":7937,"Ġamunt":7938,"Ġoli":7939,"Ġmilitars":7940,"terminaciÃ³":7941,"Ġenfron":7942,"ĠTortosa":7943,"burg":7944,"ultats":7945,"Ġsinc":7946,"Ġempresari":7947,"quÃ©s":7948,"Ġpop":7949,"Ġconvenis":7950,"Ġregula":7951,"inicia":7952,"Ġilles":7953,"ĠMoltes":7954,"ĠTh":7955,"ĠNO":7956,"ĠCerv":7957,"ĠreacciÃ³":7958,"Ġmicro":7959,"ivell":7960,"ĠHist":7961,"estudis":7962,"Ã¡lez":7963,"ĠCN":7964,"ĠEdu":7965,"Ġescollir":7966,"tatives":7967,"agrup":7968,"Ġmedici":7969,"ĠVidal":7970,"Ġfrag":7971,"yo":7972,"Ġactitud":7973,"Ġrepetir":7974,"histÃ²ria":7975,"Ġpero":7976,"Ġluc":7977,"Ġhabilitats":7978,"iri":7979,"ronat":7980,"2013":7981,"ucionar":7982,"ĠgrÃłfic":7983,"ĠProfessi":7984,"aurada":7985,"ĠNosaltres":7986,"Ġpublici":7987,"Ġposteriors":7988,"Ġhistori":7989,"Ġmeta":7990,"Ġhotel":7991,"Ġlector":7992,"2012":7993,"03":7994,"ĠcrÃŃtiques":7995,"Ġesmentat":7996,"Ġtip":7997,"Ġconversa":7998,"Ġcartes":7999,"Ġdeixen":8000,"Ġpols":8001,"identi":8002,"otels":8003,"Ġesport":8004,"ficÃłcia":8005,"vacions":8006,"isis":8007,"Ġjunta":8008,"dics":8009,"Ġrespostes":8010,"eixement":8011,"Ġalliber":8012,"ĠSecretaria":8013,"ĠSh":8014,"Ġtari":8015,"ĠPin":8016,"Ġrepresentar":8017,"ĠconsideraciÃ³":8018,"ĠGonzÃ¡lez":8019,"Ġdignitat":8020,"Ġintroduir":8021,"ĠrecepciÃ³":8022,"ann":8023,"Ġtrip":8024,"ng":8025,"Ġdemanen":8026,"Ġvessant":8027,"ĠRoger":8028,"Ġimpu":8029,"ivera":8030,"Ġfidel":8031,"Ġacull":8032,"Ġregla":8033,"ĠPosteriorment":8034,"Ġafectat":8035,"Ġalternatives":8036,"Ġincom":8037,"elcom":8038,"icar":8039,"ĠJornada":8040,"Ġintern":8041,"Ġllistes":8042,"ribuciÃ³":8043,"alada":8044,"ampliaciÃ³":8045,"Ġaux":8046,"lica":8047,"Ġsemblar":8048,"Ġhaure":8049,"Ġepis":8050,"cepte":8051,"Ġorigen":8052,"ĠquedarÃł":8053,"Ġplanejament":8054,"Espai":8055,"ĠubicaciÃ³":8056,"ĠSindic":8057,"teig":8058,"Ġprotesta":8059,"Ġuniversitaris":8060,"ean":8061,"ĠambdÃ³s":8062,"ĠArt":8063,"Ġimposar":8064,"Ġsabia":8065,"antena":8066,"istres":8067,"licitant":8068,"Ġsobir":8069,"ld":8070,"uri":8071,"cionada":8072,"Ġrecolz":8073,"SS":8074,"ĠLabor":8075,"alsevol":8076,"ĠPortu":8077,"ĠcadascÃº":8078,"venen":8079,"Ġfull":8080,"Ġbr":8081,"ĠGi":8082,"ĠConstitucional":8083,"ĠXVIII":8084,"Ġconstru":8085,"Ġacompanyar":8086,"Ġassump":8087,"lÃŃn":8088,"Ġintensitat":8089,"andes":8090,"Ġcoher":8091,"The":8092,"Ġpessetes":8093,"Ġsugger":8094,"Ġrere":8095,"Ġjoventut":8096,"2018":8097,"ĠPremis":8098,"07":8099,"ĠSols":8100,"ĠMira":8101,"Imp":8102,"Ã²lic":8103,"Ġpenal":8104,"ĠcongrÃ©s":8105,"ĠInstitut":8106,"ĠEst":8107,"Ġteves":8108,"Ġdial":8109,"EP":8110,"Ġprofessora":8111,"Ġadequada":8112,"Ġsalvar":8113,"hotel":8114,"Ġsostenibilitat":8115,"onades":8116,"Ġretar":8117,"ĠHistÃ²ria":8118,"ĠvoluntÃłria":8119,"Ġoptim":8120,"vila":8121,"ĠCub":8122,"Ġadaptar":8123,"Ġnegocis":8124,"ĠtransiciÃ³":8125,"ION":8126,"Jo":8127,"Ġcontinuen":8128,"Ġinteressants":8129,"Ġmedieval":8130,"xius":8131,"emergÃ¨ncia":8132,"Ġretirada":8133,"Ã¨mica":8134,"Ġxin":8135,"Ġhav":8136,"Ġign":8137,"Ġmanifestacions":8138,"luÃ¨ncia":8139,"Ġbeques":8140,"ĠdestinaciÃ³":8141,"Ġreclamar":8142,"ĠBages":8143,"Ġabord":8144,"ĠprÃ©stec":8145,"Ġsexe":8146,"noc":8147,"Ġpreveuen":8148,"ĠrealitzarÃł":8149,"Ġinclosa":8150,"Ġconvocar":8151,"tet":8152,"Ġcomponents":8153,"Ã¨ncer":8154,"dicis":8155,"Ġ64":8156,"ico":8157,"Ġbancs":8158,"Ġclicant":8159,"Ġmagist":8160,"Ġbisbe":8161,"99":8162,"Ġmuntanyes":8163,"Ġinqui":8164,"rael":8165,"americÃł":8166,"Ġdetectar":8167,"letes":8168,"Ġblocs":8169,"aletes":8170,"Ġjunt":8171,"ĠVis":8172,"assos":8173,"ogrÃłfiques":8174,"Ġconductor":8175,"ĠCop":8176,"Ġvaixell":8177,"Ġoblidar":8178,"Ġplus":8179,"Ġtrobava":8180,"Ġdelim":8181,"Ġrealitzen":8182,"dran":8183,"2009":8184,"Ġ43":8185,"Ġnoi":8186,"ĠestÃłn":8187,"Ġquantitats":8188,"Ġmuntatge":8189,"ropolitana":8190,"jades":8191,"Ġdigitals":8192,"IG":8193,"elecciÃ³":8194,"Ġcentenars":8195,"ĠVill":8196,"entendre":8197,"igues":8198,"alÃŃ":8199,"ĠOrien":8200,"ĠconstruÃ¯t":8201,"hagin":8202,"eguda":8203,"Ġsemblava":8204,"retes":8205,"Ġpiscina":8206,"ĠmÃ²bils":8207,"ĠGaudeix":8208,"uster":8209,"Ġcondemn":8210,"Ġcomunicacions":8211,"ĠPublic":8212,"Ġdispar":8213,"Ġflor":8214,"Ġbasa":8215,"Ġfeines":8216,"Ġtem":8217,"auto":8218,"gentina":8219,"Ġescla":8220,"habitatges":8221,"ĠCCOO":8222,"Ġtalent":8223,"65":8224,"Ġestudiant":8225,"Ġ44":8226,"onesa":8227,"ĠSebasti":8228,"Ġcontund":8229,"estal":8230,"Ġnovetat":8231,"Ġcomptat":8232,"ardi":8233,"ĠespecÃŃfics":8234,"Ġdispositius":8235,"Ġacomi":8236,"Ġexpec":8237,"Ġapunta":8238,"reci":8239,"ĠJapÃ³":8240,"Ġencarreg":8241,"ĠSte":8242,"talitat":8243,"Ġsuperat":8244,"Ġdepartaments":8245,"ulm":8246,"Ġmaquin":8247,"ĠinauguraciÃ³":8248,"estratÃ¨gia":8249,"tino":8250,"Ġtit":8251,"ĠBri":8252,"cialment":8253,"ĠnÃºmeros":8254,"2015":8255,"Ġresponsabilitats":8256,"ĠdestÃŃ":8257,"Ġescriptor":8258,"Ġpropa":8259,"ĠJan":8260,"ĠDemocrÃł":8261,"ĠplÃłn":8262,"dec":8263,"Ġacud":8264,"ĠmÃłquines":8265,"uÃ¯ts":8266,"Em":8267,"ĠveÃŃ":8268,"Ġsanitaris":8269,"ĠOrdre":8270,"Ġvisual":8271,"Ġcir":8272,"Ġparlem":8273,"ARC":8274,"Ġinven":8275,"ĠDa":8276,"ĠtrobarÃłs":8277,"ĠRafael":8278,"Ġexisteixen":8279,"Ġaclar":8280,"ĠcoaliciÃ³":8281,"Ġnet":8282,"Ġib":8283,"Ġguitar":8284,"ejar":8285,"uditori":8286,"ĠperÃŃodes":8287,"ĠFem":8288,"ĠSistema":8289,"Ġvermell":8290,"ĠÃłl":8291,"xo":8292,"Ġrenda":8293,"Ġajus":8294,"Ġllit":8295,"ĠÃłrab":8296,"ĠLL":8297,"Ġimmediatament":8298,"vocats":8299,"ĠPac":8300,"ĠestÃłs":8301,"dies":8302,"Ãłu":8303,"aprofi":8304,"ĠArtur":8305,"Ġballar":8306,"Ġmeves":8307,"anglÃ¨s":8308,"dam":8309,"Ġros":8310,"Ġoriginals":8311,"Ġnascut":8312,"Ġbotigues":8313,"morzar":8314,"Ã©sser":8315,"mentada":8316,"ĠMenorca":8317,"ids":8318,"ĠciÃ¨ncies":8319,"Ġsensibil":8320,"ĠtrÃłmits":8321,"Ġsindical":8322,"Ġliber":8323,"Ġpatit":8324,"ĠFons":8325,"ĠSerÃł":8326,"Ġboscos":8327,"ĠCÃł":8328,"Ġinfec":8329,"68":8330,"oo":8331,"alimentaciÃ³":8332,"emps":8333,"istia":8334,"rient":8335,"Ġviatjar":8336,"Ġabandonar":8337,"ĠSt":8338,"Ġconscient":8339,"Ġsomni":8340,"bes":8341,"Ġexposicions":8342,"emÃłtics":8343,"cisme":8344,"emn":8345,"Ġparada":8346,"ĠUnides":8347,"ĠRamb":8348,"Ġsimul":8349,"Ġexpressament":8350,"Ġexpedi":8351,"Ġprovar":8352,"Ġdirigents":8353,"Ġtex":8354,"ima":8355,"Ġ08":8356,"Ġestu":8357,"ĠquÃŃmica":8358,"ĠdemocrÃłtic":8359,"AcciÃ³":8360,"Ġcompati":8361,"triu":8362,"Ġestacions":8363,"AG":8364,"Ġmeravell":8365,"ĠSelva":8366,"Ġtrasllat":8367,"endis":8368,"TS":8369,"ĠobligatÃ²ria":8370,"molt":8371,"Ġbicicleta":8372,"Ġaltes":8373,"Ġrefereix":8374,"ĠCirc":8375,"ĠHom":8376,"Ġlliurar":8377,"Ġcapacitats":8378,"1998":8379,"mal":8380,"AragÃ³":8381,"estima":8382,"ĠTÃ¨cnica":8383,"Ġinstrument":8384,"cipaciÃ³":8385,"Ġfesti":8386,"objecte":8387,"rimir":8388,"Ġcorpora":8389,"Ġtransvers":8390,"Ġgest":8391,"Ġcomplicat":8392,"Ġfixa":8393,"Ġdesemb":8394,"Ġadscri":8395,"Ġregistrat":8396,"Ġoptar":8397,"Ġpensant":8398,"ĠVicenÃ§":8399,"Ġtrets":8400,"2011":8401,"ĠCarrer":8402,"Ġpendents":8403,"ficiÃ¨ncia":8404,"ĠGen":8405,"OcupaciÃ³":8406,"On":8407,"Ġfavorable":8408,"Ġ\".":8409,"ĠfÃŃsiques":8410,"Ġcomuna":8411,"Ġintervencions":8412,"intercanvi":8413,"ĠjardÃŃ":8414,"Ġajudes":8415,"vetat":8416,"ĠFamÃŃlia":8417,"vÃł":8418,"Ã¯des":8419,"lacant":8420,"ĠFed":8421,"Igualada":8422,"ĠitaliÃł":8423,"quing":8424,"urbanisme":8425,"ĠLlavors":8426,"gueren":8427,"Ġretribu":8428,"EI":8429,"Ġdeterminades":8430,"mica":8431,"ranÃ§a":8432,"Ġperfecte":8433,"Ġavall":8434,"Ġcentenar":8435,"ĠOp":8436,"Ġelectorals":8437,"31":8438,"Ġpotenci":8439,"Ã²tica":8440,"Ġtransmetre":8441,"triques":8442,"ĠBany":8443,"ĠbÃłsic":8444,"ĠDNI":8445,"ajud":8446,"Ġreguladora":8447,"emat":8448,"Ġquelcom":8449,"integra":8450,"ĠRiu":8451,"Ġassenyala":8452,"Ġvergon":8453,"Ġfren":8454,"TR":8455,"Ġtractat":8456,"Ġafectades":8457,"onant":8458,"Ġaddicional":8459,"ĠcontaminaciÃ³":8460,"ĠmÃŃ":8461,"orld":8462,"abitatge":8463,"02":8464,"ĠtemÃłtica":8465,"Ġparelles":8466,"ĠlÃº":8467,"Ġomplir":8468,"ĠRovira":8469,"umental":8470,"Ġmercad":8471,"Ġnena":8472,"ĠTel":8473,"Ġmantingut":8474,"ĠDen":8475,"mir":8476,"ĠCorporaciÃ³":8477,"ĠRu":8478,"ĠuniversitÃłria":8479,"ĠPall":8480,"xar":8481,"posa":8482,"Ġestada":8483,"Ġescrits":8484,"lega":8485,"Ġu":8486,"Ġescau":8487,"ted":8488,"Ġsuposat":8489,"Ġrespectar":8490,"Ġsanitat":8491,"2005":8492,"ĠimplicaciÃ³":8493,"ĠCristina":8494,"PF":8495,"Ġtracte":8496,"Ġlong":8497,"Ġtorneig":8498,"Ġdescriu":8499,"Ġsubscri":8500,"erial":8501,"Ġcanals":8502,"Ġdescarregar":8503,"ĠDar":8504,"ĠcomitÃ¨":8505,"ĠSoler":8506,"Ġestablertes":8507,"Ġenviat":8508,"Ġcompromet":8509,"Ġplana":8510,"ilia":8511,"quÃ©":8512,"Ġcircular":8513,"Ġassumir":8514,"esdeveniment":8515,"Ġmoure":8516,"ĠmÃłquina":8517,"Ġos":8518,"Ã²x":8519,"ĠfabricaciÃ³":8520,"ĠPh":8521,"Ġempresaris":8522,"Ġcobertura":8523,"orables":8524,"Ġconfirmat":8525,"Ã²tic":8526,"Ġelaborar":8527,"ĠAtÃ¨s":8528,"Ġrepeti":8529,"Ġvital":8530,"ĠTrac":8531,"ĠNacions":8532,"Ġesquerra":8533,"Ġjustificar":8534,"ĠFo":8535,"Ġadi":8536,"ĠColom":8537,"dir":8538,"ĠXXI":8539,"Ġturistes":8540,"trol":8541,"ĠUVic":8542,"Ġdeixem":8543,"ĠVam":8544,"Ġdid":8545,"Ġpintor":8546,"Ġaprovada":8547,"ĠUAB":8548,"imm":8549,"aces":8550,"Ġpoders":8551,"Ġrebel":8552,"ĠMolts":8553,"executiu":8554,"ĠmÃ¨ri":8555,"Ãºp":8556,"Ġrefugiats":8557,"ĠGuillem":8558,"ĠDr":8559,"ĠassociaciÃ³":8560,"Ġaplicable":8561,"Ġsentiments":8562,"Ġfactor":8563,"Ġprestacions":8564,"Ġacoll":8565,"ombra":8566,"ĠpossessiÃ³":8567,"obligaciÃ³":8568,"ĠMel":8569,"Ġarti":8570,"king":8571,"ĠIb":8572,"ĠfÃ³rmula":8573,"32":8574,"incorpor":8575,"ĠDones":8576,"Ġsenyal":8577,"66":8578,"Ġfinancera":8579,"ĠSecciÃ³":8580,"Ġvoltants":8581,"Ġuniversitari":8582,"Ġconcreta":8583,"ĠTerc":8584,"Ġassist":8585,"gas":8586,"Ġnutri":8587,"Ġcerv":8588,"Ġmanifestar":8589,"Ġdespatx":8590,"ĠPromociÃ³":8591,"Ġprivilegi":8592,"Ġcastells":8593,"Ġle":8594,"Ã¨tiques":8595,"2008":8596,"Ġinterpreta":8597,"ĠocupaciÃ³":8598,"ergÃ¨ncies":8599,"gip":8600,"ĠChar":8601,"Ġarquitect":8602,"ĠEstem":8603,"monis":8604,"Ġbutlle":8605,"oler":8606,"Ġafecten":8607,"Ġcaixa":8608,"ĠEsteve":8609,"Ġposse":8610,"trics":8611,"Ġsurten":8612,"itzen":8613,"Ġdebatre":8614,"ĠdÃ²":8615,"Ġ600":8616,"Ġfacilitat":8617,"Ġerrors":8618,"NC":8619,"ĠreforÃ§ar":8620,"cohol":8621,"Ġoberts":8622,"edo":8623,"ĠhistÃ²rics":8624,"Ġing":8625,"Ġgaranties":8626,"ĠJac":8627,"Ġfruita":8628,"Ġabsolutament":8629,"Ġdecideix":8630,"Ġmostres":8631,"ĠreproducciÃ³":8632,"Ġespectacular":8633,"ĠcÃ²pia":8634,"Ġcomissions":8635,"Ġmass":8636,"nium":8637,"Ġagres":8638,"Ġsecret":8639,"ĠmatrÃŃc":8640,"forme":8641,"Ġmarit":8642,"Ġnegociacions":8643,"ĠColau":8644,"Ġuniversal":8645,"Ġcreativitat":8646,"Ġproposat":8647,"Ġanimal":8648,"Ġcomunica":8649,"Ġmetges":8650,"ĠBlanc":8651,"Ġarmes":8652,"mel":8653,"Ġtron":8654,"Ġgeneracions":8655,"has":8656,"Ġsortides":8657,"ĠExplora":8658,"Ġreform":8659,"Ġerror":8660,"ĠLos":8661,"edificaciÃ³":8662,"ĠLlibre":8663,"gol":8664,"arquitectura":8665,"ĠBes":8666,"Ġposem":8667,"ĠMariano":8668,"UE":8669,"Ġembl":8670,"Ġtemple":8671,"Ġcreuen":8672,"Ġradi":8673,"Ġbit":8674,"Ġoctubre":8675,"ĠArticle":8676,"aquella":8677,"ĠmÃłster":8678,"ĠUns":8679,"Ġafectar":8680,"Ġtranspor":8681,"Ġpleg":8682,"mpt":8683,"identa":8684,"Ġpistes":8685,"ĠbritÃłnic":8686,"ĠInc":8687,"Ġrevistes":8688,"avinguda":8689,"Ġgruix":8690,"ĠAle":8691,"ĠUB":8692,"tivitats":8693,"ients":8694,"tÃ²ries":8695,"Ġpropietats":8696,"Ġfrancesos":8697,"Ġcompositor":8698,"estrena":8699,"Ġmonar":8700,"ĠnotificaciÃ³":8701,"Ġantigues":8702,"tativa":8703,"ĠCru":8704,"Ġbloque":8705,"ĠjustificaciÃ³":8706,"idesa":8707,"ĠSil":8708,"Ġatribu":8709,"Ġsoroll":8710,"ĠclimÃłtic":8711,"obrir":8712,"Ġcriticat":8713,"Esquerra":8714,"Ġfinestra":8715,"ĠpassarÃł":8716,"ĠhavÃŃem":8717,"Ġaccessi":8718,"ĠDim":8719,"ĠliterÃłria":8720,"ĠdidÃłc":8721,"aplica":8722,"tella":8723,"Ġvenen":8724,"Ġprovocat":8725,"Ġvirus":8726,"egaciÃ³":8727,"ĠDaniel":8728,"Ġsentiment":8729,"ĠcÃłmera":8730,"Ġesqu":8731,"lit":8732,"Ġelevat":8733,"Ġeliminar":8734,"orten":8735,"ĠcÃ³rrer":8736,"espa":8737,"Ġmantenen":8738,"cidents":8739,"alumnes":8740,"espÃ¨":8741,"ĠArrib":8742,"Ġinclouen":8743,"Ġcorrecta":8744,"Ġplaer":8745,"Ġenvers":8746,"ĠHar":8747,"Ġopinions":8748,"Ġsubministrament":8749,"Ġatemp":8750,"antar":8751,"Ġvirtual":8752,"ĠCs":8753,"Ġconfirmar":8754,"restant":8755,"ĠRoss":8756,"Ġran":8757,"ĠFot":8758,"Ġcreada":8759,"Ġquota":8760,"Ġescena":8761,"Ġacol":8762,"ĠJer":8763,"ĠdescripciÃ³":8764,"Ġoccidental":8765,"ĠdedicaciÃ³":8766,"Ġretre":8767,"Ġatacs":8768,"ĠparrÃ²quia":8769,"estranger":8770,"aig":8771,"ĠLlengua":8772,"Ġdesit":8773,"37":8774,"rint":8775,"Ġprotocol":8776,"Ã¯m":8777,"Ġbiblioteques":8778,"ĠreligiÃ³":8779,"Ġxic":8780,"adaptaciÃ³":8781,"Ġblau":8782,"ĠDiada":8783,"ony":8784,"Ġregistres":8785,"ogar":8786,"lÃ¨ncia":8787,"ÃĢfrica":8788,"Ġvalencians":8789,"ĠDra":8790,"Ġnucle":8791,"Ġbuscant":8792,"ĠpotÃ¨ncia":8793,"alumne":8794,"ĠvigilÃłncia":8795,"Ġull":8796,"Ġconci":8797,"Ġnegra":8798,"Ġresidents":8799,"usias":8800,"ahir":8801,"Ġigualment":8802,"olls":8803,"ĠRibera":8804,"Ġsenzilla":8805,"endrell":8806,"ĠMaresme":8807,"explica":8808,"ONA":8809,"Ãºries":8810,"Ġom":8811,"Ġdormir":8812,"ĠSus":8813,"ĠclÃłssica":8814,"Ġsabut":8815,"urada":8816,"Ġparets":8817,"ĠMai":8818,"egat":8819,"Ġvalora":8820,"Ġordres":8821,"ĠDig":8822,"drets":8823,"wa":8824,"ĠGarri":8825,"Ġvisu":8826,"ĠreduÃ¯t":8827,"ĠId":8828,"interess":8829,"ÃŃnsula":8830,"ames":8831,"Ġvingut":8832,"Ġcorresponen":8833,"Ġcompres":8834,"erals":8835,"Ġenmig":8836,"ĠMass":8837,"inen":8838,"ĠJavier":8839,"ĠoposiciÃ³":8840,"ĠSantiago":8841,"AtenciÃ³":8842,"ĠpodrÃŃem":8843,"omÃ¨":8844,"Ġsamar":8845,"Ġallar":8846,"UB":8847,"Ġveter":8848,"Ġprioritat":8849,"ĠBisb":8850,"ĠtransmissiÃ³":8851,"Ġafrontar":8852,"Ġresultar":8853,"ĠPorta":8854,"ĠsatisfacciÃ³":8855,"Ġcres":8856,"âĢĵ,":8857,"mesos":8858,"algunes":8859,"Ġexerc":8860,"Ġfugir":8861,"ĠficciÃ³":8862,"agradaria":8863,"100":8864,"ÃŃgens":8865,"Ġblanca":8866,"ĠvigÃ¨ncia":8867,"Ġafavorir":8868,"Ġnegar":8869,"ĠelÃ¨ctric":8870,"respons":8871,"Ġdibuixos":8872,"Ġferits":8873,"Ġtrobades":8874,"Ġbarreja":8875,"avo":8876,"Ġenem":8877,"ĠBombers":8878,"Ġeixos":8879,"Ġdenunciat":8880,"iliari":8881,"Ġrutes":8882,"Ġintenta":8883,"Ġregions":8884,"rocin":8885,"apariciÃ³":8886,"Ġprofunditat":8887,"LA":8888,"Ġvalenciana":8889,"Ġcron":8890,"ompanya":8891,"Ġsosp":8892,"Ġsegell":8893,"Ġtestimonis":8894,"Ġministeri":8895,"Ġexistent":8896,"viure":8897,"ĠsÃł":8898,"br":8899,"Ġrector":8900,"Ġconclusions":8901,"Ġfemenina":8902,"ĠNew":8903,"arxiu":8904,"Ġcarreteres":8905,"Aten":8906,"marc":8907,"ibles":8908,"ance":8909,"inet":8910,"ĠNormes":8911,"dida":8912,"Ġemocions":8913,"Ġquadrats":8914,"Ġservit":8915,"49":8916,"oren":8917,"ĠcampiÃ³":8918,"ĠurbanÃŃstic":8919,"Ġobre":8920,"ACN":8921,"Ġvisitant":8922,"ĠmiliÃ³":8923,"mnium":8924,"aranta":8925,"Ġ1997":8926,"Ġfanta":8927,"hist":8928,"EMA":8929,"Ã¨cord":8930,"tible":8931,"ik":8932,"ĠpodrÃłs":8933,"Ġtargeta":8934,"Ġfases":8935,"Ġcombat":8936,"Ġcerves":8937,"ĠdependÃ¨ncia":8938,"Ġcapella":8939,"Ġarguments":8940,"Ġreconeguda":8941,"Ġconstitueix":8942,"ĠTIC":8943,"Ġofertes":8944,"Ġinformacions":8945,"Ġescenaris":8946,"Ġcorrecte":8947,"Ġalts":8948,"voca":8949,"Ġatura":8950,"Ġregistrar":8951,"Ġtransformar":8952,"ĠConcurs":8953,"ĠObres":8954,"Ã²pia":8955,"Ġexcur":8956,"Ġagradable":8957,"Ġfaria":8958,"Ġinfantils":8959,"Ġdefineix":8960,"ingÃ¼ÃŃstica":8961,"Ġcai":8962,"Ġaudiovisual":8963,"Ġgall":8964,"ĠPerp":8965,"Ġcanta":8966,"gre":8967,"Ġnotes":8968,"dÃł":8969,"odeterminaciÃ³":8970,"Ġinsistit":8971,"Ġsignificat":8972,"inals":8973,"Ġassociats":8974,"ndia":8975,"Ġadolescents":8976,"Ġentrat":8977,"Ġdisputar":8978,"Ġsubstituir":8979,"ĠCON":8980,"institut":8981,"Ġreben":8982,"Ġesmentada":8983,"Ġconscients":8984,"laÃ§":8985,"autoritat":8986,"ĠseqÃ¼":8987,"rque":8988,"Ġrelacionat":8989,"Ġcau":8990,"Ġmagisteri":8991,"Ġanuncis":8992,"Ġ42":8993,"ĠVÃŃc":8994,"arn":8995,"EF":8996,"Ġeduc":8997,"Ġservid":8998,"Ġforestal":8999,"ĠllatÃŃ":9000,"Ġperque":9001,"ĠDep":9002,"Ġsindicals":9003,"aparcament":9004,"entÃ©n":9005,"Ġnormalitat":9006,"Ġtitulars":9007,"ĠXVI":9008,"Ġ=":9009,"oris":9010,"Ġeducatives":9011,"Mar":9012,"Ġpateixen":9013,"2014":9014,"IES":9015,"ĠassistÃ¨ncia":9016,"Ġfossin":9017,"ĠForn":9018,"ĠFiscalia":9019,"Ġvidre":9020,"Ġlleure":9021,"Ġvian":9022,"Ġenreg":9023,"udes":9024,"Ġemocional":9025,"Ġexactament":9026,"Ġflo":9027,"ineus":9028,"ĠPaul":9029,"Ġpromou":9030,"Ġcombina":9031,"ĠPons":9032,"TIC":9033,"ĠelectrÃ²nics":9034,"quera":9035,"ector":9036,"Ġvides":9037,"ish":9038,"aband":9039,"72":9040,"Ġmatric":9041,"Ġblaugrana":9042,"TV":9043,"ĠdemarcaciÃ³":9044,"%)":9045,"Ġensenyar":9046,"\"),":9047,"Ġmou":9048,"Ġfinestres":9049,"ĠManel":9050,"Ã²bil":9051,"ĠincidÃ¨ncia":9052,"ogrÃłfics":9053,"ĠpercepciÃ³":9054,"Ġespectadors":9055,"Ġespecialitzada":9056,"Ġimmedi":9057,"Ġacusat":9058,"duccions":9059,"Ġestaran":9060,"Ġagradat":9061,"Ġsoldats":9062,"Ġrelacionada":9063,"laboradors":9064,"Ġrecomanacions":9065,"Ġ120":9066,"ĠFÃ²rum":9067,"Ġgravetat":9068,"Ġreflexionar":9069,"Ġorgull":9070,"Ġquadre":9071,"ervar":9072,"ĠPass":9073,"Ġinscripcions":9074,"ĠestÃłndard":9075,"Ġenfront":9076,"ĠAlgunes":9077,"ĠGrÃ¨cia":9078,"ĠpreocupaciÃ³":9079,"Ġplens":9080,"Ġenginy":9081,"Ġfestius":9082,"Ġreit":9083,"ĠQualsevol":9084,"sen":9085,"remi":9086,"pel":9087,"Ġnovament":9088,"Ġplatges":9089,"Ġpoema":9090,"ĠAlfons":9091,"ernitat":9092,"Ġeti":9093,"ĠextraordinÃłria":9094,"Ġreferents":9095,"ĠDirector":9096,"Ġpateix":9097,"ĠvÃłrem":9098,"Ġversions":9099,"ĠAC":9100,"ĠÃ²rgan":9101,"ĠFestes":9102,"ĠsÃŃmpt":9103,"Ġxocola":9104,"Ġrestric":9105,"Ġdenuncia":9106,"equi":9107,"Ġlamentat":9108,"ĠTol":9109,"Ġtitularitat":9110,"Ġpiano":9111,"ĠdimensiÃ³":9112,"Ġconstitucional":9113,"ĠfeliÃ§":9114,"ĠBro":9115,"Ġbatxillerat":9116,"ĠmÃŃnims":9117,"ĠRambla":9118,"ĠDuran":9119,"Ġestrang":9120,"ĠmobilitzaciÃ³":9121,"lules":9122,"ĠbÃłsicament":9123,"Ġlideratge":9124,"Ġaixecar":9125,"Ġblan":9126,"ĠcafÃ¨":9127,"Ġzero":9128,"ĠFe":9129,"Ġdescobert":9130,"ulla":9131,"Ġmeteor":9132,"Ġnad":9133,"ĠRen":9134,"Ġartista":9135,"ĠRiera":9136,"Ġprol":9137,"Ġfixar":9138,"Ġdiferenci":9139,"ĠLaura":9140,"Ãī":9141,"Ġocasi":9142,"Ġmunt":9143,"erves":9144,"Ġprogramari":9145,"Ġpion":9146,"ĠsÃŃmbol":9147,"orama":9148,"ustria":9149,"ĠAcord":9150,"Ġcanvia":9151,"Gir":9152,"ĠBur":9153,"Ġbandes":9154,"Ġintegrat":9155,"accident":9156,"ĠtransferÃ¨ncia":9157,"Ġincorpora":9158,"ĠtornarÃł":9159,"ĠWill":9160,"SC":9161,"Ġseix":9162,"Ġcentrals":9163,"Ġcomer":9164,"sers":9165,"ĠDivisiÃ³":9166,"legar":9167,"Ġconverses":9168,"ĠRivera":9169,"ĠTim":9170,"Ġ1995":9171,"Ġambdues":9172,"expresident":9173,"ĠextraordinÃłries":9174,"Ġdesaparegut":9175,"Ġinstruccions":9176,"Ġllac":9177,"arm":9178,"egudes":9179,"eratures":9180,"Ġcalia":9181,"Ġsobirania":9182,"Ġmagatzem":9183,"ĠFranco":9184,"ĠVendrell":9185,"Ġaprofitant":9186,"ĠBu":9187,"!!!!":9188,"Ġcess":9189,"ĠPortugal":9190,"rÃŃcul":9191,"itori":9192,"ĠdocÃ¨ncia":9193,"Ġensenyaments":9194,"Ġparet":9195,"Ġexpliquen":9196,"Ġdegudament":9197,"Ġlegi":9198,"rates":9199,"Ġprofession":9200,"Ġmedicina":9201,"ĠfÃłcilment":9202,"nau":9203,"ĠModi":9204,"Ġconstituir":9205,"Ġdedi":9206,"Ġpunta":9207,"ĠPomp":9208,"Ġlongitud":9209,"46":9210,"OB":9211,"otge":9212,"Ġrellevants":9213,"Ġcinquanta":9214,"Ġdestacats":9215,"ĠPrincipat":9216,"Ġseccions":9217,"Ġjudicials":9218,"egen":9219,"Ġdonava":9220,"cionari":9221,"Ġllibrer":9222,"Ġbrillant":9223,"estabilitat":9224,"questes":9225,"Ġ250":9226,"ĠTx":9227,"Ġformats":9228,"Ġfinalitats":9229,"arts":9230,"Ġtranscend":9231,"Ġgaudi":9232,"ĠDisseny":9233,"ĠPoc":9234,"Ġcicl":9235,"ĠSanitat":9236,"Ġdemandes":9237,"Ġlluit":9238,"Ġsupervi":9239,"Ġpur":9240,"Ġcomprendre":9241,"Ġnum":9242,"Ġpuntual":9243,"ĠMoll":9244,"Ġdictadura":9245,"Ġsorgir":9246,"ille":9247,"seu":9248,"ilitar":9249,"Ġesports":9250,"ĠQuant":9251,"ĠFut":9252,"ĠtroiÃł":9253,"Ġaspir":9254,"Ġacaben":9255,"ĠcombinaciÃ³":9256,"imag":9257,"ĠDeix":9258,"Ġaules":9259,"gant":9260,"Ġestrany":9261,"Ġfinalitz":9262,"Ġarros":9263,"Ġadjudic":9264,"ĠBlanes":9265,"Ġpatrocin":9266,"Ġcivils":9267,"ĠEstudi":9268,"americana":9269,"villa":9270,"De":9271,"Ġimpedir":9272,"Ġequivalent":9273,"Ġgeneralment":9274,"ĠPont":9275,"Ġessencial":9276,"Ġimpulsat":9277,"ĠsupÃ²sit":9278,"ĠDades":9279,"ĠfamÃ³s":9280,"Ġexha":9281,"Ġgermana":9282,"dalus":9283,"unitat":9284,"Ġpatri":9285,"esperanÃ§a":9286,"uÃ¯ssa":9287,"gis":9288,"Ġterminis":9289,"lvar":9290,"ĠMÃł":9291,"Ġincrementar":9292,"ĠComÃº":9293,"ĠIr":9294,"Ġminim":9295,"MA":9296,"Ġ@":9297,"Ġpensions":9298,"Ġcurta":9299,"oda":9300,"ĠgastronÃ²m":9301,"2017":9302,"ĠrÃ¨cord":9303,"Ġprogressiva":9304,"Ġserien":9305,"Ġcreiem":9306,"Ġmultitud":9307,"ĠReal":9308,"aleshores":9309,"Ġ1936":9310,"Ġmall":9311,"agall":9312,"Ġsenyora":9313,"Ġsupera":9314,"ĠDist":9315,"ĠUd":9316,"adquisiciÃ³":9317,"Ġgaletes":9318,"Ġpracticar":9319,"Ġconsumidors":9320,"ĠLic":9321,"Ġhabitacions":9322,"Ġquaranta":9323,"ascens":9324,"Ġsard":9325,"Ġdiada":9326,"ĠeficaÃ§":9327,"gs":9328,"Ġinstr":9329,"ĠreferÃ¨ncies":9330,"Ġincloses":9331,"ĠPens":9332,"Ġcookies":9333,"Ġunir":9334,"actitud":9335,"Ġadonar":9336,"ĠTenim":9337,"ĠMartin":9338,"onsell":9339,"ĠGR":9340,"Ġ1996":9341,"Ġcoordinador":9342,"Ġautob":9343,"Ġempleats":9344,"~~~":9345,"Ġpolicials":9346,"Ġdefec":9347,"ĠRoig":9348,"ĠBarber":9349,"edic":9350,"Ġpresentades":9351,"Ġreial":9352,"Ġboni":9353,"Ġhumanitat":9354,"ĠdomÃ¨s":9355,"Ġdiscu":9356,"oficina":9357,"Ġllin":9358,"obtenciÃ³":9359,"ĠIsabel":9360,"ĠInfantil":9361,"cionalitzaciÃ³":9362,"Ġesperem":9363,"ĠPatronat":9364,"Ġexhib":9365,"Ġonline":9366,"ĠintroducciÃ³":9367,"Ġrelativa":9368,"ĠAgu":9369,"ĠsubstituciÃ³":9370,"ĠEsquerra":9371,"Ġreformes":9372,"inyÃł":9373,"Ġverda":9374,"Ġrecepta":9375,"ĠGinp":9376,"Ġ~~~":9377,"ĠCastella":9378,"agu":9379,"58":9380,"ĠPoble":9381,"Ġtaxes":9382,"Ġnegres":9383,"Ġprofund":9384,"Ġtinent":9385,"59":9386,"urats":9387,"lÃ²s":9388,"ĠEduca":9389,"Ġestable":9390,"Ġdetinguts":9391,"Ġexter":9392,"Ġnegociar":9393,"esquerres":9394,"Ġestric":9395,"Ġcoincidint":9396,"Ġgaranteix":9397,"ussa":9398,"Ġsancions":9399,"Ġlaboratori":9400,"inament":9401,"Ġ1992":9402,"ementi":9403,"ulen":9404,"drom":9405,"ĠportarÃł":9406,"ĠescÃ¨n":9407,"ĠInstitu":9408,"Ġcasar":9409,"Ġexercicis":9410,"Ġrurals":9411,"gesos":9412,"exili":9413,"torial":9414,"Ġsalarial":9415,"ĠmatrÃŃcula":9416,"Ġcaminar":9417,"ĠparÃłmetres":9418,"ĠcÃŃv":9419,"Ġcinemat":9420,"Ġcontactes":9421,"use":9422,"imn":9423,"Ġfulles":9424,"AmÃ¨rica":9425,"Ġprodueixen":9426,"ĠpedagÃ²g":9427,"Ġinspir":9428,"Ġregistra":9429,"ĠWorld":9430,"Ġcondu":9431,"ĠBrasil":9432,"Ġdebats":9433,"Ġsalt":9434,"Ġobliga":9435,"ĠZona":9436,"Catal":9437,"Ġambientals":9438,"utilitza":9439,"Ġjustifica":9440,"Ãºstries":9441,"Ġ''":9442,"ĠIndustri":9443,"Ġafici":9444,"alem":9445,"Ġvirtut":9446,"Ġtractaments":9447,"Ġconstruccions":9448,"ortar":9449,"Ġnadal":9450,"Ġfaltes":9451,"Ġproporcion":9452,"Ġenri":9453,"Ġbuit":9454,"ĠLlar":9455,"uma":9456,"Ġmetro":9457,"sÃŃ":9458,"ĠdenominaciÃ³":9459,"Ġestrangers":9460,"ĠfracÃłs":9461,"Ġveient":9462,"ĠNavarro":9463,"Ġhoritz":9464,"Ap":9465,"IU":9466,"dos":9467,"Ġengan":9468,"Ġtallar":9469,"Ġcicles":9470,"Ġhabitualment":9471,"Ġvagi":9472,"Ġgoverna":9473,"Ġurg":9474,"Ġvisible":9475,"ĠexcepciÃ³":9476,"carrega":9477,"ĠmajoritÃłriament":9478,"Ġfelicitat":9479,"ĠTota":9480,"Ġrepartiment":9481,"regues":9482,"Ġinterpretar":9483,"Ġgegant":9484,"Ġetapes":9485,"Ġbarra":9486,"ĠPresidÃ¨ncia":9487,"humor":9488,"viment":9489,"Ġdescend":9490,"Ġbaixos":9491,"lim":9492,"Ġprocedent":9493,"Ġtransfer":9494,"ĠSen":9495,"kh":9496,"encar":9497,"ĠMitjans":9498,"ĠProjec":9499,"acaba":9500,"Ġpermetin":9501,"Ġretir":9502,"Ġconduir":9503,"Ġindrets":9504,"ĠRelacions":9505,"ĠReis":9506,"escau":9507,"ribunals":9508,"Ġseguidors":9509,"ĠEmpres":9510,"amin":9511,"Ġquedi":9512,"Ġcru":9513,"Ġindemn":9514,"onja":9515,"ambient":9516,"Ġcorrectament":9517,"Ġdiscre":9518,"ĠcomprensiÃ³":9519,"Ġrepublicans":9520,"cas":9521,"Ġvivint":9522,"Op":9523,"ĠpolÃ¨mica":9524,"Ġdipos":9525,"Ġmediamb":9526,"illes":9527,"Ġlucre":9528,"gem":9529,"Ġfib":9530,"omet":9531,"ĠoperaciÃ³":9532,"ĠLlorenÃ§":9533,"uela":9534,"ebre":9535,"dures":9536,"ĠTR":9537,"gued":9538,"ciment":9539,"ĠTari":9540,"Ġforts":9541,"Ġhotels":9542,"orientaciÃ³":9543,"ĠGerm":9544,"Ãłmic":9545,"ĠcomerÃ§os":9546,"vÃŃ":9547,"ĠTorrent":9548,"Ġ).":9549,"ĠSuper":9550,"ĠfreqÃ¼Ã¨ncia":9551,"Ġderivats":9552,"Ġanaven":9553,"ĠmÃº":9554,"Ġconvenient":9555,"Ġcolles":9556,"ĠBerlÃŃn":9557,"Ġpuja":9558,"Ġintervin":9559,"Ġcombusti":9560,"Ġtrens":9561,"Ġconstar":9562,"Ġmetodologia":9563,"Ġexplicacions":9564,"ĠAllÃł":9565,"Ġindef":9566,"ĠAlb":9567,"Ġcertes":9568,"ĠMediterrani":9569,"Ġvoltes":9570,"ĠcohesiÃ³":9571,"ĠBosch":9572,"Ġinquie":9573,"ĠesdevÃ©":9574,"Ġaire":9575,"Ġcondemna":9576,"avan":9577,"ĠJunts":9578,"ĠPan":9579,"fit":9580,"Ġinicis":9581,"Ġcomarcal":9582,"Ġpotent":9583,"ĠLeg":9584,"ĠMartor":9585,"Ġbaixada":9586,"Ġparlamentari":9587,"ĠGabriel":9588,"trÃº":9589,"Ġ1990":9590,"ĠDeclar":9591,"anada":9592,"liqui":9593,"Ġabsolut":9594,"ĠurbanÃŃstiques":9595,"ĠMediterrÃłnia":9596,"Ġmos":9597,"eure":9598,"ĠJean":9599,"ĠautÃ²nomes":9600,"ĠAL":9601,"ade":9602,"Ġdesplegament":9603,"urÃŃ":9604,"sius":9605,"ĠllicÃ¨ncies":9606,"ĠFernando":9607,"Ġacompanyats":9608,"ĠhÃłbits":9609,"uaris":9610,"ĠMaragall":9611,"Ġnegativa":9612,"Ġexpor":9613,"EST":9614,"Ġgossos":9615,"Ġfronteres":9616,"ĠprÃ²xims":9617,"Ġretornar":9618,"Ġuneix":9619,"ĠMau":9620,"Ġactius":9621,"ĠcessiÃ³":9622,"Ġconsecu":9623,"rata":9624,"autodeterminaciÃ³":9625,"Ġhos":9626,"Ġplani":9627,"42":9628,"ĠclÃłssics":9629,"Ġpapers":9630,"ĠBala":9631,"ĠCanal":9632,"meria":9633,"Ġquantes":9634,"ĠcÃłlcul":9635,"ĠGeltrÃº":9636,"Ant":9637,"lids":9638,"Ġtesi":9639,"ĠSostenibilitat":9640,"Ġesperant":9641,"Ġplenament":9642,"ĠUIB":9643,"ansiÃ³":9644,"Ġpavell":9645,"Ġfinances":9646,"Ġesportius":9647,"Ġliterari":9648,"Ġsubratllat":9649,"ĠOccidental":9650,"Ġromana":9651,"Ġprevisions":9652,"ĠBÃłs":9653,"Ġexcepcional":9654,"ĠPersonal":9655,"Ġdig":9656,"Ġobriran":9657,"Ġdefinitiu":9658,"Ġcervell":9659,"ĠCF":9660,"ĠaportaciÃ³":9661,"iria":9662,"ĠMÃłster":9663,"Ġacordar":9664,"ĠCamÃŃ":9665,"diciÃ³":9666,"ĠcontenciÃ³s":9667,"ĠPrimÃłria":9668,"Ġdesesti":9669,"Ġsucre":9670,"Ġfundador":9671,"Ġï¿½":9672,"Ġfinancer":9673,"Ġencer":9674,"mbia":9675,"Ġtrobo":9676,"llo":9677,"quina":9678,"ĠnÃºvol":9679,"ĠMent":9680,"Ġvianants":9681,"ĠdiagnÃ²stic":9682,"ĠIl":9683,"Ġescul":9684,"Ġcertamen":9685,"Ġformular":9686,"ĠpressupostÃłria":9687,"Ġingredi":9688,"Ġcerim":9689,"Ġacompanyada":9690,"Ġrecuper":9691,"adar":9692,"ĠSp":9693,"Ġllegint":9694,"Ġcares":9695,"Ġ41":9696,"onaments":9697,"Ġinvers":9698,"Ġremarcat":9699,"Ġrecords":9700,"IACIÃĵ":9701,"Ġsiga":9702,"ĠCC":9703,"ĠVicent":9704,"utilitzar":9705,"eficiÃ¨ncia":9706,"Ġpercebre":9707,"ader":9708,"ĠinfÃłncia":9709,"ĠSin":9710,"Ġtriat":9711,"ĠUrbana":9712,"assemblea":9713,"Ġeste":9714,"ĠAna":9715,"uten":9716,"ursos":9717,"minist":9718,"expos":9719,"liberament":9720,"ĠUR":9721,"ĠgrÃłcia":9722,"Ġextraordinari":9723,"ĠHumans":9724,"Ġarrel":9725,"ĠPlat":9726,"inÃłria":9727,"ĠpropÃ²sit":9728,"ung":9729,"racciÃ³":9730,"Ġpobres":9731,"Ġauto":9732,"Ġtemperatures":9733,"ĠPasse":9734,"Ġguanyadors":9735,"ospitals":9736,"Ġpoli":9737,"ĠAmÃ¨rica":9738,"Ġrevolucion":9739,"Ġintegrada":9740,"itzades":9741,"escriptura":9742,"ementiri":9743,"Ġpantal":9744,"Ġluxe":9745,"ĠexpressiÃ³":9746,"Ġtrams":9747,"ĠCinema":9748,"Ã§ats":9749,"ĠNotÃŃcies":9750,"ank":9751,"Ġcantar":9752,"Ġcinquena":9753,"ivis":9754,"ee":9755,"ĠlÃ²gica":9756,"\").":9757,"Ġmix":9758,"Hi":9759,"Ġtreu":9760,"Ġfuncional":9761,"ĠcurrÃŃcul":9762,"extrem":9763,"Ġrock":9764,"ĠagrÃŃcola":9765,"allÃł":9766,"ĠVÃŃctor":9767,"ĠFu":9768,"47":9769,"ller":9770,"Ġdisposat":9771,"Ġculmin":9772,"activ":9773,"tables":9774,"Ġrib":9775,"tinciÃ³":9776,"ond":9777,"Ġcompromisos":9778,"Ġcontrols":9779,"ĠConver":9780,"Ġfundar":9781,"Ġaler":9782,"].":9783,"Ġcarreg":9784,"Ġdirectes":9785,"atg":9786,"ĠsupÃ²sits":9787,"Ġportada":9788,"old":9789,"Ġpesca":9790,"Ġvivim":9791,"etapa":9792,"ĠllanÃ§ar":9793,"Ġsolen":9794,"locar":9795,"ĠTaula":9796,"oquen":9797,"uss":9798,"Ġfacilita":9799,"Ġtaul":9800,"Ġferrovi":9801,"integ":9802,"Ġmm":9803,"Ġnacionalitat":9804,"anitat":9805,"Ġoral":9806,"ey":9807,"Ġcerts":9808,"ensiva":9809,"Ġconvidats":9810,"trius":9811,"Ġenorme":9812,"ĠevoluciÃ³":9813,"Ġcrema":9814,"cionament":9815,"Ġintrodu":9816,"Ġcore":9817,"ĠdifÃŃcils":9818,"ĠmÃºsic":9819,"Ġvalorat":9820,"Ġsaps":9821,"bul":9822,"exig":9823,"Ġpassava":9824,"ðŁ":9825,"69":9826,"Ġpedres":9827,"Ġfitxer":9828,"Ġsacri":9829,"Ġedats":9830,"Ġconsellers":9831,"Ġrenova":9832,"Ġconservar":9833,"ĠTampoc":9834,"ĠÃĢngel":9835,"Ġconcretes":9836,"ĠCant":9837,"Ġdirectors":9838,"acabar":9839,"ĠadreÃ§a":9840,"fÃ²nica":9841,"Ġfaltar":9842,"ĠDolors":9843,"Ġesmentats":9844,"ĠRoses":9845,"Ġexemplars":9846,"ĠadministraciÃ³":9847,"Ġfur":9848,"Ġexigeix":9849,"Ãºm":9850,"Ġgam":9851,"ĠLib":9852,"ĠDefensa":9853,"legal":9854,"Ġportava":9855,"ĠdesplaÃ§ament":9856,"Ġoficialment":9857,"ĠdiÃłria":9858,"ĠDissabte":9859,"ĠCont":9860,"Ġalemanya":9861,"ĠaÃ¯ll":9862,"Ġmuseus":9863,"Ġ47":9864,"Ġconcedir":9865,"Ġconsolidar":9866,"Ġprepara":9867,"Ġsensibilitat":9868,"adÃł":9869,"Ġcentrar":9870,"Ġagrair":9871,"Ġproporcionar":9872,"ĠUGT":9873,"ciÃł":9874,"otar":9875,"Acord":9876,"Ġsorti":9877,"Ġesquer":9878,"Ġvolien":9879,"Ġequilib":9880,"Ġsorra":9881,"Ġfederal":9882,"eni":9883,"ĠPallars":9884,"Ġmedalla":9885,"Ġfranquisme":9886,"ĠCodi":9887,"escena":9888,"Ġteatral":9889,"ences":9890,"Ġmons":9891,"ĠOriental":9892,"Ġencarregat":9893,"Ġparades":9894,"ĠdisminuciÃ³":9895,"Ġvertic":9896,"ĠQuina":9897,"ĠbÃłsquet":9898,"Ġ),":9899,"ĠSÃŃn":9900,"Ġdestinades":9901,"Ġmasia":9902,"utel":9903,"tero":9904,"Ġquantia":9905,"HistÃ²ria":9906,"orsa":9907,"Ġtornen":9908,"ulant":9909,"olis":9910,"Ġsoc":9911,"Ġrecomanem":9912,"Ġregne":9913,"Ġcaldria":9914,"ĠBona":9915,"ĠÃļ":9916,"ÃŃsica":9917,"Ġconeixen":9918,"Ġadher":9919,"ĠmÃłgia":9920,"Ġhavent":9921,"ĠdurÃł":9922,"ĠvegetaciÃ³":9923,"Ġrellevant":9924,"legacions":9925,"Ġmirant":9926,"ĠCDC":9927,"Ġlici":9928,"Ġabund":9929,"ĠSalÃ³":9930,"Ġ1994":9931,"ĠPÃºblic":9932,"ĠdipÃ²sit":9933,"Ġliquid":9934,"Ġbel":9935,"Ġproductors":9936,"Ġdissenyat":9937,"rits":9938,"uÃ¯des":9939,"Ġonze":9940,"ĠdecoraciÃ³":9941,"Ġabril":9942,"afir":9943,"ĠdÃ²lars":9944,"sidi":9945,"egeu":9946,"Ġprofunda":9947,"-.":9948,"ĠGav":9949,"ĠuniÃ³":9950,"Ġprogress":9951,"utilitat":9952,"inant":9953,"ĠcatedrÃł":9954,"pot":9955,"ĠCOM":9956,"ĠPresentaciÃ³":9957,"ĠveÃ¯nes":9958,"Ġdirigeix":9959,"Ġemissions":9960,"UL":9961,"Ġcua":9962,"Ġsemblen":9963,"ĠprogrÃ©s":9964,"ĠcorporaciÃ³":9965,"ĠResta":9966,"Ġindicar":9967,"Ġexclusiva":9968,"Ġexpectatives":9969,"ĠMarg":9970,"ĠorÃŃgens":9971,"itzant":9972,"entals":9973,"ĠMaratÃ³":9974,"Ġdeterminada":9975,"Ġplegats":9976,"Ġmallor":9977,"vitat":9978,"Ġsubstan":9979,"ĠVolem":9980,"Ġ\",":9981,"Ġcondemnat":9982,"ĠPilar":9983,"Internet":9984,"ĠBart":9985,"Ġeditorial":9986,"Ġbron":9987,"Ġcentra":9988,"Ġgenerat":9989,"ĠRepublic":9990,"ĠBerga":9991,"mas":9992,"ĠplÃłstic":9993,"Ġhec":9994,"ĠconclusiÃ³":9995,"inaris":9996,"Ġtemporades":9997,"Ġdisciplina":9998,"Ãłus":9999,"mez":10000,"Ġaprofund":10001,"uiz":10002,"ĠRespec":10003,"ĠrÃ¨":10004,"ĠPirineus":10005,"ĠBanyoles":10006,"Ġindependents":10007,"EB":10008,"Ġarribant":10009,"Ġpolicies":10010,"rel":10011,"ĠCiÃ¨ncia":10012,"honor":10013,"ĠfinalitzaciÃ³":10014,"Ġalemanys":10015,"ĠMc":10016,"ĠtendÃ¨ncies":10017,"Ġactua":10018,"ĠautoritzaciÃ³":10019,"rius":10020,"animitat":10021,"Ġmani":10022,"bis":10023,"Ġvinculades":10024,"Ġpanorama":10025,"ĠfotÃ²graf":10026,"ĠmediaciÃ³":10027,"Ã²crates":10028,"ACC":10029,"gram":10030,"anÃ¨s":10031,"Ġapropar":10032,"Ġvinculats":10033,"Ġassistit":10034,"Ġassessor":10035,"Auditori":10036,"dipu":10037,"Ġnomen":10038,"Ġanul":10039,"Ġcooperativa":10040,"Ġxocolata":10041,"AF":10042,"Ġrealitzats":10043,"ĠAudiovis":10044,"Ġexpressat":10045,"Ġ49":10046,"ĠSevilla":10047,"Ġtradicions":10048,"Ġultra":10049,"Ġcomandament":10050,"ĠsÃ¨ries":10051,"ĠCooperaciÃ³":10052,"Ġurnes":10053,"Ġfuncionari":10054,"ĠJornades":10055,"agricultura":10056,"ĠAD":10057,"2004":10058,"ĠFun":10059,"discipl":10060,"Ġconcentra":10061,"Ġempresarials":10062,"ĠQualitat":10063,"Ġcreant":10064,"Ġdoni":10065,"ĠPeri":10066,"anomena":10067,"Ġcine":10068,"omple":10069,"Ġestima":10070,"Ã¨lgica":10071,"Ġespiri":10072,"ÃŃci":10073,"istan":10074,"Ġmodalitats":10075,"ellas":10076,"ĠdesplaÃ§ar":10077,"Ġhaurem":10078,"ĠDels":10079,"ĠDic":10080,"Ġespecialitzat":10081,"Ano":10082,"Ġfunda":10083,"VA":10084,"Ġrati":10085,"Ġnotable":10086,"Arxiu":10087,"ĠJoves":10088,"Ġformant":10089,"TM":10090,"Ġadministratius":10091,"ĠdiscriminaciÃ³":10092,"Ġgris":10093,"Ġbeca":10094,"Ġsabeu":10095,"Ġtrama":10096,"ĠcÃ²n":10097,"2016":10098,"ue":10099,"Ġapartats":10100,"Alcal":10101,"ĠVilad":10102,"timitat":10103,"Ġfuncionar":10104,"umna":10105,"Ġred":10106,"Ġrepertori":10107,"Ġsolucionar":10108,"autob":10109,"Ġmit":10110,"ĠData":10111,"Ġvigents":10112,"Ġcobrar":10113,"estableixen":10114,"hauran":10115,"85":10116,"ĠBol":10117,"erd":10118,"ĠromÃłn":10119,"ĠmÃ¨dica":10120,"tral":10121,"Ġfranquista":10122,"Ġjugant":10123,"ĠMesa":10124,"Ġcompartit":10125,"ĠconfiguraciÃ³":10126,"Ġcercar":10127,"vestigaciÃ³":10128,"exclusiÃ³":10129,"ĠSenyor":10130,"Ġproporciona":10131,"ĠSebastiÃł":10132,"CR":10133,"ĠResp":10134,"Ġradio":10135,"avoreix":10136,"Ġintensa":10137,"Ġtribut":10138,"Ġcurses":10139,"Ġexcessi":10140,"Ġcomparteix":10141,"Ġbonic":10142,"ĠEspanyol":10143,"eto":10144,"rano":10145,"hel":10146,"ĠLingÃ¼ÃŃstica":10147,"Ġcedir":10148,"ritat":10149,"Ġparticipant":10150,"Ġengany":10151,"Ġfarmac":10152,"Ġdiputada":10153,"Ġrecomp":10154,"renys":10155,"Ġmitjan":10156,"Aut":10157,"67":10158,"ĠesglÃ©sia":10159,"leu":10160,"ĠMostra":10161,"ĠagrÃł":10162,"Ġdecisiva":10163,"ĠPompeu":10164,"ĠdependÃ¨ncies":10165,"Ġdissenyar":10166,"ligent":10167,"Ġescriptors":10168,"vera":10169,"ĠGil":10170,"Ġcapi":10171,"Ġformula":10172,"Ġvor":10173,"ĠSha":10174,"ĠmetÃłl":10175,"absÃ¨ncia":10176,"Ġplataformes":10177,"ĠseparaciÃ³":10178,"unta":10179,"Ġcontinuada":10180,"aspec":10181,"antiguitat":10182,"igÃ³":10183,"hid":10184,"ĠEd":10185,"Ġtancada":10186,"ila":10187,"Ġconvidat":10188,"ĠVista":10189,"ĠMora":10190,"ĠenllaÃ§os":10191,"Anoia":10192,"organisme":10193,"Ġemetre":10194,"orials":10195,"Ġreligiosa":10196,"ĠâĨ":10197,"ĠconstÃłncia":10198,"ĠreforÃ§":10199,"Ġlegalitat":10200,"ĠAlg":10201,"IVA":10202,"Ġsorteig":10203,"by":10204,"Ġexigir":10205,"ĠcomparaciÃ³":10206,"aportaciÃ³":10207,"Ġrecoll":10208,"ĠOlÃŃmpics":10209,"ĠKa":10210,"equipament":10211,"ĠManc":10212,"gos":10213,"Alemanya":10214,"ĠinclusiÃ³":10215,"ĠmaquinÃłria":10216,"Ġcomte":10217,"Ġvisitat":10218,"rocar":10219,"Ã²nics":10220,"Ġdisponibilitat":10221,"roqui":10222,"Ġtribunals":10223,"Ġconcedi":10224,"istemes":10225,"ĠautÃ²noma":10226,"acollida":10227,"Ġcultures":10228,"ĠRoja":10229,"43":10230,"Ġcridar":10231,"onista":10232,"ĠBil":10233,"ordinador":10234,"ĠFlor":10235,"ĠdestrucciÃ³":10236,"Ġconfec":10237,"Ġsegura":10238,"ĠcinquÃ¨":10239,"Ġescap":10240,"ĠCr":10241,"ĠDiu":10242,"Ġdrogues":10243,"ĠBall":10244,"Ġconvida":10245,"Ġxerrades":10246,"Ġsocio":10247,"Ġrius":10248,"ings":10249,"Ġmaltrac":10250,"gustÃŃ":10251,"pital":10252,"Ġfall":10253,"ĠcontemporÃłnia":10254,"ĠprÃŃncep":10255,"ĠTin":10256,"ĠICV":10257,"inaugu":10258,"evitar":10259,"Ġ800":10260,"Ġcomplexitat":10261,"ĠreparaciÃ³":10262,"ANT":10263,"landa":10264,"ĠTu":10265,"ĠDomÃ¨n":10266,"ĠMedicina":10267,"ĠMartorell":10268,"Ġadministratives":10269,"ĠjurisdicciÃ³":10270,"Ġacordat":10271,"Ġurbans":10272,"quir":10273,"Ġestableixen":10274,"oterÃł":10275,"Ġpersonalment":10276,"rotxa":10277,"Ġvideoj":10278,"cionats":10279,"ĠHor":10280,"ĠdotaciÃ³":10281,"Ġintentat":10282,"ĠDÃŃa":10283,"Ġdestinada":10284,"sense":10285,"ĠcolÃ²nies":10286,"Girona":10287,"Ġrenunciar":10288,"Ġ93":10289,"Ġtub":10290,"Ã²b":10291,"ĠguÃłrdia":10292,"ĠJut":10293,"excel":10294,"son":10295,"ĠTre":10296,"Ġrectan":10297,"Ġimplicats":10298,"Ġinformativa":10299,"ĠCerdanya":10300,"Ġcompetitivitat":10301,"Ġlesions":10302,"iliats":10303,"Ġaccepta":10304,"Ġ1991":10305,"Ġpassatgers":10306,"aliments":10307,"ĠCampus":10308,"ĠJxCat":10309,"Ġrodes":10310,"Ġober":10311,"ĠMaig":10312,"Ġveia":10313,"ĠmatemÃłtiques":10314,"Ġnervi":10315,"ĠidentificaciÃ³":10316,"Ġtindria":10317,"Ġassolit":10318,"adas":10319,"esmentat":10320,"Ġrecorre":10321,"Ġmensual":10322,"ĠAmp":10323,"ulsa":10324,"EMAIL":10325,"ĠavaluaciÃ³":10326,"Ġgovernar":10327,"ĠXVII":10328,"ĠConferÃ¨ncia":10329,"Ġorganitzadors":10330,"Ġinvas":10331,"Ġvintena":10332,"ĠTÃŃtol":10333,"Ġveurem":10334,"mic":10335,"ĠBru":10336,"ĠLuc":10337,"Ġascend":10338,"Ġmals":10339,"Ġconegudes":10340,"argu":10341,"Ġderivades":10342,"Ġanualment":10343,"isses":10344,"Ãłmiques":10345,"Ġinfant":10346,"teniment":10347,"Una":10348,"anos":10349,"oft":10350,"sec":10351,"NG":10352,"Ġfita":10353,"Ġindividu":10354,"ĠAdriÃł":10355,"ĠLas":10356,"Ġponent":10357,"Ġbro":10358,"ĠFutbol":10359,"Ġassenyalar":10360,"ĠYou":10361,"Ġpintures":10362,"Ġfonaments":10363,"ĠacollirÃł":10364,"Ġquotidiana":10365,"ĠllanÃ§ament":10366,"Ġvaixells":10367,"ace":10368,"ĠguiÃ³":10369,"escala":10370,"ĠpolÃŃgon":10371,"Ġencom":10372,"Ġhivern":10373,"ĠsolidÃłria":10374,"fal":10375,"econÃ²m":10376,"Ġabra":10377,"Ġregles":10378,"Ġunanimitat":10379,"Ġsituats":10380,"Ġcartells":10381,"Ġqueix":10382,"Any":10383,"aquelles":10384,"ieu":10385,"Ġadmet":10386,"osses":10387,"Ġinsta":10388,"oa":10389,"arquitecte":10390,"actor":10391,"ĠvocaciÃ³":10392,"ĠHit":10393,"Ġdieta":10394,"\";":10395,"Ġescriu":10396,"ĠPA":10397,"enestar":10398,"acta":10399,"Ġsalv":10400,"vals":10401,"ÃŃnia":10402,"Ġpir":10403,"ĠBernat":10404,"Ġespecialistes":10405,"ĠMÃ¨":10406,"Ġcomplert":10407,"ĠpuntuaciÃ³":10408,"ĠCAT":10409,"Ġcompetir":10410,"ĠIdenti":10411,"Ġexecutiu":10412,"ĠIgual":10413,"DOGC":10414,"aleg":10415,"Ġsubjectes":10416,"iliars":10417,"ĠturÃŃstics":10418,"Ġtindrem":10419,"Ġexpuls":10420,"Ġpaisatges":10421,"Ġutilitzen":10422,"exemple":10423,"Ġriure":10424,"vic":10425,"Ġoferint":10426,"ĠPasqu":10427,"espais":10428,"73":10429,"iners":10430,"ajus":10431,"Esports":10432,"equilibri":10433,"?,":10434,"ĠEstic":10435,"Ġapuntar":10436,"Ġfutura":10437,"ĠCornellÃł":10438,"Ġdelegats":10439,"Ġ1993":10440,"Ġsuau":10441,"ĠacadÃ¨mica":10442,"tricitat":10443,"Ġenlloc":10444,"ĠBalaguer":10445,"Ġreserves":10446,"mentant":10447,"Ãįndia":10448,"Ġapreci":10449,"Ġequipament":10450,"Ġjueus":10451,"esquena":10452,"Ġimpossi":10453,"ĠJuliÃł":10454,"cents":10455,"actuar":10456,"ĠgrÃłfica":10457,"ĠCompany":10458,"Ġcaigut":10459,"Ġprobable":10460,"Ġurgent":10461,"Ġcord":10462,"Ġgastronomia":10463,"Ġministra":10464,"Ġsexuals":10465,"Ġllibertats":10466,"ĠCoopera":10467,"Ġdeures":10468,"Ġexposar":10469,"Ã¯nes":10470,"real":10471,"assessorament":10472,"ĠdeterminaciÃ³":10473,"Ġcomand":10474,"ĠCarmen":10475,"Ġjardins":10476,"Ġpartides":10477,"Ġiguals":10478,"Ġdescobreix":10479,"Ġcuid":10480,"ĠdivulgaciÃ³":10481,"mod":10482,"ĠBoi":10483,"Ġsubjecte":10484,"ajuts":10485,"Ġintervenir":10486,"Ġdeg":10487,"Ġsento":10488,"interpre":10489,"ĠIgles":10490,"ĠÃºnics":10491,"pla":10492,"visions":10493,"Â«":10494,"neu":10495,"Ã³mez":10496,"vit":10497,"Ġbuf":10498,"ĠsecretÃłria":10499,"far":10500,"Ġsentits":10501,"ĠRuiz":10502,"Ġreunit":10503,"ĠTec":10504,"ĠMata":10505,"Ġexpedients":10506,"ĠsÃŃmptomes":10507,"Ġpetr":10508,"Ġendins":10509,"Ġaer":10510,"Ġindirec":10511,"incendi":10512,"lava":10513,"ĠJust":10514,"Ġescales":10515,"ington":10516,"ĠLit":10517,"ĠtenÃŃem":10518,"anten":10519,"Ġprevenir":10520,"ĠCasals":10521,"Ġestrenar":10522,"ĠcompensaciÃ³":10523,"Ġrot":10524,"isteixen":10525,"Ġsomriure":10526,"issi":10527,"ĠhaurÃŃem":10528,"ato":10529,"alitzant":10530,"Ġprecep":10531,"guedÃł":10532,"ĠLlull":10533,"tadora":10534,"\":":10535,"ĠPsic":10536,"Ġ1980":10537,"ĠconvenÃ§ut":10538,"ergies":10539,"Ġcelebrada":10540,"Ġeficient":10541,"ĠpavellÃ³":10542,"ĠestaciÃ³":10543,"ĠÃ©":10544,"ence":10545,"Ġfilles":10546,"Ġporter":10547,"Ateneu":10548,"edors":10549,"assass":10550,"Ġrecor":10551,"ĠProfessional":10552,"Ġrelatives":10553,"Ġcommemora":10554,"Ġvergonya":10555,"loga":10556,"Ġavaluar":10557,"ixamp":10558,"intro":10559,"catal":10560,"Organitz":10561,"ressol":10562,"Ġjazz":10563,"95":10564,"ĠdetenciÃ³":10565,"valu":10566,"Ġllars":10567,"Ġformal":10568,"ĠparÃłgraf":10569,"jud":10570,"ĠSota":10571,"Ġarribi":10572,"Ġinstituts":10573,"Ġclo":10574,"ĠclÃłus":10575,"TE":10576,"ney":10577,"titats":10578,"Pro":10579,"Ã¨rp":10580,"AcadÃ¨mia":10581,"Ġfacilitant":10582,"ĠDÃŃaz":10583,"Ġeconom":10584,"lli":10585,"Ġvestit":10586,"Ġcorrents":10587,"Ġdirigent":10588,"Ġassaj":10589,"Ġort":10590,"Ġemerg":10591,"ĠCAP":10592,"igien":10593,"EmpordÃł":10594,"Ġpensava":10595,"Oli":10596,"ĠtÃºn":10597,"Ġmonument":10598,"ĠtÃ¨x":10599,"trats":10600,"BA":10601,"ĠSard":10602,"Ġviatgers":10603,"Ġprotagonisme":10604,"ĠIgualada":10605,"gonÃ¨s":10606,"Ġbesti":10607,"oteca":10608,"Ġnor":10609,"Ġcausar":10610,"61":10611,"ly":10612,"ganda":10613,"Ġsobiranista":10614,"ĠParal":10615,"algun":10616,"Ġsotmetre":10617,"ĠBÃ¨lgica":10618,"ĠDona":10619,"Ġoport":10620,"assignatura":10621,"oterÃłpia":10622,"tÃ©s":10623,"turar":10624,"Ġmisteri":10625,"Ġmural":10626,"41":10627,"Ġmatis":10628,"Ġgegants":10629,"Ã¯ble":10630,"2000":10631,"Ġimmigrants":10632,"Olot":10633,"ĠSalt":10634,"ĠMessi":10635,"aigÃ¼es":10636,"ĠJorge":10637,"ĠRed":10638,"ĠBenestar":10639,"ĠNIF":10640,"ĠOber":10641,"ket":10642,"ĠLin":10643,"Ġresidencial":10644,"ĠhectÃł":10645,"Ġestrelles":10646,"Ġmurs":10647,"altura":10648,"Ġfili":10649,"ĠFal":10650,"Ġ080":10651,"ĠcÃ²mp":10652,"Ġsensacions":10653,"allotjament":10654,"Ġnits":10655,"establir":10656,"fins":10657,"ĠpatrÃ³":10658,"Ġpenjar":10659,"ĠBarcelon":10660,"ITAT":10661,"ESS":10662,"Ġempa":10663,"Ġmantenint":10664,"88":10665,"ivissa":10666,"Ġgroc":10667,"ĠBert":10668,"Ãºlia":10669,"ante":10670,"Ġaugmenta":10671,"ĠAnglaterra":10672,"Ġjugat":10673,"explicar":10674,"ĠCamps":10675,"iar":10676,"ĠmarÃŃ":10677,"Ġinfraestructura":10678,"edent":10679,"Ġvius":10680,"aplicar":10681,"ĠKar":10682,"ĠcontinuarÃł":10683,"Ġrevisar":10684,"Ġduc":10685,"Ġforestals":10686,"Ġsals":10687,"Ġcomentat":10688,"estalvi":10689,"ĠTrump":10690,"Ġseixanta":10691,"Ġaven":10692,"tines":10693,"Esport":10694,"Ġrespir":10695,"Ġinfl":10696,"800":10697,"Ġcompareixen":10698,"ĠprovÃ©":10699,"ĠMirÃ³":10700,"ĠPIB":10701,"juÃ¯":10702,"Ġcontenciosa":10703,"Ġsuports":10704,"Ġqualificat":10705,"ĠfacilitarÃł":10706,"ĠoferirÃł":10707,"Ġllegenda":10708,"Ġorganisme":10709,"Ġnomenament":10710,"Ġaugmentat":10711,"Ġmalalts":10712,"ĠLlic":10713,"Ġlegalment":10714,"Ġarm":10715,"Ġbibli":10716,"ĠBot":10717,"espanyol":10718,"partit":10719,"ase":10720,"Ġvotat":10721,"Ãłnics":10722,"ĠconvocatÃ²ries":10723,"Ġrema":10724,"Ġasseguren":10725,"ĠFonts":10726,"Ġ52":10727,"impost":10728,"Ġtec":10729,"Ã¨ric":10730,"ĠAprovar":10731,"Ġingredients":10732,"Ġrealitzant":10733,"emissiÃ³":10734,"Ġimpression":10735,"ĠRecursos":10736,"Ġincen":10737,"ĠconsolidaciÃ³":10738,"ĠÃŃntegra":10739,"Ġfiscalia":10740,"escriure":10741,"Re":10742,"Ġpit":10743,"ĠfinanÃ§ar":10744,"urban":10745,"Ġsuficients":10746,"Ġinvol":10747,"ĠConvergÃ¨ncia":10748,"neg":10749,"ĠdesaparÃ¨ixer":10750,"Ġreceptes":10751,"ĠCli":10752,"Ġvil":10753,"Aran":10754,"adjudic":10755,"Ġcensura":10756,"Ġterrassa":10757,"ĠCerdanyola":10758,"ĠEspor":10759,"Ġtraslladat":10760,"arraf":10761,"ĠMur":10762,"Ġhospitals":10763,"luminaciÃ³":10764,"ops":10765,"Ġprecipi":10766,"ocament":10767,"ĠcertificaciÃ³":10768,"independÃ¨ncia":10769,"ĠMentrestant":10770,"Ġadvertit":10771,"Ġbenvinguda":10772,"acceptaciÃ³":10773,"Ġarxius":10774,"Ġconsideri":10775,"ĠDeu":10776,"ĠcurrÃŃculum":10777,"Ġclares":10778,"iA":10779,"ermita":10780,"wn":10781,"adr":10782,"esmentada":10783,"Ġagost":10784,"ĠproveÃ¯dors":10785,"ĠlliÃ§":10786,"entrevista":10787,"Ġcoc":10788,"ados":10789,"71":10790,"ĠposarÃł":10791,"ĠalÃ§ada":10792,"ĠPressup":10793,"ĠtÃ¨r":10794,"ocas":10795,"mines":10796,"ty":10797,"Ġaccel":10798,"ĠSag":10799,"Inf":10800,"Ġnecessitem":10801,"ĠHern":10802,"ĠBasc":10803,"Ġacostar":10804,"ĠGÃ³mez":10805,"ĠCarta":10806,"ĠmÃ¨dic":10807,"ĠsuÃ¯":10808,"Ġusuari":10809,"haguÃ©s":10810,"?.":10811,"ĠamenaÃ§a":10812,"ĠTaller":10813,"ĠGuardi":10814,"Ġreclamat":10815,"ĠestratÃ¨gic":10816,"dicions":10817,"Ġdesenvolupen":10818,"Des":10819,"nar":10820,"Ġsag":10821,"Ġcontagi":10822,"ĠextensiÃ³":10823,"tÃłries":10824,"Ġpensen":10825,"ergia":10826,"dalusia":10827,"Ġdesaf":10828,"ĠromÃł":10829,"ĠAMPL":10830,"Ġreina":10831,"Ġdestinar":10832,"Ġpressupos":10833,"efectu":10834,"lÃłndia":10835,"Ġhero":10836,"Albert":10837,"alter":10838,"fiqui":10839,"Ġserveixen":10840,"Ġpossiblement":10841,"talls":10842,"enques":10843,"Ġbac":10844,"ĠBrava":10845,"Ġfav":10846,"ĠXIII":10847,"Ġafavoreix":10848,"Ġserra":10849,"Ġconducta":10850,"Ġtribu":10851,"Ġmoss":10852,"Ġviva":10853,"ĠConca":10854,"Ġclassificat":10855,"iat":10856,"Ġrecop":10857,"ĠGai":10858,"Ġtera":10859,"Ġformatives":10860,"Ġdetenir":10861,"Ġafric":10862,"62":10863,"avanÃ§":10864,"Ġsubsidi":10865,"Ġllargues":10866,"ĠÃģlvar":10867,"Ã²crata":10868,"Ġcontinuat":10869,"ĠDigital":10870,"ĠSarriÃł":10871,"Ġtresor":10872,"ĠGerard":10873,"ĠUniversitari":10874,"Ġrecordo":10875,"Ãłstics":10876,"Ġnas":10877,"mail":10878,"Ġreivindicar":10879,"Ġordinador":10880,"assol":10881,"Ġcentrat":10882,"ĠordinÃłria":10883,"Ġgerent":10884,"ĠtrÃłfic":10885,"Ġesgo":10886,"ĠDeclaraciÃ³":10887,"Ġlac":10888,"Ġgamma":10889,"ĠNicol":10890,"Ġesportistes":10891,"ĠpÃ¨rdues":10892,"osiÃ³":10893,"torns":10894,"utaciÃ³":10895,"Ġajuden":10896,"Ġfuncionalitat":10897,"ĠAR":10898,"Ġrup":10899,"ĠhabitaciÃ³":10900,"Ġesmentades":10901,"DA":10902,"Ġtractava":10903,"ĠFrank":10904,"alcohol":10905,"Ġvui":10906,"ĠinÃ¨":10907,"ĠAlhora":10908,"ĠLiceu":10909,"Ġfortal":10910,"ĠAMPLIACIÃĵ":10911,"Ġreuneix":10912,"ĠcapitÃł":10913,"ĠDivendres":10914,"umentaciÃ³":10915,"acos":10916,"ĠTÃłrrega":10917,"ĠAcciÃ³":10918,"Ġcementiri":10919,"Ġcampus":10920,"Ġcontactar":10921,"Ġavant":10922,"gil":10923,"Ġtones":10924,"Ġconvertint":10925,"ĠSolid":10926,"Ġbeneficiaris":10927,"ĠurbanitzaciÃ³":10928,"tenen":10929,"Ġoriental":10930,"iz":10931,"rovis":10932,"64":10933,"ĠTC":10934,"Ġitaliana":10935,"Ġsaludable":10936,"Ġimpresa":10937,"ĠGui":10938,"ĠPrecisament":10939,"activar":10940,"Ġfinalitzat":10941,"Ġrol":10942,"Ġrecicl":10943,"Ġajut":10944,"ĠEstatuts":10945,"advocat":10946,"Ġderiva":10947,"avall":10948,"Ġferm":10949,"Ġconsiderada":10950,"inversiÃ³":10951,"Ġsuccessi":10952,"alitzacions":10953,"Ġposicionament":10954,"Ġcontractar":10955,"Ġalcaldes":10956,"esquÃŃ":10957,"ustrÃłlia":10958,"ĠSuÃ¯ssa":10959,"Ġactituds":10960,"ĠRespecte":10961,"ĠNor":10962,"fin":10963,"Ġdesob":10964,"ĠServ":10965,"Ġtamb":10966,"bara":10967,"gipte":10968,"onom":10969,"Ġfinanceres":10970,"Ġaparells":10971,"Ġconeixem":10972,"Ġabordar":10973,"ĠRegu":10974,"ĠÃį":10975,"Ġgestiona":10976,"adopciÃ³":10977,"ĠArquitec":10978,"98":10979,"ĠSand":10980,"Ġdictat":10981,"ĠecolÃ²gica":10982,"ĠDoctor":10983,"Ġimaginar":10984,"Ġvotants":10985,"Ġescenes":10986,"Ġabast":10987,"ĠcrÃ²nica":10988,"ĠCerc":10989,"ĠLÃŃ":10990,"ĠSenat":10991,"ĠPra":10992,"bon":10993,"autop":10994,"hos":10995,"Ġbusquen":10996,"Ġconnectar":10997,"Ġandor":10998,"Ġcobreix":10999,"Ġplas":11000,"Ġbran":11001,"Ġcatedral":11002,"execu":11003,"ĠDam":11004,"ares":11005,"Ġmasses":11006,"Ġ85":11007,"ĠmenÃº":11008,"tivals":11009,"queb":11010,"ĠBarberÃł":11011,"ĠPacte":11012,"Ġsenc":11013,"Ġreperc":11014,"Ã¨cnica":11015,"ĠBenefici":11016,"ĠModificaciÃ³":11017,"PR":11018,"ensable":11019,"ii":11020,"63":11021,"Ġdefinit":11022,"Ġdits":11023,"ĠviÃłria":11024,"ĠpÃºblicament":11025,"Ġfruits":11026,"Ġvocal":11027,"Ġobstac":11028,"Ġconductors":11029,"guardia":11030,"ĠIglesias":11031,"Ġoferim":11032,"mf":11033,"Ġindividus":11034,"univers":11035,"Ali":11036,"ĠsalÃ³":11037,"ĠvictÃ²ries":11038,"encara":11039,"ĠTrobada":11040,"ĠtecnolÃ²gica":11041,"mpa":11042,"Ġaniran":11043,"leccions":11044,"Ġhumanes":11045,"ĠAz":11046,"Ġpeticions":11047,"gnasi":11048,"Ġesdevingut":11049,"Ġtradu":11050,"ĠAG":11051,"Ġpoguessin":11052,"FC":11053,"mart":11054,"Ġsolitari":11055,"ĠemÃ¨s":11056,"Ġindisp":11057,"Ġdeure":11058,"Ġinsu":11059,"Ġassessorament":11060,"Ġassaig":11061,"Ġactor":11062,"ĠPet":11063,"Ġhumor":11064,"ĠenergÃ¨tic":11065,"ĠPesca":11066,"Ġatacar":11067,"Ãºncies":11068,"Ġintentant":11069,"Ġformatiu":11070,"Ġreflexions":11071,"alcaldia":11072,"Ġfacultats":11073,"instru":11074,"arde":11075,"ĠAcab":11076,"Ġnu":11077,"Ġrelativament":11078,"onis":11079,"%),":11080,"ĠTrÃł":11081,"Estudi":11082,"ĠLloc":11083,"asset":11084,"74":11085,"animaciÃ³":11086,"quies":11087,"infants":11088,"ene":11089,"rof":11090,"Ġinvestigador":11091,"ĠjubilaciÃ³":11092,"ulats":11093,"Ġraona":11094,"ĠPasseig":11095,"ĠCR":11096,"Ġllums":11097,"Di":11098,"ĠClÃŃn":11099,"Ġoperatiu":11100,"ĠTelevisiÃ³":11101,"Ã¼r":11102,"illo":11103,"agenda":11104,"Ġpalau":11105,"Ġentusias":11106,"ello":11107,"ĠcapÃŃtols":11108,"erven":11109,"ĠprÃ²xima":11110,"Ġofert":11111,"Ġsubscriptor":11112,"ĠrepublicÃł":11113,"Ġremod":11114,"ĠXIV":11115,"Ġcandidatures":11116,"entrar":11117,"titzar":11118,"Ġalumne":11119,"Ġretrob":11120,"Ġqualifica":11121,"ĠDiumenge":11122,"Ġpredom":11123,"rqueting":11124,"oi":11125,"ĠGarrotxa":11126,"Ġutilitzats":11127,"Ġjutges":11128,"tos":11129,"Ġvagin":11130,"impor":11131,"ĠbraÃ§os":11132,"pats":11133,"Ġhabilitat":11134,"errada":11135,"dores":11136,"Ġinaugurar":11137,"Ġsobres":11138,"ĠcÃ²mic":11139,"off":11140,"Ġtransmet":11141,"Ġmeri":11142,"auradament":11143,"rances":11144,"Ġvinculat":11145,"Ġindign":11146,"ĠpublicarÃł":11147,"Ġtrist":11148,"Ġmuntar":11149,"ĠproblemÃłtica":11150,"Ġinspec":11151,"ĠCentres":11152,"ession":11153,"Ġpensem":11154,"cre":11155,"Ġmilitants":11156,"tadÃŃstica":11157,"Ġimmediat":11158,"Alb":11159,"ĠtinguÃ©s":11160,"Ġassumptes":11161,"Ġesperit":11162,"Ġsemif":11163,"ĠadreÃ§at":11164,"Ġventall":11165,"Ġrodona":11166,"Ġreis":11167,"Ġdisting":11168,"DE":11169,"obri":11170,"Ġdrama":11171,"ĠÃ©ssers":11172,"Ġexposat":11173,"Ġavent":11174,"Ġformatius":11175,"Ġdesenc":11176,"ĠmÃłrqueting":11177,"Ġromans":11178,"ĠPolit":11179,"Ġduen":11180,"ÃŃx":11181,"Ġrelax":11182,"ĠSE":11183,"ĠTr":11184,"actures":11185,"ĠtraÃ§at":11186,"Ġentrevistes":11187,"ĠseguirÃł":11188,"ĠAndrÃ©s":11189,"editorial":11190,"Ġrectangular":11191,"ĠMay":11192,"grau":11193,"Ġ54":11194,"Ġreportatge":11195,"quebisb":11196,"omunicacions":11197,"Ġocupat":11198,"ĠZap":11199,"entament":11200,"Esc":11201,"Ġrecollit":11202,"poques":11203,"Ġvoluntariat":11204,"Ġparcialment":11205,"Ġtrenca":11206,"asso":11207,"aposta":11208,"ane":11209,"juÃ¯c":11210,"Ġic":11211,"ĠAmics":11212,"quista":11213,"Ġefectius":11214,"ĠWillia":11215,"xos":11216,"Ġcostum":11217,"itiu":11218,"Ġfocus":11219,"las":11220,"ItÃłlia":11221,"ĠautÃ²noms":11222,"Ġcaire":11223,"essors":11224,"Ġinteressada":11225,"antat":11226,"......":11227,"IPC":11228,"ĠGuia":11229,"initat":11230,"Ġpales":11231,"tilles":11232,"sives":11233,"Ġpreguntat":11234,"ĠtitulaciÃ³":11235,"Ġviabilitat":11236,"JC":11237,"ĠpenÃŃnsula":11238,"Obs":11239,"Ġtitulat":11240,"ĠJard":11241,"Ġlimitacions":11242,"Ġfus":11243,"ĠfederaciÃ³":11244,"Ġdemanant":11245,"rich":11246,"tencions":11247,"Ġreme":11248,"Ġtrucar":11249,"cem":11250,"Ġvarietats":11251,"Ã±ol":11252,"ĠsensibilitzaciÃ³":11253,"Ãłbil":11254,"ath":11255,"Ġreca":11256,"Ġcomerciants":11257,"ĠFol":11258,"Ġcanviant":11259,"ĠVerda":11260,"tibles":11261,"Ġconcrets":11262,"alitzen":11263,"tatiu":11264,"Ġsepara":11265,"ĠXII":11266,"OrganitzaciÃ³":11267,"rany":11268,"Ġrelats":11269,"utar":11270,"Ġobligatori":11271,"ĠOliver":11272,"Ġdigui":11273,"Ġsovi":11274,"Ġestablerta":11275,"Ġdada":11276,"ĠRaval":11277,"ejat":11278,"animals":11279,"ĠFra":11280,"roal":11281,"Ġinde":11282,"grad":11283,"rÃ¨s":11284,"Ġmecanisme":11285,"Ġpagaments":11286,"indo":11287,"Ġ1989":11288,"java":11289,"Ġcarnet":11290,"oba":11291,"Ġfuturs":11292,"Ġ62":11293,"Ġcro":11294,"nez":11295,"ĠhipÃ²":11296,"ĠGaudÃŃ":11297,"ĠParticipaciÃ³":11298,"Ġaprofitat":11299,"ith":11300,"300":11301,"Ġfestiu":11302,"Ġilla":11303,"Ġgeneren":11304,"Ġmercaderies":11305,"ediÃ¨ncia":11306,"ĠbeneficiÃłria":11307,"Ġdiria":11308,"Ġretribucions":11309,"ĠPersones":11310,"Ġnuclis":11311,"ĠdesapariciÃ³":11312,"Ġcaixes":11313,"ĠVin":11314,"Ġpapa":11315,"altar":11316,"ĠLloret":11317,"ĠReb":11318,"Ġpasta":11319,"Ġtreballadora":11320,"Ġconvoca":11321,"ĠinformÃłtic":11322,"Ġaccidents":11323,"Ã²ct":11324,"Ġfo":11325,"Ġcub":11326,"Ġroca":11327,"ĠGent":11328,"Ġacusats":11329,"Ġous":11330,"Ġparticiparan":11331,"etÃłria":11332,"ulacions":11333,"itenci":11334,"Sant":11335,"agossa":11336,"Ġeditat":11337,"interessa":11338,"ĠColla":11339,"infant":11340,"vistar":11341,"Ġlamenta":11342,"umb":11343,"Ġth":11344,"ĠsanciÃ³":11345,"?\"":11346,"para":11347,"Ġhon":11348,"ceta":11349,"ĠSob":11350,"ĠRegid":11351,"Ġfauna":11352,"Ġestrella":11353,"ĠTemps":11354,"Ġvoldria":11355,"ĠAngel":11356,"Ġ58":11357,"Ġafectada":11358,"garÃł":11359,"Ġcristians":11360,"Ġnul":11361,"ĠBlanca":11362,"ĠAcc":11363,"ĠRicard":11364,"Ġbronze":11365,"AE":11366,"Ġ68":11367,"Ġexecutar":11368,"Ġlimitat":11369,"Ġtanmateix":11370,"ductor":11371,"Ġdotar":11372,"Ġpercep":11373,"ĠÃ¨x":11374,"ĠperiÃ²dica":11375,"Ġrepresentacions":11376,"Ġprecis":11377,"Ġinterac":11378,"Ġelegit":11379,"igiene":11380,"ĠCS":11381,"ĠorientaciÃ³":11382,"Ġnavegador":11383,"ĠlÃŃquid":11384,"Ġvella":11385,"ĠAles":11386,"Ġinvi":11387,"ĠparlamentÃłria":11388,"we":11389,"ciones":11390,"ĠcontÃŃnua":11391,"ward":11392,"Ġevolu":11393,"Ġestaria":11394,"ĠrepÃºblica":11395,"Ġantec":11396,"ĠreclamaciÃ³":11397,"Ġregional":11398,"Ġintercan":11399,"Antoni":11400,"ĠterÃł":11401,"Ãłndol":11402,"Ġseguim":11403,"Ġparer":11404,"Ġquir":11405,"Ġradical":11406,"Ġcorredors":11407,"otip":11408,"Ġrebutjar":11409,"ware":11410,"avÃŃs":11411,"ĠIgu":11412,"tein":11413,"incompliment":11414,"ĠUPC":11415,"ux":11416,"ĠPap":11417,"Ġsemes":11418,"oferir":11419,"Ġoct":11420,"ĠNit":11421,"Ġmetropolitana":11422,"ulsiÃ³":11423,"Ã²cia":11424,"Ġant":11425,"Ġessencials":11426,"acs":11427,"ĠcaracterÃŃstica":11428,"ĠAnti":11429,"lades":11430,"Ġmodifica":11431,"pera":11432,"Ġconformen":11433,"ĠBatxillerat":11434,"Ġestren":11435,"innovaciÃ³":11436,"alistes":11437,"Ġobligats":11438,"Ġcontempla":11439,"Ġusar":11440,"ĠElla":11441,"roquial":11442,"Ġ1939":11443,"Ġestimat":11444,"ĠadaptaciÃ³":11445,"Ġpecu":11446,"ĠallÃŃ":11447,"Ġreconeguts":11448,"Ġsorprenent":11449,"pÃŃ":11450,"Ġ56":11451,"ĠHitler":11452,"ĠGall":11453,"Ġnacionalisme":11454,"Catalunya":11455,"Ġlimitar":11456,"ete":11457,"abet":11458,"Alacant":11459,"ĠVanguardia":11460,"Ġhttps":11461,"Ġric":11462,"rÃłc":11463,"ĠimpressiÃ³":11464,"estructuraciÃ³":11465,"ĠIndustrial":11466,"Ġinteressat":11467,"Ġintegrar":11468,"ĠMEUR":11469,"tional":11470,"escut":11471,"Ġubicat":11472,"ĠPeriod":11473,"Ġferma":11474,"Ġevent":11475,"Ġobserva":11476,"ĠCambrils":11477,"arcals":11478,"ĠExc":11479,"Ġprocedir":11480,"ĠHol":11481,"Ġmanifestants":11482,"df":11483,"ĠdiscussiÃ³":11484,"ĠCristi":11485,"imatges":11486,"Ġmobilitzacions":11487,"Ġvenia":11488,"Ãłt":11489,"ĠGre":11490,"Ġrenovar":11491,"Ġobligar":11492,"Aigua":11493,"Ġcompetents":11494,"Ġanglesa":11495,"ĠcomercialitzaciÃ³":11496,"abans":11497,"ĠCated":11498,"Ġanuncia":11499,"ĠarribarÃł":11500,"lelament":11501,"Ġpror":11502,"Ġparlava":11503,"ĠimaginaciÃ³":11504,"Ġgimn":11505,"Ġsaf":11506,"Ã²rics":11507,"Ġsenyors":11508,"data":11509,"Ġcontinent":11510,"Ġcongel":11511,"nic":11512,"Ãłnima":11513,"Ġcaracteritza":11514,"Ã²pera":11515,"blanc":11516,"ĠinstÃłncia":11517,"Ġ51":11518,"Ġjutjats":11519,"ĠclÃŃnica":11520,"Ġlleugerament":11521,"Ġbrom":11522,"ilip":11523,"Ġsamarreta":11524,"Ġinvestidura":11525,"ĠcÃłmeres":11526,"Ġcopa":11527,"Ġgros":11528,"Ã¨cd":11529,"estudiants":11530,"ĠCÃŃv":11531,"Ġdisciplines":11532,"Ġencaix":11533,"SE":11534,"estudiant":11535,"Ġidiomes":11536,"rupaciÃ³":11537,"ĠContac":11538,"omÃ²bil":11539,"empresari":11540,"Ġpetroli":11541,"avia":11542,"Ġnoticia":11543,"Ġarc":11544,"Ġrequereixen":11545,"Ġcris":11546,"ĠPlana":11547,"Ġcontradic":11548,"aspecte":11549,"Ġsenten":11550,"Ġwebs":11551,"ĠVives":11552,"Ġagre":11553,"Ġincorporat":11554,"ous":11555,"Ġmasclista":11556,"Ġesbor":11557,"Amb":11558,"ĠMobilitat":11559,"Ġfacultat":11560,"Ġecos":11561,"ĠMarroc":11562,"Sal":11563,"Ãłtiques":11564,"igs":11565,"egem":11566,"Ġlateral":11567,"ĠjurÃŃdiques":11568,"Ġexca":11569,"Ã§Ã²":11570,"Ġenamor":11571,"ĠSent":11572,"Ġgi":11573,"ock":11574,"Ġsiguem":11575,"lita":11576,"Ġdescriure":11577,"ny":11578,"Ġpermisos":11579,"ĠPare":11580,"ĠAgustÃŃ":11581,"Ġarbit":11582,"Ġdonem":11583,"Ġatorgat":11584,"icaments":11585,"Ġmanual":11586,"aa":11587,"Ġassocia":11588,"Ġcorona":11589,"Ġpublicats":11590,"ĠEscol":11591,"Ġformativa":11592,"Ġdestina":11593,"ĠSalou":11594,"ĠmasculÃŃ":11595,"Ġpreservar":11596,"ĠAutor":11597,"Ġdirectiva":11598,"Ġcomissari":11599,"Ġesmorzar":11600,"TC":11601,"Ġcontundent":11602,"Ġamplia":11603,"ĠSolsona":11604,"Ġprima":11605,"Ġindret":11606,"vertir":11607,"ĠEspaÃ±a":11608,"inista":11609,"Alta":11610,"ĠHospital":11611,"Est":11612,"ĠPerpinyÃł":11613,"Ġpositius":11614,"Hem":11615,"Ġferides":11616,"ĠPobla":11617,"tive":11618,"Ġdirectius":11619,"Ġqueixes":11620,"Orient":11621,"Ġpromogut":11622,"Ġenquestes":11623,"Ġcarregat":11624,"Ġcultiu":11625,"ĠCalaf":11626,"imÃ©":11627,"Ġcompost":11628,"Ġresolucions":11629,"Ġ95":11630,"ĠdonaciÃ³":11631,"ĠPapa":11632,"Ġemmagatzem":11633,"estada":11634,"ĠcapÃ§al":11635,"ĠTurquia":11636,"Ġcust":11637,"Ġ107":11638,"Ġperjudic":11639,"ĠResid":11640,"Ġdeterior":11641,"tig":11642,"ĠCastellers":11643,"rÃłcia":11644,"Ġguarda":11645,"ĠservirÃł":11646,"Ġprovinents":11647,"Ġprioritats":11648,"ight":11649,"Ġinquietud":11650,"ĠWh":11651,"Imperi":11652,"ĠSitu":11653,"Ġalerta":11654,"escripciÃ³":11655,"Ġtancats":11656,"ĠGarraf":11657,"Ġaspira":11658,"assum":11659,"Ġlitoral":11660,"ingrÃ©s":11661,"Ġnocturn":11662,"ropol":11663,"iciÃ³s":11664,"ĠsÃŃmbols":11665,"ĠÃłlbum":11666,"Ġpatint":11667,"Ġinjus":11668,"amÃ³s":11669,"ĠfantÃłstic":11670,"Ġllegat":11671,"Ġbene":11672,"Ġdivertit":11673,"mus":11674,"ĠRef":11675,"ĠdiplomÃł":11676,"Ġguitarra":11677,"Ġestudia":11678,"Ġmodificada":11679,"Ã²lics":11680,"Ġcomportar":11681,"%).":11682,"ĠcomÃ¨dia":11683,"Ġguanyadora":11684,"Ġtransversal":11685,"Ġpositivament":11686,"ĠUnes":11687,"ĠfusiÃ³":11688,"UD":11689,"americans":11690,"utx":11691,"ĠCanadÃł":11692,"Ġinvestigacions":11693,"ise":11694,"ĠproporciÃ³":11695,"Ġ1970":11696,"Ġdegus":11697,"ĠMarcel":11698,"Ġespero":11699,"exic":11700,"ĠhectÃłrees":11701,"antes":11702,"ĠTrib":11703,"Ġmanc":11704,"ĠaprÃ¨s":11705,"ĠreivindicaciÃ³":11706,"Ġsenyals":11707,"entrega":11708,"kel":11709,"vella":11710,"ĠDirectiva":11711,"tÃŃs":11712,"Ġfites":11713,"aderia":11714,"Ġcami":11715,"Ġfutures":11716,"Ġhere":11717,"ĠEconÃ²mica":11718,"Ġtaronja":11719,"Ġobtinguts":11720,"ĠIgualment":11721,"Ġindicadors":11722,"ĠdiÃł":11723,"Ġcompeticions":11724,"ĠlingÃ¼ÃŃstic":11725,"Ġsimpa":11726,"ĠAquell":11727,"anomenat":11728,"Ġdany":11729,"Ġautonomia":11730,"Ġarrels":11731,"Ġ700":11732,"Ġaficionats":11733,"Ġdescri":11734,"essibilitat":11735,"ĠQuatre":11736,"enys":11737,"Ġtorni":11738,"ĠbraÃ§":11739,"glÃ©sies":11740,"ĠTS":11741,"Ġespecialista":11742,"Ġcompten":11743,"Ġinformatiu":11744,"Ġgovernador":11745,"Ġaddicionals":11746,"gonal":11747,"ĠConsum":11748,"ĠVell":11749,"ĠreligiÃ³s":11750,"Ġassajos":11751,"andre":11752,"ĠUrgell":11753,"Ġnatur":11754,"Ġciutadanes":11755,"Ġcoincidir":11756,"Ġcervesa":11757,"Ġentrenador":11758,"ĠConsul":11759,"Ġactivament":11760,"Ġrestr":11761,"Ġvivia":11762,"Ġagradar":11763,"armes":11764,"ĠcompromÃ¨s":11765,"Ġcalcula":11766,"ĠconstruÃ¯da":11767,"Ġordenar":11768,"Ġfixat":11769,"Ġdescompte":11770,"Ġconfirma":11771,"liÃ³":11772,"ĠTomÃłs":11773,"Ġcooperatives":11774,"impos":11775,"Ġinferiors":11776,"Ġcalcul":11777,"____":11778,"ĠcaÃ§a":11779,"Ġcompleixen":11780,"Ġapassi":11781,"Ġreclamacions":11782,"Ġplantejat":11783,"igo":11784,"Ġvicepresidenta":11785,"Ġbateria":11786,"...).":11787,"ĠCEIP":11788,"urn":11789,"ĠIS":11790,"1995":11791,"Ġformatge":11792,"Ġnegatiu":11793,"edificis":11794,"actuacions":11795,"Ġmoneda":11796,"Ġfug":11797,"ionats":11798,"rique":11799,"ĠSetembre":11800,"Ġsep":11801,"Ã²sof":11802,"Ġsalaris":11803,"ĠtÃłc":11804,"Ġintegrants":11805,"Ġprotestes":11806,"risti":11807,"ELL":11808,"igualtat":11809,"Ġrecents":11810,"intervenciÃ³":11811,"Ġgaleria":11812,"Ġsorprendre":11813,"ĠbutlletÃŃ":11814,"Ġtria":11815,"ĠBenet":11816,"Ġpoetes":11817,"Ġcomenta":11818,"Ġsobreviure":11819,"uth":11820,"Ġesperen":11821,"ĠÃŃndex":11822,"itiva":11823,"ival":11824,"Ġbombers":11825,"Ġrespectius":11826,"ilateral":11827,"ĠInnovaciÃ³":11828,"ĠConcepte":11829,"Ġfirma":11830,"Ġdepenent":11831,"Ġreguladores":11832,"ĠavanÃ§a":11833,"Ġgro":11834,"ĠlesiÃ³":11835,"ĠSem":11836,"Ġevidentment":11837,"ĠRet":11838,"Ġconstitueixen":11839,"Ġanomenar":11840,"ĠUtilitz":11841,"laborat":11842,"igi":11843,"Ġvisibilitat":11844,"Ġestils":11845,"Ġretard":11846,"ĠPolÃ²nia":11847,"fonia":11848,"Ġsetanta":11849,"mera":11850,"Ãłstiques":11851,"ĠIsrael":11852,"Ġelevada":11853,"Ġcomparteixen":11854,"nou":11855,"Ġdetallat":11856,"ĠPDe":11857,"Ġfamosa":11858,"Ġfrases":11859,"ĠCervera":11860,"ĠBeneficiari":11861,"atero":11862,"Ġenfrontar":11863,"Ġincapa":11864,"2001":11865,"Ġperfecta":11866,"ĠLliber":11867,"Ġdiem":11868,"Ġperfils":11869,"inades":11870,"Ġ\"\"":11871,"ĠAleshores":11872,"Ġdesena":11873,"Ã¯ment":11874,"Ġefectuar":11875,"lusiu":11876,"ĠEmpresa":11877,"89":11878,"Ġdius":11879,"entrenador":11880,"ĠsubstÃłncies":11881,"mentals":11882,"inacions":11883,"Ġculte":11884,"Ġanomenats":11885,"Ġlocalitzar":11886,"ulades":11887,"ĠhÃłbil":11888,"viu":11889,"ĠSegur":11890,"pÃ¨u":11891,"Ġincendi":11892,"Ġmana":11893,"Ġdissol":11894,"mm":11895,"ĠtecnolÃ²gic":11896,"Ġvetllar":11897,"Ġcorrespongui":11898,"Ġadmi":11899,"ĠcerÃłmica":11900,"Ġasi":11901,"olÃŃmp":11902,"ĠampliaciÃ³":11903,"ĠActivitats":11904,"ĠConsulta":11905,"Ġredactat":11906,"ĠcatedrÃłtic":11907,"ĠRural":11908,"Aix":11909,"ĠMontse":11910,"ĠmÃ²dul":11911,"ĠLliure":11912,"mÃłcia":11913,"acum":11914,"ĠEduard":11915,"arren":11916,"Ġcrescut":11917,"olles":11918,"Ġ1978":11919,"ĠcompareixenÃ§a":11920,"ĠprohibiciÃ³":11921,"ĠRecon":11922,"ventari":11923,"ĠSaragossa":11924,"ĠbritÃłnics":11925,"Ġinteressa":11926,"ĠEti":11927,"Ġproposem":11928,"emma":11929,"ĠLou":11930,"ĠanÃ²nim":11931,"imÃ©nez":11932,"Ġenfor":11933,"ĠSens":11934,"Ġdonada":11935,"ĠprecisiÃ³":11936,"Ġcolumna":11937,"ĠConcre":11938,"Ġcarregar":11939,"Ġsomnis":11940,"Ġlaterals":11941,"Ġbonica":11942,"ĠJuvenil":11943,"Ġepisodis":11944,"rendre":11945,"cinc":11946,"ĠBerguedÃł":11947,"ĠSÃŃria":11948,"Ġdisposats":11949,"ĠEv":11950,"sses":11951,"Ġdurar":11952,"ĠimmigraciÃ³":11953,"lÃ³":11954,"endo":11955,"mosfera":11956,"ĠcentÃŃ":11957,"Ġtornem":11958,"Ġinscriure":11959,"ĠMemÃ²ria":11960,"ĠTerritorials":11961,"Ind":11962,"ĠMunt":11963,"Ġremarca":11964,"ĠVist":11965,"Ġpreparant":11966,"right":11967,"Ġanticip":11968,"ier":11969,"Ġduu":11970,"Ġgironines":11971,"ĠSaint":11972,"Ġpeixos":11973,"wood":11974,"Ġfactures":11975,"Ġimmobili":11976,"Ġpastis":11977,"Ġ1984":11978,"Ġparticipatiu":11979,"Espanyol":11980,"Ġcontenidors":11981,"ĠTrias":11982,"ĠGlob":11983,"inosa":11984,"Ġinscrits":11985,"ĠBarri":11986,"SÃŃ":11987,"Ã¨p":11988,"Ġjustament":11989,"adjudicaciÃ³":11990,".).":11991,"aprendre":11992,"Ġporc":11993,"ĠcomenÃ§ant":11994,"Ġadaptat":11995,"Ġaudiovisuals":11996,"Ġindependentment":11997,"ole":11998,"!,":11999,"Ġmapes":12000,"Ġpobre":12001,"ĠDescripciÃ³":12002,"ĠRich":12003,"Ġresolt":12004,"Ġcoordinar":12005,"Ġatorgar":12006,"Ġpilars":12007,"entatges":12008,"Ġadvocat":12009,"licita":12010,"naval":12011,"Ġreflecteix":12012,"Ġaventura":12013,"ĠSara":12014,"ĠbritÃłnica":12015,"ĠOfer":12016,"rosa":12017,"Ġsop":12018,"Ġrobatori":12019,"Car":12020,"Ġquadres":12021,"Ã©r":12022,"ĠBB":12023,"porta":12024,"Ġcontenen":12025,"Ã¨sties":12026,"ĠbarcelonÃŃ":12027,"Ġimpre":12028,"ĠExper":12029,"ĠartÃŃstiques":12030,"ĠEdit":12031,"ĠPalamÃ³s":12032,"Ġfosc":12033,"Ġentorns":12034,"ĠsimultÃłnia":12035,"ĠÃ¨xits":12036,"ĠCicle":12037,"Ġassociat":12038,"ĠconvÃ¨ncer":12039,"our":12040,"Ġembol":12041,"je":12042,"Ġnacionalista":12043,"Ġescal":12044,"Ġtemporals":12045,"Ġartificial":12046,"eÃ§":12047,"ĠCity":12048,"Ġ1986":12049,"Ġtocat":12050,"Ġassignatures":12051,"tambÃ©":12052,"ĠreduÃ¯da":12053,"Ġmarcats":12054,"entena":12055,"emperador":12056,"Ġbressol":12057,"ĠJurÃŃ":12058,"ĠRem":12059,"geri":12060,"Ġconvidar":12061,"entrenament":12062,"gina":12063,"culs":12064,"Ġacompanya":12065,"600":12066,"Ġespecialitzats":12067,"autora":12068,"Ġsatisfer":12069,"Ġentenc":12070,"ĠentÃ©n":12071,"ĠEurope":12072,"urr":12073,"endran":12074,"Ġpreparats":12075,"iversitats":12076,"ues":12077,"ĠmanipulaciÃ³":12078,"Ġremarcar":12079,"Ġpuguem":12080,"ocalip":12081,"Ġcuriositat":12082,"Ġfundada":12083,"Ġquotes":12084,"gador":12085,"Ġestatals":12086,"Er":12087,"Ġpromocionar":12088,"Ġ1979":12089,"ĠFÃŃsica":12090,"ĠMontilla":12091,"esperar":12092,"Ġnegu":12093,"Ġ;":12094,"ĠRiba":12095,"lai":12096,"400":12097,"ADA":12098,"Ġdesenes":12099,"Ġatorga":12100,"Ġportant":12101,"ak":12102,"Ġmadril":12103,"wer":12104,"ĠCort":12105,"ĠVolun":12106,"Ġtrajecte":12107,"Ġcontemporani":12108,"Ġsint":12109,"Ġartic":12110,"Ġdemostren":12111,"Col":12112,"ĠIndependÃ¨ncia":12113,"ĠbalcÃ³":12114,"Ġmensuals":12115,"Ġgreix":12116,"ĠprÃ²r":12117,"ĠBut":12118,"Ġimped":12119,"Ġestatuts":12120,"Ġcostums":12121,"extrema":12122,"ĠPolÃŃtiques":12123,"Ã±ez":12124,"ĠÃºtils":12125,"Av":12126,"ĠCarre":12127,"eba":12128,"iments":12129,"ĠDonar":12130,"Ġdesenvolupant":12131,"Ġpintar":12132,"tracciÃ³":12133,"Ġutilitzada":12134,"Ġ59":12135,"ross":12136,"ĠfilÃ²sof":12137,"ender":12138,"Ġamenaces":12139,"riÃ³":12140,"ĠfarmacÃ¨u":12141,"ĠCovid":12142,"agÃ¨ncia":12143,"Ġtelec":12144,"Ġfisi":12145,"ĠestadÃŃstiques":12146,"individ":12147,"ft":12148,"Cal":12149,"Ġfia":12150,"Ġestabliment":12151,"cionant":12152,"Ġrellotge":12153,"Ġsumat":12154,"Ġpropici":12155,"usuaris":12156,"ĠLec":12157,"ĠcerimÃ²nia":12158,"ĠcuriÃ³s":12159,"ingo":12160,"inserciÃ³":12161,"Ġatractiu":12162,"ĠCod":12163,"Ãļ":12164,"PP":12165,"...,":12166,"empat":12167,"Ġconvic":12168,"Ġfresc":12169,"rov":12170,"anomenada":12171,"entendrÃł":12172,"Ġtrep":12173,"Ġdescobri":12174,"meses":12175,"Ġ1987":12176,"Ġsuspendre":12177,"Ġtax":12178,"Ġexpedient":12179,"ĠPDeCAT":12180,"ji":12181,"Ġsat":12182,"Ã§Ãł":12183,"ĠliquidaciÃ³":12184,"ĠSegarra":12185,"Ġlin":12186,"uida":12187,"urgia":12188,"Ġterrat":12189,"Ġembar":12190,"ĠJames":12191,"Ġllistat":12192,"Ġvolums":12193,"ĠRepres":12194,"itÃ²ria":12195,"ĠNoguera":12196,"ĠconvÃ©":12197,"ĠretribuciÃ³":12198,"encarregat":12199,"altat":12200,"ĠreposiciÃ³":12201,"ĠLoc":12202,"Ġrecta":12203,"Ġinterns":12204,"ĠZapatero":12205,"Ġnaz":12206,"Ġrecomanable":12207,"ĠmotivaciÃ³":12208,"Aques":12209,"Ġportugu":12210,"Ãłnquing":12211,"Ġpresentats":12212,"ĠAir":12213,"Ġrelacionar":12214,"57":12215,"ĠnecessÃłriament":12216,"Ġemmarc":12217,"Ã²rnia":12218,"ocalipsi":12219,"eneraciÃ³":12220,"estu":12221,"Ġplau":12222,"Ġaconseguint":12223,"Ġarribem":12224,"Ġpertanyen":12225,"Ġprestar":12226,"EUiA":12227,"ciÃ³s":12228,"ĠApar":12229,"Ġmedicaments":12230,"ĠCiutadana":12231,"essora":12232,"Ġmodificat":12233,"Ġrecorden":12234,"Ġestel":12235,"Ġdup":12236,"Ġamiga":12237,"elements":12238,"Ġguerres":12239,"itxell":12240,"ĠBretanya":12241,"Ġates":12242,"ĠForc":12243,"ĠEspai":12244,"Ġdita":12245,"din":12246,"Ġllur":12247,"escoles":12248,"Ġrescat":12249,"perÃ²":12250,"infer":12251,"ope":12252,"Ġcomodi":12253,"Ġaprenentatge":12254,"pressiÃ³":12255,"Ġajudat":12256,"Ġrebutjat":12257,"Horta":12258,"Ġprogramat":12259,"Ġlocalitats":12260,"Ġprenen":12261,"Ġplural":12262,"TT":12263,"ĠMot":12264,"dÃłria":12265,"Ġrespectu":12266,"Ġsumen":12267,"embre":12268,"ĠMund":12269,"Ġtravessa":12270,"Ġcames":12271,"ĠagrÃŃcoles":12272,"Ġcorda":12273,"Ġsignes":12274,"ocasiÃ³":12275,"ĠexecuciÃ³":12276,"ĠfÃ²rum":12277,"ĠmÃ²duls":12278,"Ġcampanar":12279,"Ġpresumpte":12280,"idaciÃ³":12281,"assump":12282,"Ġconsecutiu":12283,"plu":12284,"Ġrecollides":12285,"InformaciÃ³":12286,"ofereix":12287,"Ġconsiderem":12288,"ĠconclÃ²s":12289,"CI":12290,"Ġgan":12291,"ĠguardÃ³":12292,"ĠIgnasi":12293,"ĠPolitÃ¨cnica":12294,"ĠautonÃ²mic":12295,"PV":12296,"Ġquedava":12297,"BI":12298,"ĠCalif":12299,"Ġfranja":12300,"ĠÃ¨poques":12301,"Ġfestivals":12302,"Ġ57":12303,"OD":12304,"Ġconfinament":12305,"Ġintu":12306,"Ġjugada":12307,"ĠacadÃ¨mics":12308,"ĠPav":12309,"Hisenda":12310,"Ġdivertida":12311,"gafa":12312,"Ġacabada":12313,"oy":12314,"oportunitats":12315,"Ã¨miques":12316,"Ġemet":12317,"Ġmotors":12318,"52":12319,"ĠVirg":12320,"Ġparlamentaris":12321,"Ġcritica":12322,"perquÃ¨":12323,"Ġignor":12324,"Ġforat":12325,"ERS":12326,"eguts":12327,"heim":12328,"reia":12329,"Ãłlisis":12330,"Ã©nen":12331,"Ã¼l":12332,"work":12333,"Ġinvestigar":12334,"ĠdesprÃ¨s":12335,"Ġdespertar":12336,"Ġcristiana":12337,"ermerc":12338,"lor":12339,"Ġsolidari":12340,"Ġprivacitat":12341,"ĠdetecciÃ³":12342,"ĠcircumstÃłncia":12343,"Ġfitxa":12344,"Ġdesa":12345,"abtes":12346,"Ġbombarde":12347,"ĠConsid":12348,"Ġconced":12349,"bÃ³":12350,"Ġfrus":12351,"ÃŃssimes":12352,"Ġacceptat":12353,"Ġsetmanal":12354,"ICA":12355,"ĠClara":12356,"Ġsecrets":12357,"Ġtarra":12358,"Ġadequades":12359,"Ġsons":12360,"trar":12361,"Ġdemanava":12362,"tedra":12363,"Ġaustr":12364,"crit":12365,"ĠMedia":12366,"lesa":12367,"Ġsancion":12368,"ĠConcretament":12369,"Observatori":12370,"OpiniÃ³":12371,"adequaciÃ³":12372,"Ġconcretar":12373,"Orden":12374,"Ġproductor":12375,"Ġesteu":12376,"ĠUPF":12377,"integraciÃ³":12378,"cits":12379,"Ġcentr":12380,"ĠRubÃŃ":12381,"avent":12382,"Ġnobles":12383,"Ġservidor":12384,"Ġurbanitz":12385,"Ã¯ns":12386,"Ġrelatiu":12387,"Ã²bia":12388,"ĠxinÃ¨s":12389,"Ġsemblants":12390,"ĠhistÃ²riques":12391,"Ġinstant":12392,"ĠSolidaritat":12393,"Ġfortes":12394,"Ġestalvi":12395,"Ġdoctorat":12396,"ĠencÃłrrec":12397,"Ġguanyant":12398,"Ġcentenari":12399,"Ġconcloure":12400,"ĠacabarÃł":12401,"nals":12402,"Ġbossa":12403,"Ġferrocar":12404,"ĠDocumentaciÃ³":12405,"ĠMeritxell":12406,"Ãłmens":12407,"ĠMolins":12408,"Ġaprofita":12409,"Ġestendre":12410,"Ġcelebren":12411,"Ġinevi":12412,"eras":12413,"Ġbasc":12414,"Ġcorpor":12415,"ingres":12416,"Ġriera":12417,"Ġespon":12418,"ĠinformÃłtica":12419,"ĠolÃŃmp":12420,"gesia":12421,"ĠMich":12422,"Ġrecuperat":12423,"Ġconvocada":12424,"Afers":12425,"ĠXi":12426,"Ġportem":12427,"ĠalimentÃłria":12428,"cÃł":12429,"Ġced":12430,"Ġconstantment":12431,"ĠcÃ²mode":12432,"Ġconquer":12433,"ĠvinculaciÃ³":12434,"ĠBuen":12435,"ĠFort":12436,"Ġdescoberta":12437,"ĠcontribuciÃ³":12438,"ĠJon":12439,"53":12440,"atÃ²ria":12441,"Ġpreocupa":12442,"ĠRespons":12443,"udi":12444,"Ġdeis":12445,"osex":12446,"Par":12447,"Ġtrobarem":12448,"ĠÃģngel":12449,"ĠDiputats":12450,"ĠdimissiÃ³":12451,"Ġvisc":12452,"guines":12453,"enseny":12454,"hael":12455,"ĠLletres":12456,"Ġdirigides":12457,"Ġ1982":12458,"ĠrellevÃłncia":12459,"ĠmÃłs":12460,"Ġblancs":12461,"legiats":12462,"ĠComerci":12463,"Ġdeien":12464,"Ġseparar":12465,"Ġrics":12466,"Ġhaguessin":12467,"Ġincomp":12468,"Ġpublicades":12469,"Ġretrat":12470,"ĠDues":12471,"mÃłtics":12472,"ĠmÃłn":12473,"Ġsituades":12474,"2019":12475,"Ġcercle":12476,"uni":12477,"Ġaccessos":12478,"omeu":12479,"ĠobligaciÃ³":12480,"Ġjusta":12481,"tificat":12482,"ĠadmÃ¨s":12483,"Ġcomponent":12484,"ĠPalaf":12485,"Ġindiquen":12486,"Ġnacionalistes":12487,"Orquestra":12488,"ĠGuardiola":12489,"ĠVilla":12490,"rons":12491,"ĠTall":12492,"ĠcientÃŃfiques":12493,"ĠSta":12494,"extinciÃ³":12495,"Ġcreuar":12496,"ĠMusic":12497,"encarreg":12498,"haurien":12499,"Ġefectivament":12500,"noms":12501,"ĠautomÃłticament":12502,"Ġcorredor":12503,"Ġcadira":12504,"Ġescapar":12505,"MB":12506,"ĠMilÃł":12507,"itÃ³s":12508,"Ġtarifes":12509,"lleu":12510,"apa":12511,"Ġfolk":12512,"2020":12513,"ICV":12514,"Ġllicenci":12515,"ĠressÃ²":12516,"imenta":12517,"ĠAN":12518,"ĠSÃłn":12519,"Ġinnoc":12520,"raries":12521,"ĠelÃ¨ctrics":12522,"CA":12523,"Ġexemplar":12524,"Ġsucceir":12525,"ĠDesta":12526,"ĠprÃ²ximes":12527,"Ġnuclear":12528,"ĠObjecte":12529,"Ġdestruir":12530,"Ġplaca":12531,"Ġbrut":12532,"uar":12533,"54":12534,"ĠRad":12535,"Ġprecari":12536,"onso":12537,"Ġtrentena":12538,"ĠED":12539,"Ġmusulm":12540,"Ġsaltar":12541,"ĠautÃ¨ntic":12542,"ĠacÃºs":12543,"Ġrumb":12544,"Ġvuitanta":12545,"aplic":12546,"Ã§o":12547,"ĠInform":12548,"Baix":12549,"Ġ1988":12550,"Ġextern":12551,"onalment":12552,"Ġpluges":12553,"Ġrobot":12554,"Ġfragments":12555,"ĠWe":12556,"Ġsalarials":12557,"aproxim":12558,"Ġ53":12559,"Ġliderat":12560,"Ġtreballem":12561,"Ġvoluntari":12562,"Ġendur":12563,"lip":12564,"Ġguardar":12565,"Ġproduccions":12566,"aprof":12567,"Ġpancar":12568,"Ġterrorisme":12569,"ĠCient":12570,"Ġcobert":12571,"eficÃłcia":12572,"ĠprÃłctic":12573,"Ġexplicant":12574,"ester":12575,"atorgament":12576,"ĠAda":12577,"ĠcommemoraciÃ³":12578,"Ġromandre":12579,"Ġrepeteix":12580,"ÃŃcules":12581,"inscri":12582,"ĠRegiÃ³":12583,"pin":12584,"Ġpresidit":12585,"alliberament":12586,"Ġdesapareix":12587,"ice":12588,"92":12589,"arrel":12590,"Ġperspectives":12591,"ĠdesplaÃ§aments":12592,"ostre":12593,"ĠaprovaciÃ³":12594,"ĠSÃ³c":12595,"ransi":12596,"hal":12597,"ĠSÃłnchez":12598,"tinerari":12599,"ĠexplicaciÃ³":12600,"ropolitÃł":12601,"gons":12602,"ack":12603,"Ġaval":12604,"ĠFla":12605,"Ġgala":12606,"ruc":12607,"ĠtemÃłtiques":12608,"Ġentrega":12609,"Ġfascin":12610,"Ġ78":12611,"ote":12612,"Ã²ces":12613,"ngels":12614,"Ġ1977":12615,"ARCEL":12616,"infra":12617,"Ġbord":12618,"entr":12619,"cionistes":12620,"Ġ1985":12621,"Ġmari":12622,"--,":12623,"Ã²loga":12624,"ĠtomÃł":12625,"ĠHam":12626,"51":12627,"Ãłp":12628,"Ġentenem":12629,"Ġprenent":12630,"cionista":12631,"Ã²mens":12632,"ĠsupervivÃ¨ncia":12633,"Ġidentifica":12634,"Ġdescomptat":12635,"Ġcomplexa":12636,"idat":12637,"Ġ1960":12638,"Ġcoincideix":12639,"jaments":12640,"unid":12641,"ĠÃŃntegrament":12642,"andia":12643,"Estany":12644,"Ġcontrast":12645,"ĠPark":12646,"ĠlocalitzaciÃ³":12647,"Ġlliurement":12648,"Ġresca":12649,"Ġassemblea":12650,"Ġsupervis":12651,"scar":12652,"set":12653,"ĠterÃ§":12654,"estadi":12655,"ĠadreÃ§ada":12656,"ESCO":12657,"ĠgÃ¨neres":12658,"Ġdesesper":12659,"onga":12660,"ĠRepublicana":12661,"Ġlectures":12662,"Ġnarrativa":12663,"venda":12664,".Â»":12665,"Ġsencer":12666,"Ġhoritzon":12667,"Ġmissa":12668,"Ġmargin":12669,"Ġexpert":12670,"egada":12671,"Ġvells":12672,"ĠgeogrÃłfica":12673,"ALL":12674,"Ġsabor":12675,"ĠdenÃºncies":12676,"ĠCasas":12677,"Ġpromoguda":12678,"Ġagent":12679,"Osona":12680,"Ġgaudeix":12681,"ĠinformÃłtics":12682,"Ġxiquets":12683,"Ġpreveure":12684,"Ġfinancers":12685,"umenges":12686,"Ġfortalesa":12687,"56":12688,"Ġvermella":12689,"ĠMoreno":12690,"emmarca":12691,"ĠViu":12692,"ĠDelegaciÃ³":12693,"udÃ¨ncia":12694,"Ġ1983":12695,"ST":12696,"Ġmarcada":12697,"Ġcompartida":12698,"trada":12699,"Ġpesc":12700,"ellers":12701,"ĠAlt":12702,"ĠmagnÃŃfica":12703,"Ã³ra":12704,"ĠplÃłnols":12705,"ĠcomplementÃłries":12706,"Ġtractats":12707,"ĠavanÃ§ada":12708,"Ġenvia":12709,"ĠportÃł":12710,"iber":12711,"Ġvinculada":12712,"icat":12713,"cles":12714,"ĠentÃ¨s":12715,"olida":12716,"raccions":12717,"Ġpresentacions":12718,"Ġperdent":12719,"Ġestimar":12720,"ingressos":12721,"ocat":12722,"ĠcomunitÃłria":12723,"Ġcertificats":12724,"Ġcasc":12725,"adop":12726,"Ġinvoluc":12727,"adura":12728,"Ġvalu":12729,"Ġ72":12730,"raeli":12731,"odiversitat":12732,"ĠSocialista":12733,"entat":12734,"Ġcavalls":12735,"Ġporteria":12736,"Ġquer":12737,"Ġorganitzades":12738,"Ġsuggeri":12739,"Ġcoure":12740,"usk":12741,"Ġcreadors":12742,"Ġacudir":12743,"ĠdolÃ§":12744,"seud":12745,"cida":12746,"incloure":12747,"ĠexplÃŃci":12748,"Ġamants":12749,"ĠQuer":12750,"obtenir":12751,"omat":12752,"Ġesposa":12753,"arcacions":12754,"Ġdetectat":12755,"Ġesg":12756,"enses":12757,"Ġvestits":12758,"Ġrevolta":12759,"Ġinteriors":12760,"Ġadvers":12761,"Ġretal":12762,"rall":12763,"ĠvÃ©nen":12764,"ectes":12765,"ĠCob":12766,"utilitzen":12767,"Ġinex":12768,"Ġrealitzaran":12769,"Ġcontemplar":12770,"Ġrebuda":12771,"Ġencarregar":12772,"Ġdesmun":12773,"ĠRegidoria":12774,"ĠHen":12775,"Ġsimpli":12776,"Ġdensitat":12777,"Executiu":12778,"Ġexteriors":12779,"ĠCuba":12780,"Ġplantar":12781,"Ġcriticar":12782,"Ġenganx":12783,"Ġconvencional":12784,"rava":12785,"Ġamar":12786,"ĠcorrecciÃ³":12787,"Ġlluna":12788,"ĠAlberto":12789,"Ġsegres":12790,"Ġllargs":12791,"Ġfitxers":12792,"ĠAlba":12793,"ĠestratÃ¨gica":12794,"Ġestrictament":12795,"titzat":12796,"Ġsentim":12797,"llament":12798,"letisme":12799,"Ġemprenedors":12800,"Ġfrau":12801,"cla":12802,"ĠTinc":12803,"ĠconcepciÃ³":12804,"Ø§":12805,"imon":12806,"ĠGeorge":12807,"Ġcarboni":12808,"Ġch":12809,"Ġordinadors":12810,"Ġinterloc":12811,"Ġconsumidor":12812,"ĠEug":12813,"dim":12814,"ĠProduc":12815,"ĠimplementaciÃ³":12816,"Ġconsiderable":12817,"ĠPPC":12818,"arrÃ²s":12819,"ĠeconÃ²micament":12820,"Ġconfid":12821,"Ġ900":12822,"ĠCGT":12823,"ime":12824,"Ġlent":12825,"ĠLleÃ³":12826,"Ġhol":12827,"ĠTarifa":12828,"erats":12829,"Ġgravar":12830,"urbanitzaciÃ³":12831,"ĠTour":12832,"ĠalimentaciÃ³":12833,"Ġsuposen":12834,"pÃłs":12835,"Ġsona":12836,"ĠPonÃ¨ncia":12837,"Ġavantatge":12838,"Ġliberal":12839,"ualitats":12840,"ĠsupressiÃ³":12841,"Ġtalla":12842,"ExÃ¨rcit":12843,"ĠNec":12844,"rÃ³s":12845,"ĠrenÃºncia":12846,"Ġapa":12847,"ĠautÃ²ct":12848,"Ġregals":12849,"visme":12850,"Ġcontent":12851,"edÃ¨ncia":12852,"Ġtorrent":12853,"nomÃ©s":12854,"vocaciÃ³":12855,"ĠCastells":12856,"Ġgat":12857,"Ġnotar":12858,"Ġproposen":12859,"ĠdolÃ§a":12860,"........":12861,"Ġvariable":12862,"Ġmobiliari":12863,"Ġdeixi":12864,"ĠMontjuÃ¯c":12865,"viÃł":12866,"ternativa":12867,"Ġproclamar":12868,"Ġsupermerc":12869,"Ġreligioses":12870,"ĠcomprÃ¨n":12871,"Ġvulnerables":12872,"Ġpresidents":12873,"ĠAmbiental":12874,"ĠpÃ¨l":12875,"Ġplantejament":12876,"Ġconjunts":12877,"esi":12878,"ĠGaran":12879,"fort":12880,"Ġdestacades":12881,"ONU":12882,"Lle":12883,"Ġdebut":12884,"Ġdescobriment":12885,"hy":12886,"veus":12887,"Ġtraspass":12888,"mades":12889,"Ġgla":12890,"Ġcomunes":12891,"Ġpropaganda":12892,"aventura":12893,"Ã²tics":12894,"ĠOri":12895,"exemp":12896,"ĠFinances":12897,"ĠCrea":12898,"Ġverdures":12899,"ĠnÃ©":12900,"Ġbeneficiari":12901,"Ġton":12902,"Ġtoler":12903,"ĠFru":12904,"Hotel":12905,"ĠFoto":12906,"olina":12907,"Ġpenes":12908,"ĠEul":12909,"dan":12910,"adolesc":12911,"ĠevidÃ¨ncia":12912,"ĠmagnÃŃfic":12913,"homenatge":12914,"Ġpagesos":12915,"ĠMitjanÃ§ant":12916,"Ġmestra":12917,"ĠRector":12918,"ĠAudiovisuals":12919,"ARCELONA":12920,"impar":12921,"Escal":12922,"Pa":12923,"ĠProvin":12924,"Ġcapitalisme":12925,"Ġpresentaran":12926,"Ġaclarir":12927,"ĠMargari":12928,"ĠMÃ²nica":12929,"lectuals":12930,"ilitzar":12931,"ĠðŁ":12932,"ĠmÃłxims":12933,"Ġescons":12934,"ĠAh":12935,"ĠMateu":12936,"ĠPost":12937,"Ġpatronal":12938,"valuaciÃ³":12939,"Ġindispensable":12940,"Ġimper":12941,"Ġintercanvi":12942,"Ġpactar":12943,"ncia":12944,"Ġsortint":12945,"Ġneutr":12946,"bat":12947,"aparell":12948,"accessibilitat":12949,"Ġsignificativa":12950,"ĠRig":12951,"Ġfiguren":12952,"ĠMollet":12953,"cient":12954,"ĠtecnolÃ²gics":12955,"ĠThom":12956,"Ġbil":12957,"guers":12958,"orquestra":12959,"Ġmonitor":12960,"ĠrebrÃł":12961,"astr":12962,"Ãłcid":12963,"Ġadient":12964,"Ġrepresentat":12965,"Ġacabi":12966,"ĠCardona":12967,"Habitatge":12968,"ĠAy":12969,"encarrega":12970,"Ġports":12971,"apocalipsi":12972,"Ġconfron":12973,"avorits":12974,"Ġsisena":12975,"Â¿":12976,"Ġmossos":12977,"ĠSÃŃndic":12978,"ĠDivers":12979,"ĠrecaptaciÃ³":12980,"Ġreciclatge":12981,"erola":12982,"eld":12983,"Ġplen":12984,"Ġdesb":12985,"mona":12986,"Ġrosa":12987,"Ġabandonat":12988,"isca":12989,"Quan":12990,"admissiÃ³":12991,"Ġconsolidat":12992,"vangel":12993,"Ġcasal":12994,"Ġjuguen":12995,"Ġamagar":12996,"Ġcitat":12997,"posat":12998,"Ġsacerd":12999,"ĠGro":13000,"ĠAlimentaciÃ³":13001,"Ġmitjanes":13002,"Ġneur":13003,"Ġvegetals":13004,"Ġcoca":13005,"quins":13006,"Ġargument":13007,"expansiÃ³":13008,"Ġcandidata":13009,"Ġaprofundir":13010,"ĠcentÃŃmetres":13011,"Ġprotegit":13012,"Esper":13013,"incesa":13014,"trina":13015,"ĠVII":13016,"CD":13017,"necess":13018,"ĠMestre":13019,"Ġdesfer":13020,"LE":13021,"Ġpeculiar":13022,"ĠsistemÃłtica":13023,"Ġreivindicacions":13024,"Ġllurs":13025,"Ġsemestre":13026,"ĠterapÃ¨u":13027,"rible":13028,"Ġ1976":13029,"sh":13030,"ĠBarris":13031,"Ġescor":13032,"Ġcomunitari":13033,"audiÃ¨ncia":13034,"ĠArran":13035,"ĠDiego":13036,"ĠPregun":13037,"Ġacorda":13038,"igen":13039,"nest":13040,"ĠprimÃłries":13041,"tanes":13042,"Ġpersonalitats":13043,"Ġaccessible":13044,"oner":13045,"ĠPDF":13046,"Ġpand":13047,"Ġrequisit":13048,"sionista":13049,"Ã§ant":13050,"Ġrebuts":13051,"Ã²mbia":13052,"Ġafron":13053,"Ġcreatiu":13054,"Ġtarragon":13055,"Ġpap":13056,"ĠlegÃŃtim":13057,"Ġjuntes":13058,"indows":13059,"ĠespecÃŃficament":13060,"uits":13061,"Ġconcursos":13062,"ĠMireia":13063,"tates":13064,"ĠelÃ¨ctriques":13065,"âĢĶ,":13066,"ertesa":13067,"Ġrecullen":13068,"till":13069,"acreditaciÃ³":13070,"sobre":13071,"ĠexplotaciÃ³":13072,"ocols":13073,"enz":13074,"Ġjoguines":13075,"Ġconserven":13076,"Ġseca":13077,"egues":13078,"Ġvariables":13079,"Ġreferit":13080,"Ġreferir":13081,"ĠteÃ²rica":13082,"ĠSuÃ¨cia":13083,"ĠCiutadella":13084,"Ġprofundament":13085,"assaig":13086,"Ġrivals":13087,"Ġsignificatiu":13088,"ĠtÃºnel":13089,"Ġagradaria":13090,"Ġarbre":13091,"ĠtinguÃ©":13092,"Que":13093,"Ġbull":13094,"ĠContrac":13095,"Ġoficina":13096,"Ġretra":13097,"ew":13098,"ĠautÃ¨ntica":13099,"Ġbicicletes":13100,"ĠNavarra":13101,"ĠLaia":13102,"illas":13103,"Ġfrontal":13104,"Ġsufra":13105,"ĠeficÃłcia":13106,"Ġrum":13107,"ratges":13108,"ĠavÃŃs":13109,"Ġassassinat":13110,"gur":13111,"mann":13112,"gust":13113,"Ġdocumentals":13114,"ĠRamÃ³n":13115,"Ġqueixa":13116,"acompanyament":13117,"Ġdesigualtats":13118,"lustraciÃ³":13119,"ĠOlot":13120,"Ġhel":13121,"Ġdirectrius":13122,"Ġadoptat":13123,"Ġtramitar":13124,"Ġracons":13125,"Ġinicials":13126,"Ġorganitzen":13127,"ĠMillor":13128,"bona":13129,"Ġmobles":13130,"tega":13131,"Ġretor":13132,"Ġvessants":13133,"Ġfeminista":13134,"Ġneta":13135,"rugell":13136,"ĠEsperem":13137,"!\"":13138,"Ġproductivitat":13139,"rogen":13140,"ald":13141,"Ġvivien":13142,"Ġvita":13143,"ĠamericÃł":13144,"ĠinserciÃ³":13145,"Ġdesconegut":13146,"Anna":13147,"ĠÃī":13148,"Ġemiss":13149,"ĠPriorat":13150,"ĠracÃ³":13151,"Ġapel":13152,"director":13153,"Vol":13154,"rog":13155,"IONS":13156,"Ġmonarquia":13157,"ĠEsportiu":13158,"Ġdissabtes":13159,"ĠAndre":13160,"Ġtorns":13161,"Ġestrena":13162,"laudi":13163,"quez":13164,"ĠruÃ¯":13165,"Ã¡r":13166,"Ġredueix":13167,"otips":13168,"Esportiu":13169,"ĠPaco":13170,"ick":13171,"Ġbegudes":13172,"ĠcantÃ³":13173,"Ġborsa":13174,"Ġaparell":13175,"cra":13176,"ĠConeixement":13177,"93":13178,"Ġtest":13179,"ife":13180,"quÃ¨s":13181,"Ġassab":13182,"Ġconfess":13183,"ĠprovÃŃncies":13184,"Ġlluites":13185,"Ġcalgui":13186,"Ġanirem":13187,"ĠEstudis":13188,"habitaciÃ³":13189,"ĠCro":13190,"Ġ180":13191,"Ġexplicava":13192,"ĠcoherÃ¨ncia":13193,"ĠNob":13194,"ĠCompl":13195,"Ġcloenda":13196,"grup":13197,"ĠpersecuciÃ³":13198,"Ã¨lix":13199,"Ġfreda":13200,"Ġdecora":13201,"OV":13202,"andro":13203,"ĠNarc":13204,"Ġcomplements":13205,"riz":13206,"ĠConseller":13207,"tablement":13208,"Ġexperimentar":13209,"Ġrespectives":13210,"agaf":13211,"Ġcalma":13212,"ido":13213,"ĠSecretari":13214,"ĠGarriga":13215,"vinguts":13216,"Ġesqui":13217,"ĠintÃ¨rp":13218,"Ġtravess":13219,"Ġlliur":13220,"Ġanimar":13221,"Ġ1975":13222,"igma":13223,"pod":13224,"Ġender":13225,"omplir":13226,"hero":13227,"Ġcomicis":13228,"ĠEc":13229,"Ġdiscursos":13230,"ĠmediterrÃłnia":13231,"Ġbuits":13232,"Ġvarem":13233,"Ġenregist":13234,"Ġincendis":13235,"Ġdonaran":13236,"ĠfreqÃ¼ent":13237,"espectador":13238,"Ġverte":13239,"rena":13240,"Ġvalent":13241,"ĠHola":13242,"Ġinstitucionals":13243,"ĠmÃ¨rits":13244,"Ġ66":13245,"hÃłb":13246,"Ġassociades":13247,"Ġmoto":13248,"ĠDijous":13249,"Argentina":13250,"Ġdiumenges":13251,"Ġfinques":13252,"amena":13253,"ĠtÃ¨xtil":13254,"ĠMosc":13255,"Ġgeni":13256,"Ġmesurar":13257,"Ġinformatius":13258,"ĠbeneficiÃłries":13259,"ule":13260,"eixes":13261,"xaca":13262,"ario":13263,"Ġtap":13264,"Ġideologia":13265,"ĠfÃ²s":13266,"Ġcist":13267,"Ġflamen":13268,"Ġcava":13269,"Ġcator":13270,"artic":13271,"Ġcreativa":13272,"ĠCoordinadora":13273,"ĠJoana":13274,"plan":13275,"Ġcliqueu":13276,"ĠGreg":13277,"Ġpresencial":13278,"defels":13279,"Ġ00":13280,"Ġsuscep":13281,"cionisme":13282,"ye":13283,"Ġedificacions":13284,"ĠRibes":13285,"84":13286,"ĠCatedral":13287,"Ġpilar":13288,"Ġpenet":13289,"Ġajudant":13290,"onesos":13291,"ube":13292,"iniciar":13293,"ĠpaciÃ¨ncia":13294,"Ġadequats":13295,"emprened":13296,"Ġcasti":13297,"Ġpaquet":13298,"Ġmulta":13299,"Se":13300,"ĠdistÃłncies":13301,"Ġtracti":13302,"Ġsonora":13303,"ĠCompar":13304,"Ġocells":13305,"Ġmetre":13306,"ĠcÃłrregues":13307,"ulls":13308,"ĠRegi":13309,"Ġconfia":13310,"lents":13311,"Ġned":13312,"emporada":13313,"ĠinteracciÃ³":13314,"Ġester":13315,"mÃŃ":13316,"Ġcentrada":13317,"Ġconeixia":13318,"vents":13319,"ĠAtenciÃ³":13320,"Ġexten":13321,"Ġespecialitats":13322,"ÃŃssims":13323,"Ġaplicant":13324,"Ġcontents":13325,"histori":13326,"Ġespl":13327,"visible":13328,"ĠJuny":13329,"Ġdeclara":13330,"Ġminoria":13331,"ĠagraÃ¯t":13332,"Ġrecrea":13333,"Ġaus":13334,"Ġtabac":13335,"Ġreligiosos":13336,"oners":13337,"Ġsender":13338,"Ġsimbol":13339,"utor":13340,"landÃ¨s":13341,"Ġrenovables":13342,"Ġdecre":13343,"ĠPonent":13344,"tiran":13345,"ĠDal":13346,"Ġdividir":13347,"ĠTothom":13348,"administra":13349,"Ġimprovis":13350,"Ġfavorables":13351,"ĠBloc":13352,"Ġmercantil":13353,"licitants":13354,"tions":13355,"Ġcautel":13356,"ĠlimitaciÃ³":13357,"Ġvariant":13358,"Ãłrbit":13359,"urgÃ¨ncia":13360,"lvia":13361,"Ġgana":13362,"ĠMichael":13363,"Ġenvolta":13364,"Ġconec":13365,"aden":13366,"Ġpuny":13367,"Ġpretenen":13368,"enyes":13369,"Ġmusc":13370,"ĠEmili":13371,"dicte":13372,"Ġdavall":13373,"acomi":13374,"ĠfÃŃsics":13375,"locaciÃ³":13376,"aires":13377,"Ġmortals":13378,"ĠcÃ¨n":13379,"Ġhar":13380,"ĠHel":13381,"Ġverb":13382,"Ġtinguem":13383,"Ġcolumnes":13384,"Ġbars":13385,"estava":13386,"ĠPag":13387,"Ġllibreria":13388,"Ġlligat":13389,"Ġministres":13390,"Ġcastellana":13391,"Ġpaisatg":13392,"ĠVicente":13393,"citaciÃ³":13394,"Ġformalitzar":13395,"ford":13396,"Ġcomplicitat":13397,"ÃŃlies":13398,"aprofitament":13399,"Ġpilots":13400,"Ġceller":13401,"ĠfreqÃ¼ents":13402,"ixample":13403,"ĠSis":13404,"ĠPasc":13405,"mis":13406,"estes":13407,"Ġvetll":13408,"Ġautoritat":13409,"ĠControl":13410,"ĠBou":13411,"Ġminor":13412,"ĠdinamitzaciÃ³":13413,"ĠAlonso":13414,"utilitzaciÃ³":13415,"ĠsisÃ¨":13416,"ĠDO":13417,"truir":13418,"ĠecolÃ²gic":13419,"Ġversos":13420,"Ãĥ":13421,"Ġtals":13422,"IE":13423,"Ġadvocats":13424,"Ġespiritual":13425,"Ġdisputa":13426,"Ġconquesta":13427,"ĠelecciÃ³":13428,"ĠChamp":13429,"ĠRamaderia":13430,"ĠXile":13431,"ĠpermanÃ¨ncia":13432,"ĠCatalanes":13433,"bu":13434,"ĠsanitÃłries":13435,"Ġregulen":13436,"Ġclassificar":13437,"Ġnaus":13438,"ĠcomenÃ§Ãł":13439,"ĠmoltÃŃssim":13440,"Ġmediambiental":13441,"onent":13442,"ĠpacÃŃfica":13443,"ĠnÃºvols":13444,"laborador":13445,"Ġ1981":13446,"ĠBARCELONA":13447,"blir":13448,"ĠEspecial":13449,"observaciÃ³":13450,"Ġparticularment":13451,"envia":13452,"Ġarribada":13453,"Ã²metre":13454,"Ġdisfru":13455,"tn":13456,"idioma":13457,"ĠIndÃºstria":13458,"Ġalegria":13459,"monia":13460,"ĠCompanys":13461,"ĠNarcÃŃs":13462,"ĠVel":13463,"espÃ¨cie":13464,"Ġpreventiva":13465,"onari":13466,"ĠNove":13467,"Ġrang":13468,"ĠPrevenciÃ³":13469,"Ġpenitenci":13470,"Ġ88":13471,"ĠFi":13472,"Ġcorregir":13473,"avis":13474,"Ġubicada":13475,"Ġconvent":13476,"Ġtast":13477,"Ġnegat":13478,"Ġcapitals":13479,"Ġindisc":13480,"ĠsortirÃł":13481,"AMPA":13482,"ĠDo":13483,"Ġpressa":13484,"adÃŃs":13485,"ĠTelec":13486,"way":13487,"ĠdeixarÃł":13488,"Ġtorres":13489,"Ġdedicats":13490,"ĠMig":13491,"anal":13492,"Ġbranca":13493,"Ġdesert":13494,"chi":13495,"liga":13496,"landes":13497,"Ġminerals":13498,"ĠRevoluciÃ³":13499,"velles":13500,"ÃŃas":13501,"Ġcarril":13502,"tum":13503,"Ġcadenes":13504,"ĠImatge":13505,"Ġsacrifici":13506,"ĠpolÃŃticament":13507,"ĠObs":13508,"opi":13509,"Ġurbanitzable":13510,"Ġconcedit":13511,"aixec":13512,"Ġacollit":13513,"eja":13514,"Ġbale":13515,"ĠViny":13516,"ĠconducciÃ³":13517,"ĠcapÃ§alera":13518,"Ġvincles":13519,"ĠsupervisiÃ³":13520,"ĠestÃ¨tica":13521,"Ġcognoms":13522,"cili":13523,"aus":13524,"Ġasset":13525,"lÃ²":13526,"Ġdeixo":13527,"entista":13528,"quei":13529,"ashington":13530,"ĠCaldes":13531,"ĠcomenÃ§ava":13532,"ĠÃĴmnium":13533,"Ġ114":13534,"ĠrÃłnquing":13535,"emmagatzem":13536,"ĠVox":13537,"Ġbanca":13538,"ah":13539,"ricul":13540,"astia":13541,"Ġprogramar":13542,"Ġgasos":13543,"Ġhiper":13544,"Ġrobatoris":13545,"uega":13546,"Ġprotocols":13547,"Ġtripartit":13548,"ebra":13549,"iciativa":13550,"Ġfruites":13551,"Ġmentida":13552,"Ġperp":13553,"ĠMAR":13554,"Ġtrobaven":13555,"ĠArnau":13556,"Ġmonitors":13557,"Ġbarreres":13558,"ĠTercera":13559,"Ġcontenir":13560,"ĠdinÃłmiques":13561,"ritz":13562,"Ġprovincial":13563,"Ġmundi":13564,"Ġfabri":13565,"yd":13566,"tus":13567,"Ġvideojocs":13568,"ostic":13569,"eliminaciÃ³":13570,"Ġimposat":13571,"ĠSuport":13572,"Ġfresca":13573,"Ãłniques":13574,"oper":13575,"GC":13576,"Ġbosses":13577,"Ġordinari":13578,"ĠmantindrÃł":13579,"ĠmecÃłnica":13580,"km":13581,"idees":13582,"assassinat":13583,"Ġcoordinadora":13584,"ĠMul":13585,"Ġblat":13586,"Ã²dia":13587,"remta":13588,"Ġdonacions":13589,"Ġconductes":13590,"Ġdisfress":13591,"InvestigaciÃ³":13592,"ĠNeus":13593,"Ġsous":13594,"identitat":13595,"Ġsotmet":13596,"escolar":13597,"ĠÃĢngels":13598,"ĠAten":13599,"biol":13600,"Ġaplicat":13601,"ajudar":13602,"ĠURV":13603,"ĠmÃ¨rit":13604,"urrÃ¨ncia":13605,"clar":13606,"atra":13607,"ĠdiÃłriament":13608,"ĠCharles":13609,"PD":13610,"Ġcoral":13611,"organitzar":13612,"ĠcÃłs":13613,"Ġdepenen":13614,"ĠDomÃ¨nech":13615,"ĠLES":13616,"Ġpublicitari":13617,"Ġvinya":13618,"artistes":13619,"Ġcatalog":13620,"Ġpactes":13621,"ĠavenÃ§os":13622,"ĠdistinciÃ³":13623,"ĠSegre":13624,"Ġ99":13625,"ĠHabitatge":13626,"Ġcaptar":13627,"Ġaporten":13628,"Gu":13629,"Val":13630,"],":13631,"Ġaprova":13632,"Ġimpulsada":13633,"alegria":13634,"ĠRES":13635,"Ġtranscurs":13636,"Ġrealitats":13637,"Ġbranques":13638,"loqui":13639,"ĠVida":13640,"ĠdesobediÃ¨ncia":13641,"Ġprotec":13642,"Ġcere":13643,"Ġincompa":13644,"Ġ63":13645,"Ġfrenar":13646,"entreteniment":13647,"MC":13648,"ĠAdministraciÃ³":13649,"lustracions":13650,"Ġcreador":13651,"Ġ115":13652,"Ġdistribu":13653,"Ġadquirit":13654,"Ġrelatius":13655,"actriu":13656,"MS":13657,"fred":13658,"ĠForma":13659,"Ġrecal":13660,"Ġtert":13661,"avantatge":13662,"escrit":13663,"Ġeliminat":13664,"Ġacolli":13665,"Ġintents":13666,"laÃ§ament":13667,"Ġbec":13668,"Ġacusacions":13669,"tadi":13670,"Ġadjunt":13671,"ĠesglÃ©sies":13672,"Ġseparat":13673,"Ġjaciment":13674,"Ġrebutja":13675,"Ġsalud":13676,"Ġmeua":13677,"ĠManlleu":13678,"urb":13679,"adem":13680,"Ġanant":13681,"Ġdigne":13682,"ĠQuÃŃm":13683,"Ġenva":13684,"ĠViena":13685,"ĠgenÃ¨tica":13686,"Ġautoritzat":13687,"ĠSovint":13688,"Ġascens":13689,"Cons":13690,"ĠDelta":13691,"Ġcompleixin":13692,"ĠrectificaciÃ³":13693,"ĠColÃ²mbia":13694,"Ġrepl":13695,"usar":13696,"how":13697,"IAL":13698,"Ġfacil":13699,"Ġconcedida":13700,"Ġrestring":13701,"Ġguies":13702,"dÃ¨ncia":13703,"ĠCastelldefels":13704,"ĠsuperfÃŃcies":13705,"ĠUrban":13706,"ĠHoll":13707,"Ġdistingir":13708,"Ġtraduir":13709,"ĠprÃ²rroga":13710,"Ġferit":13711,"ĠfacturaciÃ³":13712,"unts":13713,"Ġtrastorns":13714,"ĠTecnologia":13715,"Ġ92":13716,"ĠIceta":13717,"Ġrecre":13718,"Ġlimitada":13719,"ĠBorrÃłs":13720,"ĠreestructuraciÃ³":13721,"IO":13722,"Ġdisminuir":13723,"Ġdecor":13724,"ĠexistÃ¨ncia":13725,"Ġsubter":13726,"extra":13727,"Ġplenes":13728,"Ġpura":13729,"Ġtira":13730,"Ġremei":13731,"Ġcondicionat":13732,"ĠTit":13733,"Ġmascar":13734,"mentera":13735,"Ġmassiva":13736,"Ġresultant":13737,"ÃŃb":13738,"Ġajorn":13739,"ĠGovernaciÃ³":13740,"ĠUniversitÃłria":13741,"ento":13742,"ĠVerd":13743,"orida":13744,"Ġdeixava":13745,"mburg":13746,"Ġxines":13747,"ĠtÃŃpic":13748,"ĠMario":13749,"dant":13750,"quan":13751,"Ġcrits":13752,"Ġencarregats":13753,"Ġcomparar":13754,"Ġdediquen":13755,"ĠcolÃ²nia":13756,"ĠtelemÃłtica":13757,"ocon":13758,"Ġpujat":13759,"ĠSegurament":13760,"AgrupaciÃ³":13761,"Ġtrag":13762,"ĠWi":13763,"ĠÃ¨mf":13764,"argument":13765,"Ġaparegut":13766,"Ġvertical":13767,"Ġmasculina":13768,"ĠCir":13769,"obil":13770,"Ġmales":13771,"ĠProjectes":13772,"Ġimporta":13773,"Ġintr":13774,"kar":13775,"Ġsatisfac":13776,"ellament":13777,"MI":13778,"Ġisraeli":13779,"ficials":13780,"ĠOrg":13781,"Ġdents":13782,"ĠRab":13783,"essÃ¨ncia":13784,"ĠprocedÃ¨ncia":13785,"Ġenemics":13786,"ĠPastor":13787,"Ġrend":13788,"Ġnavegant":13789,"Ġdirectiu":13790,"ĠSER":13791,"Ġestrangera":13792,"Ġprecedents":13793,"Ġestant":13794,"Ġanalitza":13795,"Ġvocals":13796,"ANA":13797,"ĠEscolar":13798,"Ġbolets":13799,"Ġrestriccions":13800,"Amp":13801,"Ġflota":13802,"ursiÃ³":13803,"preu":13804,"och":13805,"Ġcontractat":13806,"Ġafegint":13807,"ĠMis":13808,"Ġtipologia":13809,"700":13810,"ritas":13811,"Ġlleuger":13812,"Ġdefensen":13813,"Ġderivada":13814,"Ġextrems":13815,"Ġenquesta":13816,"Ġbanderes":13817,"Ġparroquial":13818,
[...]
